{
  "langs": [
    "en",
    "hi",
    "te",
    "ta"
  ],
  "vocab": [
    "\t",
    "\n",
    " ",
    "!",
    "\"",
    "#",
    "$",
    "%",
    "&",
    "'",
    "(",
    ")",
    "*",
    "+",
    ",",
    "-",
    ".",
    "/",
    "0",
    "1",
    "2",
    "3",
    "4",
    "5",
    "6",
    "7",
    "8",
    "9",
    ":",
    ";",
    "<",
    "=",
    ">",
    "?",
    "@",
    "A",
    "B",
    "C",
    "D",
    "E",
    "F",
    "G",
    "H",
    "I",
    "J",
    "K",
    "L",
    "M",
    "N",
    "O",
    "P",
    "Q",
    "R",
    "S",
    "T",
    "U",
    "V",
    "W",
    "X",
    "Y",
    "Z",
    "[",
    "\\",
    "]",
    "^",
    "_",
    "`",
    "a",
    "b",
    "c",
    "d",
    "e",
    "f",
    "g",
    "h",
    "i",
    "j",
    "k",
    "l",
    "m",
    "n",
    "o",
    "p",
    "q",
    "r",
    "s",
    "t",
    "u",
    "v",
    "w",
    "x",
    "y",
    "z",
    "{",
    "|",
    "}",
    "~",
    "«",
    "°",
    "»",
    "Ö",
    "á",
    "â",
    "í",
    "ā",
    "ī",
    "Ś",
    "ū",
    "ə",
    "ɦ",
    "ɪ",
    "ɾ",
    "ʊ",
    "ʱ",
    "ˈ",
    "ː",
    "ί",
    "α",
    "δ",
    "ν",
    "ο",
    "ς",
    "ό",
    "ं",
    "अ",
    "अं",
    "आ",
    "आं",
    "इ",
    "इं",
    "ई",
    "ईं",
    "उ",
    "उं",
    "ऊ",
    "ऊँ",
    "ऊं",
    "ऋ",
    "ए",
    "एँ",
    "एं",
    "ऐ",
    "ऐं",
    "ऑ",
    "ओ",
    "ओं",
    "औ",
    "क",
    "कं",
    "का",
    "कां",
    "कि",
    "किं",
    "की",
    "कु",
    "कू",
    "कृ",
    "के",
    "कें",
    "कै",
    "कॉ",
    "कॉं",
    "को",
    "कों",
    "ख",
    "खं",
    "खा",
    "खि",
    "खी",
    "खु",
    "खू",
    "खे",
    "खो",
    "ग",
    "गं",
    "गा",
    "गाँ",
    "गां",
    "गि",
    "गी",
    "गु",
    "गू",
    "गे",
    "गै",
    "गॉ",
    "गो",
    "गों",
    "गौ",
    "घ",
    "घं",
    "घा",
    "घि",
    "घी",
    "घु",
    "घू",
    "घो",
    "च",
    "चं",
    "चा",
    "चि",
    "ची",
    "चु",
    "चू",
    "चे",
    "चें",
    "चै",
    "चो",
    "चों",
    "चौ",
    "छ",
    "छा",
    "छी",
    "छु",
    "छू",
    "छे",
    "छो",
    "ज",
    "जं",
    "जा",
    "जि",
    "जी",
    "जु",
    "जू",
    "जें",
    "जै",
    "जो",
    "जों",
    "झ",
    "झा",
    "झु",
    "झे",
    "झौ",
    "ञा",
    "ट",
    "टा",
    "टि",
    "टी",
    "टू",
    "टे",
    "टें",
    "टॉ",
    "टों",
    "ठ",
    "ठं",
    "ठा",
    "ठि",
    "ठी",
    "ड",
    "डा",
    "डां",
    "डि",
    "डी",
    "डु",
    "डे",
    "डॉ",
    "डो",
    "ढ",
    "ढा",
    "ढाँ",
    "ढां",
    "ढि",
    "ण",
    "णा",
    "णि",
    "णी",
    "णु",
    "त",
    "तं",
    "तः",
    "ता",
    "तां",
    "ति",
    "ती",
    "तीं",
    "तु",
    "तृ",
    "ते",
    "तें",
    "तो",
    "तों",
    "तौ",
    "थ",
    "था",
    "थि",
    "थी",
    "थीं",
    "थे",
    "द",
    "दं",
    "दा",
    "दि",
    "दी",
    "दु",
    "दू",
    "दृ",
    "दे",
    "दें",
    "दो",
    "दों",
    "दौ",
    "ध",
    "धा",
    "धि",
    "धी",
    "धु",
    "धे",
    "धो",
    "धों",
    "न",
    "नं",
    "नः",
    "ना",
    "नां",
    "नि",
    "नी",
    "नीं",
    "नु",
    "नू",
    "नृ",
    "ने",
    "नै",
    "नो",
    "नों",
    "नौ",
    "प",
    "पं",
    "पा",
    "पाँ",
    "पां",
    "पि",
    "पी",
    "पीं",
    "पु",
    "पू",
    "पूं",
    "पे",
    "पें",
    "पै",
    "पैं",
    "पॉ",
    "पो",
    "पों",
    "फ",
    "फा",
    "फि",
    "फु",
    "फू",
    "फे",
    "फै",
    "ब",
    "बँ",
    "बं",
    "बा",
    "बाँ",
    "बां",
    "बि",
    "बी",
    "बु",
    "बू",
    "बे",
    "बें",
    "बै",
    "बैं",
    "बॉ",
    "बो",
    "बौ",
    "भ",
    "भं",
    "भा",
    "भां",
    "भि",
    "भी",
    "भु",
    "भू",
    "भे",
    "भो",
    "भौ",
    "म",
    "मं",
    "मा",
    "मां",
    "मि",
    "मी",
    "मु",
    "मुं",
    "मू",
    "मृ",
    "मे",
    "में",
    "मै",
    "मो",
    "मों",
    "मौ",
    "य",
    "यं",
    "या",
    "याँ",
    "यां",
    "यि",
    "यी",
    "यु",
    "यू",
    "ये",
    "यें",
    "यो",
    "यों",
    "यौ",
    "र",
    "रं",
    "रा",
    "राँ",
    "रां",
    "रि",
    "रिं",
    "री",
    "रु",
    "रू",
    "रे",
    "रें",
    "रै",
    "रैं",
    "रो",
    "रोँ",
    "रों",
    "रौ",
    "ल",
    "लं",
    "ला",
    "लाँ",
    "लां",
    "लि",
    "लिं",
    "ली",
    "लीं",
    "लु",
    "लू",
    "ले",
    "लै",
    "लैं",
    "लॉ",
    "लो",
    "लों",
    "लौ",
    "व",
    "वं",
    "वा",
    "वाँ",
    "वां",
    "वि",
    "विं",
    "वी",
    "वीं",
    "वृ",
    "वे",
    "वें",
    "वै",
    "वो",
    "वों",
    "श",
    "शः",
    "शा",
    "शां",
    "शि",
    "शी",
    "शु",
    "शृं",
    "शे",
    "शै",
    "शो",
    "शों",
    "ष",
    "षा",
    "षि",
    "षी",
    "षु",
    "षे",
    "षों",
    "स",
    "सं",
    "सा",
    "सां",
    "सि",
    "सिं",
    "सी",
    "सु",
    "सू",
    "सृ",
    "से",
    "सै",
    "सॉ",
    "सो",
    "सों",
    "सौ",
    "ह",
    "हा",
    "हाँ",
    "हां",
    "हि",
    "हिं",
    "ही",
    "हीं",
    "हु",
    "हुँ",
    "हू",
    "हे",
    "हें",
    "है",
    "हैं",
    "हॉ",
    "हो",
    "हों",
    "़",
    "ा",
    "ि",
    "ी",
    "े",
    "ो",
    "्",
    "।",
    "॥",
    "०",
    "१",
    "२",
    "३",
    "४",
    "५",
    "६",
    "७",
    "८",
    "९",
    "॰",
    "ஃ",
    "அ",
    "ஆ",
    "இ",
    "ஈ",
    "உ",
    "ஊ",
    "எ",
    "ஏ",
    "ஐ",
    "ஒ",
    "ஓ",
    "க",
    "கா",
    "கி",
    "கீ",
    "கு",
    "கூ",
    "கெ",
    "கே",
    "கை",
    "கொ",
    "கோ",
    "கௌ",
    "ங",
    "ச",
    "சா",
    "சி",
    "சீ",
    "சு",
    "சூ",
    "செ",
    "சே",
    "சை",
    "சொ",
    "சோ",
    "சௌ",
    "ஜ",
    "ஜி",
    "ஜீ",
    "ஜூ",
    "ஜெ",
    "ஜை",
    "ஜோ",
    "ஞ",
    "ஞா",
    "ட",
    "டா",
    "டி",
    "டு",
    "டெ",
    "டே",
    "டை",
    "டோ",
    "ண",
    "ணா",
    "ணி",
    "ணு",
    "ணெ",
    "ணை",
    "த",
    "தா",
    "தி",
    "தீ",
    "து",
    "தூ",
    "தெ",
    "தே",
    "தை",
    "தொ",
    "தோ",
    "ந",
    "நா",
    "நி",
    "நீ",
    "நு",
    "நூ",
    "நெ",
    "நே",
    "நை",
    "நோ",
    "நௌ",
    "ன",
    "னா",
    "னி",
    "னீ",
    "னு",
    "னெ",
    "னே",
    "னை",
    "னொ",
    "னோ",
    "ப",
    "பா",
    "பி",
    "பீ",
    "பு",
    "பூ",
    "பெ",
    "பே",
    "பை",
    "பொ",
    "போ",
    "பௌ",
    "ம",
    "மா",
    "மி",
    "மீ",
    "மு",
    "மூ",
    "மெ",
    "மே",
    "மை",
    "மொ",
    "மோ",
    "மௌ",
    "ய",
    "யா",
    "யி",
    "யீ",
    "யு",
    "யூ",
    "யெ",
    "யே",
    "யை",
    "யொ",
    "யோ",
    "ர",
    "ரா",
    "ரி",
    "ரீ",
    "ரு",
    "ரூ",
    "ரே",
    "ரை",
    "ரொ",
    "ரோ",
    "ற",
    "றா",
    "றி",
    "று",
    "றே",
    "றை",
    "றொ",
    "றோ",
    "ல",
    "லா",
    "லி",
    "லீ",
    "லு",
    "லூ",
    "லெ",
    "லே",
    "லை",
    "லோ",
    "ள",
    "ளா",
    "ளி",
    "ளு",
    "ளூ",
    "ளே",
    "ளை",
    "ளோ",
    "ழ",
    "ழா",
    "ழி",
    "ழு",
    "ழை",
    "வ",
    "வா",
    "வி",
    "வீ",
    "வு",
    "வெ",
    "வே",
    "வை",
    "வொ",
    "வோ",
    "ஷ",
    "ஷா",
    "ஸ",
    "ஸா",
    "ஹ",
    "ஹி",
    "ஹு",
    "ஹோ",
    "்",
    "అ",
    "అం",
    "ఆ",
    "ఆం",
    "ఇ",
    "ఇం",
    "ఈ",
    "ఉ",
    "ఉం",
    "ఋ",
    "ఎ",
    "ఎం",
    "ఏ",
    "ఐ",
    "ఒ",
    "ఓ",
    "ఔ",
    "క",
    "కం",
    "కా",
    "కాం",
    "కి",
    "కిం",
    "కీ",
    "కు",
    "కుం",
    "కూ",
    "కృ",
    "కె",
    "కే",
    "కేం",
    "కై",
    "కొ",
    "కొం",
    "కో",
    "ఖ",
    "ఖం",
    "ఖా",
    "ఖి",
    "ఖో",
    "గ",
    "గం",
    "గా",
    "గాం",
    "గి",
    "గిం",
    "గీ",
    "గు",
    "గృ",
    "గె",
    "గే",
    "గో",
    "గౌ",
    "ఘ",
    "ఘం",
    "ఘా",
    "ఘి",
    "ఘు",
    "ఘో",
    "చ",
    "చం",
    "చా",
    "చి",
    "చిం",
    "చీ",
    "చు",
    "చూ",
    "చె",
    "చెం",
    "చే",
    "చై",
    "చో",
    "ఛా",
    "జ",
    "జం",
    "జా",
    "జి",
    "జీ",
    "జు",
    "జూ",
    "జె",
    "జెం",
    "జై",
    "జో",
    "జౌ",
    "ఞా",
    "ట",
    "టం",
    "టా",
    "టి",
    "టీ",
    "టు",
    "టుం",
    "టూ",
    "టె",
    "టే",
    "టై",
    "టో",
    "టోం",
    "ఠ",
    "ఠీ",
    "డ",
    "డం",
    "డా",
    "డి",
    "డిం",
    "డీ",
    "డు",
    "డుం",
    "డే",
    "డై",
    "డో",
    "ఢ",
    "ఢా",
    "ఢి",
    "ణ",
    "ణం",
    "ణా",
    "ణి",
    "ణిం",
    "ణు",
    "ణే",
    "త",
    "తం",
    "తా",
    "తాం",
    "తి",
    "తిం",
    "తీ",
    "తు",
    "తుం",
    "తూ",
    "తృ",
    "తె",
    "తే",
    "తై",
    "తో",
    "తోం",
    "థ",
    "థా",
    "థి",
    "థీ",
    "థూ",
    "ద",
    "దం",
    "దా",
    "ది",
    "దిం",
    "దీ",
    "దు",
    "దూ",
    "దృ",
    "దే",
    "దై",
    "ధ",
    "ధం",
    "ధా",
    "ధి",
    "ధిం",
    "ధీ",
    "ధు",
    "ధుా",
    "ధూ",
    "న",
    "నం",
    "నా",
    "ని",
    "నిం",
    "నీ",
    "ను",
    "నుం",
    "నూ",
    "నృ",
    "నె",
    "నే",
    "నై",
    "నో",
    "ప",
    "పం",
    "పా",
    "పాం",
    "పి",
    "పిం",
    "పీ",
    "పు",
    "పూ",
    "పె",
    "పే",
    "పై",
    "పొ",
    "పొం",
    "పో",
    "పౌ",
    "ఫ",
    "ఫి",
    "ఫు",
    "బ",
    "బం",
    "బా",
    "బాం",
    "బి",
    "బీ",
    "బు",
    "బూ",
    "బె",
    "బెం",
    "బే",
    "బై",
    "బొ",
    "బౌ",
    "భ",
    "భం",
    "భా",
    "భి",
    "భిం",
    "భు",
    "భూ",
    "భౌ",
    "మ",
    "మం",
    "మా",
    "మాం",
    "మి",
    "మిం",
    "మీ",
    "ము",
    "ముం",
    "మూ",
    "మె",
    "మెం",
    "మే",
    "మై",
    "మైం",
    "మొ",
    "మో",
    "మౌ",
    "య",
    "యం",
    "యా",
    "యాం",
    "యి",
    "యిం",
    "యీ",
    "యు",
    "యూ",
    "యే",
    "యో",
    "ర",
    "రం",
    "రా",
    "రాం",
    "రి",
    "రిం",
    "రీ",
    "రీం",
    "రు",
    "రూ",
    "రె",
    "రెం",
    "రే",
    "రై",
    "రొ",
    "రో",
    "రోః",
    "ల",
    "లం",
    "లా",
    "లాం",
    "లి",
    "లిం",
    "లీ",
    "లు",
    "లూ",
    "లె",
    "లెం",
    "లే",
    "లై",
    "లో",
    "లౌ",
    "ళ",
    "ళం",
    "ళా",
    "ళి",
    "ళు",
    "ళూ",
    "వ",
    "వం",
    "వా",
    "వి",
    "విం",
    "వీ",
    "వీం",
    "వు",
    "వుం",
    "వూ",
    "వృ",
    "వె",
    "వే",
    "వై",
    "వో",
    "శ",
    "శం",
    "శా",
    "శి",
    "శిం",
    "శీ",
    "శె",
    "శే",
    "శై",
    "శో",
    "ష",
    "షం",
    "షా",
    "షి",
    "షు",
    "షే",
    "స",
    "సం",
    "సా",
    "సాం",
    "సి",
    "సిం",
    "సీ",
    "సు",
    "సూ",
    "సె",
    "సే",
    "సై",
    "సొ",
    "సౌ",
    "హ",
    "హం",
    "హా",
    "హి",
    "హిం",
    "హు",
    "హె",
    "హే",
    "హై",
    "హొ",
    "హో",
    "్",
    "ṅ",
    "ṇ",
    "ṣ",
    "ṭ",
    "Ἰ",
    " ",
    "–",
    "—",
    "‘",
    "’",
    "“",
    "”",
    "†",
    "′",
    "₹",
    " t",
    "an",
    "he",
    "in",
    " the",
    "on",
    "er",
    "re",
    " a",
    " o",
    "en",
    "st",
    "al",
    "di",
    "at",
    " c",
    "and",
    "ed",
    " I",
    "ar",
    " w",
    "it",
    " of",
    " in",
    " s",
    " and",
    " In",
    " b",
    "or",
    "ion",
    " p",
    " m",
    "es",
    " f",
    "ic",
    " Indi",
    "is",
    "ing",
    "as",
    "ent",
    " l",
    "om",
    " e",
    "ou",
    " India",
    " to",
    "ly",
    " h",
    " d",
    "ur",
    "ec",
    " re",
    " 1",
    " n",
    " g",
    " T",
    "il",
    "th",
    "ver",
    "ul",
    " A",
    "ri",
    "ol",
    "ra",
    " C",
    "ation",
    "am",
    " B",
    "ro",
    "ve",
    "le",
    " is",
    " S",
    "ut",
    " The",
    "ce",
    " by",
    " Indian",
    "ist",
    "ast",
    "et",
    " 2",
    "ad",
    "us",
    "im",
    " th",
    "ge",
    "ig",
    "ow",
    " 19",
    "id",
    "ith",
    "un",
    " for",
    "ir",
    " r",
    " be",
    "uc",
    " with",
    " con",
    "ment",
    " was",
    "ate",
    "00",
    "ies",
    "tion",
    "op",
    " as",
    "res",
    " wh",
    "ter",
    " st",
    " mo",
    " P",
    "em",
    " M",
    "rom",
    "ong",
    "ain",
    " it",
    "ts",
    "ical",
    " ex",
    "est",
    " di",
    " E",
    "her",
    " an",
    "ang",
    "ld",
    " from",
    " has",
    "se",
    " or",
    "ab",
    "ich",
    "ac",
    "ial",
    "gh",
    " on",
    "um",
    "ill",
    "ay",
    "up",
    "der",
    " N",
    " ar",
    " D",
    " which",
    " H",
    "ud",
    " un",
    " G",
    " are",
    "ive",
    "ity",
    " par",
    "ub",
    "con",
    " 20",
    "ak",
    "ted",
    "rit",
    "ure",
    "ult",
    " inc",
    " its",
    "oc",
    "ere",
    "li",
    " com",
    "oun",
    "over",
    " al",
    "end",
    "ers",
    "du",
    " were",
    " v",
    "ans",
    "iv",
    "ther",
    "ated",
    "ary",
    "el",
    "ear",
    "os",
    " cent",
    " de",
    "arge",
    "ch",
    "od",
    "ism",
    " As",
    "ous",
    " wor",
    "mp",
    "ough",
    " int",
    " pro",
    "our",
    "por",
    " co",
    " ch",
    "fter",
    " cont",
    "outh",
    "overn",
    "In",
    "ant",
    "ally",
    "age",
    " Hin",
    "ions",
    "ame",
    "ass",
    " at",
    " W",
    "ry",
    " nor",
    "if",
    "ag",
    "uring",
    " bec",
    "conom",
    "low",
    "ot",
    " part",
    " U",
    "av",
    " mar",
    " into",
    " form",
    "ish",
    " econom",
    "ance",
    " sp",
    "ress",
    "overnment",
    " reg",
    "ern",
    "any",
    "aj",
    "illion",
    "ap",
    "ct",
    " se",
    " Ch",
    " sub",
    " J",
    " k",
    " pl",
    "stit",
    " centur",
    " le",
    " large",
    " cl",
    " ad",
    " R",
    "ia",
    " pop",
    " y",
    "angu",
    "ution",
    "eral",
    " per",
    "me",
    "ates",
    " 201",
    "ence",
    "cc",
    "mer",
    " langu",
    " rel",
    "hi",
    "og",
    "The",
    "ore",
    "inist",
    " el",
    " government",
    "Indi",
    " popul",
    " world",
    " dec",
    "ire",
    " pri",
    "reas",
    "qu",
    " K",
    "lud",
    " Ind",
    " year",
    " ag",
    "ave",
    "reat",
    " comp",
    " fir",
    " first",
    " sy",
    "ome",
    " gen",
    " tra",
    "ces",
    "India",
    " sh",
    "ved",
    "red",
    " V",
    "ff",
    " Hindu",
    "duc",
    " end",
    "all",
    "dition",
    "pp",
    "uch",
    " includ",
    "ection",
    "ian",
    "igh",
    "used",
    " art",
    "ect",
    " became",
    "gan",
    " over",
    " res",
    "stitution",
    "row",
    "ide",
    "ok",
    " syst",
    " system",
    "we",
    "oth",
    "ine",
    " during",
    "so",
    "ber",
    "dern",
    "estern",
    " ri",
    " had",
    "mpire",
    " but",
    "ational",
    "ajor",
    " been",
    " ne",
    "har",
    " have",
    "ric",
    " 5",
    " sup",
    "thern",
    "dh",
    " cons",
    " relig",
    "ral",
    " me",
    "ural",
    "ign",
    " inf",
    " F",
    " also",
    " more",
    "ongress",
    " South",
    " most",
    "ound",
    " lat",
    " years",
    "ord",
    "ages",
    " tw",
    " pe",
    " after",
    " 3",
    " million",
    " increas",
    " 7",
    " class",
    " that",
    " century",
    " such",
    "ower",
    " num",
    " minist",
    "tin",
    " long",
    " region",
    " 4",
    " he",
    " pol",
    "ures",
    " two",
    " rul",
    " modern",
    "atic",
    " dis",
    "mong",
    " tradition",
    " im",
    "ens",
    " both",
    "imal",
    "pt",
    " ca",
    " 200",
    " Congress",
    " prime",
    " Asia",
    "istan",
    " BC",
    " BCE",
    " cast",
    " soc",
    "ty",
    " sc",
    " 195",
    " 202",
    " major",
    "vers",
    "ren",
    "etwe",
    "etween",
    "urb",
    "urban",
    "les",
    " under",
    "ust",
    " ser",
    " off",
    "ep",
    "lic",
    " coun",
    "ince",
    " O",
    " L",
    "isation",
    " language",
    " caste",
    " Bud",
    " Buddh",
    "ose",
    " this",
    " cult",
    "hed",
    " Empire",
    "ik",
    " Brit",
    " British",
    "rough",
    "ament",
    " population",
    "ucle",
    "uclear",
    "vel",
    " urban",
    "ting",
    " not",
    " grow",
    " their",
    " election",
    " minister",
    " 196",
    "ially",
    " south",
    "eng",
    "out",
    " land",
    "akistan",
    " north",
    "contin",
    "continent",
    "ni",
    " rec",
    " ear",
    " began",
    "anges",
    "ell",
    "ree",
    "ically",
    " Con",
    "ari",
    " many",
    "ond",
    " between",
    "rib",
    "lo",
    "lowing",
    " fol",
    " 199",
    " dance",
    " It",
    " Pakistan",
    " east",
    " later",
    "ade",
    "merg",
    " northern",
    "ef",
    "ite",
    " economic",
    " exp",
    " economy",
    "lu",
    "ition",
    " rep",
    " tim",
    " ter",
    "sh",
    " app",
    " en",
    "als",
    "dic",
    " fore",
    " Un",
    " ra",
    "ited",
    " up",
    " j",
    "ublic",
    " count",
    " since",
    "cy",
    " An",
    " hum",
    " subcontinent",
    "000",
    "omin",
    " western",
    "gin",
    "aw",
    "vi",
    "ations",
    " there",
    "ugh",
    "ace",
    " 18",
    "olog",
    " non",
    " influ",
    " increased",
    " lit",
    " rate",
    "ilit",
    "mon",
    " spec",
    " ext",
    " peop",
    " sec",
    " ab",
    "ory",
    " CE",
    " classical",
    "ular",
    "velop",
    "ard",
    "ket",
    "ered",
    "ice",
    "port",
    " 2011",
    "vent",
    " 194",
    "sl",
    " Th",
    " than",
    " occ",
    " lif",
    " life",
    " emerg",
    "ise",
    "ta",
    "ised",
    "ains",
    " Mugh",
    " Com",
    "ech",
    "ced",
    " parli",
    " parliament",
    " liter",
    " mid",
    " nuclear",
    " state",
    "hm",
    "versity",
    "ected",
    "ately",
    " hist",
    "ci",
    " people",
    "ever",
    "own",
    " peri",
    " period",
    " new",
    "ph",
    " power",
    "rol",
    "able",
    "amil",
    " 6",
    " develop",
    " Al",
    " war",
    "esp",
    " mat",
    " number",
    " cour",
    " species",
    " among",
    " general",
    " largest",
    " mus",
    " country",
    " Beng",
    " Bengal",
    " Chin",
    " bas",
    "illen",
    "illenni",
    "illennium",
    " Sans",
    " Sansk",
    " Sanskrit",
    " Indo",
    "urop",
    "urope",
    " languages",
    " social",
    " Ma",
    "ya",
    " est",
    "lim",
    "ultan",
    " Pun",
    " Punj",
    " Punjab",
    " Mughal",
    "ative",
    " rule",
    " East",
    "vement",
    " 1950",
    " through",
    " US",
    "orm",
    " though",
    " milit",
    "fe",
    "per",
    " ref",
    "cient",
    "ron",
    "ood",
    "ities",
    "hen",
    "ten",
    " including",
    " set",
    "ple",
    " them",
    " caused",
    " Pl",
    " lead",
    "gen",
    "tern",
    " constitution",
    "ort",
    "hem",
    " music",
    "large",
    "largest",
    "heast",
    " China",
    " Indus",
    " river",
    " 9",
    " gra",
    "ivil",
    "ird",
    " millennium",
    " By",
    " 12",
    " pre",
    "ex",
    " expor",
    " religi",
    "uslim",
    " Cent",
    "rew",
    "ks",
    " Sik",
    " centuries",
    " Comp",
    " gr",
    "duced",
    " other",
    "ied",
    " billion",
    " military",
    "ild",
    "ording",
    "ians",
    "owever",
    " fe",
    " sty",
    "hes",
    " emp",
    "ments",
    "ared",
    " main",
    " some",
    "ould",
    "roc",
    " forest",
    " far",
    "ai",
    " tr",
    " all",
    " led",
    " sign",
    "ident",
    " who",
    " Ne",
    " cr",
    "ess",
    " After",
    " dire",
    " Wor",
    " World",
    " served",
    " rural",
    "read",
    " Himal",
    " Himalay",
    " one",
    " 198",
    "ati",
    " mathem",
    " 1947",
    " Isl",
    "ands",
    " no",
    " made",
    " high",
    "led",
    " emerged",
    " third",
    " Hinduism",
    "pl",
    "ked",
    " polit",
    " political",
    " wom",
    " women",
    "dle",
    " religious",
    " coast",
    " Muslim",
    " Central",
    "mit",
    " Del",
    " Delhi",
    "ultanate",
    " culture",
    " Sikh",
    " us",
    "acy",
    " Company",
    " col",
    " Indians",
    " tech",
    "20",
    " acc",
    "istic",
    " time",
    "put",
    "odi",
    "ats",
    " En",
    "gl",
    "ives",
    " used",
    "dust",
    " wide",
    "day",
    " coal",
    "ata",
    " human",
    "hr",
    "ants",
    " we",
    " found",
    " ass",
    " agric",
    " agricult",
    " out",
    "ange",
    "arn",
    " central",
    "ack",
    " control",
    "cri",
    " great",
    "ins",
    " trans",
    "very",
    "ars",
    "omet",
    " Sh",
    "ors",
    " loc",
    "til",
    "ost",
    "anu",
    " sur",
    " following",
    " Gand",
    " Gandhi",
    "ib",
    " Plate",
    " include",
    "ribut",
    " influen",
    " St",
    " areas",
    " growth",
    "ances",
    " cook",
    "ensus",
    "emoc",
    "west",
    "ades",
    " Its",
    "are",
    " ago",
    " occup",
    "verse",
    "vol",
    "ving",
    "alle",
    " arch",
    "uropean",
    " diff",
    " early",
    " regions",
    " Jain",
    "oms",
    "abl",
    " arm",
    "wor",
    " cre",
    " leg",
    " righ",
    "nolog",
    " movement",
    " fed",
    " parliamentary",
    " grew",
    " cap",
    "ually",
    " literacy",
    " bi",
    " Engl",
    " English",
    " histor",
    " prov",
    " Constitution",
    " ori",
    " origin",
    "19",
    " ent",
    " second",
    " diversity",
    " animal",
    " feat",
    " fig",
    " 15",
    " Ganges",
    "oin",
    "fore",
    "ach",
    " religions",
    " bir",
    "raph",
    " 26",
    "ne",
    " dev",
    " they",
    "iz",
    "ific",
    "ines",
    "ites",
    "ists",
    " gener",
    " local",
    " esp",
    " espec",
    " especially",
    "ven",
    " 17",
    " pain",
    " painting",
    " direct",
    "str",
    " indust",
    " states",
    " territ",
    "au",
    " ancient",
    "ction",
    " rem",
    " remain",
    " dra",
    "und",
    "ons",
    " majority",
    " her",
    " 197",
    "JP",
    " Nehr",
    " Nehru",
    " party",
    " last",
    " United",
    " contribut",
    " rates",
    " census",
    "icial",
    " Hindi",
    " marri",
    " scul",
    " sculpt",
    " ind",
    "outheast",
    "yan",
    "mar",
    "ank",
    " And",
    " Andam",
    " Andaman",
    "alley",
    "ning",
    " Buddhism",
    " During",
    " stat",
    " decl",
    "ined",
    " king",
    "ished",
    " sou",
    " southern",
    " inter",
    " created",
    " compos",
    "ft",
    "urn",
    " prom",
    " technolog",
    " ed",
    " educ",
    " education",
    " national",
    "act",
    "ration",
    " federal",
    " republic",
    " become",
    " air",
    "ccording",
    "urther",
    " Pers",
    " eastern",
    " well",
    " popular",
    " widely",
    " earli",
    " 8",
    " forms",
    "etic",
    "pro",
    "ped",
    " These",
    " cities",
    " Mo",
    " styles",
    "wn",
    "ating",
    "ight",
    "ics",
    "alled",
    " based",
    "ix",
    "sequ",
    "sequent",
    "amm",
    " roc",
    " adm",
    " administ",
    "ert",
    " Tamil",
    " pen",
    " penins",
    "ively",
    " regional",
    " whose",
    " sm",
    "ificant",
    " sultanate",
    "though",
    "ract",
    " market",
    "oup",
    "arat",
    " commer",
    " pres",
    " longer",
    " sever",
    "leg",
    " National",
    " There",
    "cent",
    "eration",
    " won",
    "ories",
    " elections",
    "wan",
    " contin",
    " lower",
    " Himalayas",
    " Western",
    " low",
    " union",
    " often",
    " endem",
    "bal",
    " car",
    " Act",
    " BJP",
    "ody",
    " 1991",
    " exec",
    " execut",
    "ived",
    "DP",
    "de",
    " 2001",
    " common",
    " mathematic",
    " indep",
    " independ",
    " Ara",
    " Se",
    "ders",
    " west",
    "div",
    "bar",
    " Af",
    "ather",
    " record",
    "dian",
    " Jainism",
    "redi",
    " rise",
    " fl",
    "ility",
    "lief",
    " kingd",
    " kingdoms",
    " Southeast",
    " Islam",
    " establ",
    " left",
    " changes",
    "mary",
    " domin",
    "sc",
    "ale",
    "oss",
    "ual",
    " soci",
    "ety",
    " ann",
    " fast",
    " technology",
    " middle",
    " increasing",
    "ality",
    " Kas",
    " Kashm",
    " Among",
    "ising",
    "adi",
    " four",
    "ie",
    " prot",
    " Persian",
    " term",
    " Bhar",
    " vari",
    " cur",
    " thought",
    " earliest",
    " 50",
    "nown",
    " z",
    "tle",
    " around",
    " char",
    " ste",
    " figures",
    " vill",
    " old",
    "eak",
    "cro",
    "ss",
    " plain",
    " times",
    " emplo",
    " employ",
    " however",
    " differ",
    " eth",
    "ices",
    " conduc",
    " Bra",
    " Brahm",
    " birth",
    "rop",
    "ograph",
    " empire",
    "ption",
    " tex",
    " subsequent",
    " polic",
    "iss",
    " rock",
    "mb",
    " comple",
    " ta",
    "ature",
    " along",
    " resp",
    "ded",
    " def",
    " mak",
    " tem",
    " significant",
    "bers",
    " every",
    "ays",
    " sch",
    " Buddhist",
    " 10",
    " vast",
    " leading",
    " men",
    " str",
    " peninsular",
    "ards",
    "amp",
    " group",
    " Raj",
    "cial",
    "cess",
    " aff",
    " bl",
    " further",
    " consid",
    " sa",
    "ternal",
    "work",
    "ided",
    " industry",
    " legis",
    " legisl",
    " 193",
    " spread",
    " ob",
    " This",
    " continu",
    " caus",
    " now",
    " surv",
    "can",
    " dist",
    " According",
    " influenced",
    " win",
    " endang",
    " endangered",
    "ah",
    " five",
    " held",
    " until",
    " Janu",
    " January",
    " 1965",
    " civil",
    " coalition",
    " mem",
    " sing",
    " formed",
    "dra",
    " States",
    " executive",
    "ouse",
    " three",
    " court",
    " courts",
    "min",
    " GDP",
    " glo",
    " estim",
    "ales",
    " import",
    " famil",
    " families",
    " official",
    " developed",
    "ool",
    " traditional",
    " sculpture",
    " traditions",
    " dances",
    " worn",
    " gar",
    " democ",
    "bian",
    " Sea",
    " bor",
    " Bh",
    " near",
    "ico",
    "ail",
    "ones",
    " Afric",
    " Africa",
    " 55",
    " Their",
    " diverse",
    "ett",
    " gradu",
    " Valley",
    " Civil",
    " 1200",
    " recorded",
    " Dra",
    " Dravi",
    " Dravidian",
    "anted",
    " within",
    " consol",
    " consolid",
    " lo",
    " Maur",
    " Gup",
    " er",
    " era",
    " creat",
    " archit",
    " architect",
    " writ",
    "tou",
    "touch",
    "touchab",
    " scri",
    "astri",
    " established",
    "mitt",
    "ran",
    " result",
    " resulting",
    "val",
    "ara",
    "urned",
    " rights",
    " intro",
    " public",
    " took",
    " influence",
    "viol",
    " partition",
    "ratic",
    " mult",
    " 1951",
    " capit",
    " 16",
    " reduced",
    "equ",
    "ture",
    " disput",
    " Kashmir",
    " poll",
    "ots",
    " wild",
    "life",
    " traditionally",
    "ported",
    " der",
    " Gree",
    " extens",
    " Bharat",
    "lied",
    "ained",
    " curren",
    " 13",
    "rial",
    " Y",
    " extant",
    " However",
    " known",
    " about",
    " features",
    "dis",
    " oldest",
    "oci",
    " composed",
    " trib",
    "cross",
    " place",
    " when",
    " agriculture",
    " invol",
    "aving",
    " fam",
    "atical",
    " Mah",
    " called",
    "ified",
    " different",
    "ured",
    " conducted",
    "iving",
    " lay",
    " history",
    " ge",
    "ining",
    " his",
    "miss",
    "elf",
    " tax",
    " greater",
    " rene",
    " renew",
    "otion",
    " man",
    " flow",
    "ering",
    "ously",
    "erv",
    "ti",
    " West",
    " growing",
    " agricultural",
    " show",
    " development",
    " small",
    " numbers",
    "here",
    " so",
    "aries",
    " Asian",
    " Although",
    " elites",
    " indi",
    " indigen",
    " indigenous",
    " again",
    " pract",
    "ues",
    " commercial",
    " process",
    " European",
    "ably",
    " supp",
    "ely",
    " reform",
    " can",
    " Re",
    " sum",
    "alth",
    " directly",
    "gu",
    " decades",
    " produc",
    " War",
    "operation",
    "0s",
    " enac",
    " enacted",
    " All",
    " secular",
    " plate",
    " appro",
    " approx",
    " approxim",
    " approximately",
    " crust",
    " upper",
    " continued",
    " Plateau",
    " Des",
    " che",
    " Gu",
    " Guj",
    " Dec",
    " Gh",
    " Ghats",
    " Constit",
    "ash",
    " equ",
    "reme",
    "line",
    "42",
    "aksh",
    " territories",
    " mon",
    "ole",
    "ropical",
    " ret",
    " nat",
    "ali",
    " exch",
    "vention",
    " Par",
    " leader",
    " Sing",
    " Singh",
    "old",
    " body",
    "liance",
    " just",
    " member",
    " single",
    " external",
    " support",
    " De",
    " At",
    "ue",
    " 2026",
    " Ass",
    " exc",
    "erc",
    " foreign",
    " head",
    " fund",
    " fundament",
    " fundamental",
    " Union",
    " serv",
    " qu",
    " Nuclear",
    "ternational",
    "erg",
    "ergy",
    " global",
    " exports",
    " 14",
    " before",
    " 21",
    " estimated",
    " ve",
    " phar",
    " pharm",
    " pharmace",
    " pharmaceut",
    " pharmaceutical",
    "reasing",
    " cooking",
    " important",
    "hedul",
    "ani",
    " school",
    " below",
    "cast",
    " Ar",
    " mathematics",
    "dram",
    "dramas",
    " sari",
    " wa",
    " waist",
    " commonly",
    " wear",
    " cooked",
    " meat",
    " area",
    " populous",
    " independence",
    "racy",
    "cean",
    " Arabian",
    " Bay",
    " Bang",
    " Bangl",
    " Banglades",
    " Bangladesh",
    " Myan",
    " Myanmar",
    " Sri",
    " Lank",
    " Mal",
    " Nico",
    " Nicobar",
    " Islands",
    " share",
    "ime",
    " Indones",
    " Indonesia",
    " pred",
    " predomin",
    " isol",
    " margin",
    " margins",
    " basin",
    " gradually",
    " Civilisation",
    "aic",
    "European",
    " northwest",
    " hy",
    "nings",
    " suppl",
    " 400",
    "isen",
    "la",
    " heredi",
    " gave",
    " loose",
    " Maurya",
    " Gupta",
    "ivity",
    " architecture",
    " status",
    "touchability",
    " organ",
    " belief",
    " Mid",
    " Middle",
    "pts",
    " cultures",
    "anism",
    " armies",
    " plains",
    " cos",
    " medi",
    " Vi",
    "anag",
    " Sikhism",
    "ject",
    " institution",
    " religion",
    " expans",
    " rich",
    " expand",
    "onial",
    " sover",
    " sovere",
    " sovereign",
    " sovereignty",
    " 185",
    " slow",
    " introduced",
    "oted",
    " primary",
    " fact",
    " loss",
    " mig",
    " multi",
    " society",
    " 36",
    " 2023",
    " nomin",
    " capita",
    "64",
    " hub",
    " pover",
    " poverty",
    " inequ",
    " inequality",
    " disputes",
    "onom",
    " level",
    " wildlife",
    " supported",
    " protected",
    " hab",
    " habit",
    "medi",
    "mediately",
    " refer",
    "ret",
    " Greek",
    "the",
    "rat",
    "pic",
    " name",
    "sha",
    " originally",
    " Nor",
    " North",
    " currency",
    " 13th",
    " Hindust",
    "com",
    "pass",
    "passing",
    "resent",
    "esc",
    " reac",
    " reached",
    " lik",
    " init",
    " 30",
    " Me",
    "omest",
    "omestic",
    "inc",
    " animals",
    "urred",
    " 25",
    " Mohen",
    " Mohenj",
    " Mohenjo",
    "dar",
    "daro",
    "avi",
    "eri",
    "ala",
    " charac",
    " character",
    " seals",
    " written",
    " script",
    " arts",
    " town",
    "oral",
    " today",
    " associ",
    "Ary",
    "Aryan",
    " across",
    " setting",
    " ir",
    " dri",
    " bro",
    " broad",
    " being",
    " parts",
    " would",
    " range",
    " urbanisation",
    " tak",
    " varn",
    " te",
    "ings",
    " those",
    " Buddha",
    "ressed",
    " could",
    " these",
    " back",
    " Ash",
    " Ashok",
    " Ashoka",
    " bri",
    " texts",
    " speak",
    " Kal",
    "ense",
    " adop",
    " forests",
    "By",
    " administration",
    " devotion",
    " rather",
    " assert",
    " Va",
    " six",
    " Pall",
    " Pallav",
    "aced",
    " god",
    " partic",
    " age",
    " cultural",
    " much",
    " cle",
    "ditional",
    " classes",
    " temp",
    " pat",
    " Tem",
    " appear",
    " ano",
    " another",
    " eff",
    "une",
    "nam",
    " mer",
    " merch",
    " somet",
    " sometim",
    " sometimes",
    "After",
    " law",
    " laws",
    " sav",
    " vis",
    "ening",
    " strong",
    " bu",
    " came",
    " por",
    "wards",
    " then",
    "anced",
    " practices",
    " tribal",
    "onds",
    " Ak",
    "ung",
    " policies",
    " reven",
    " revenues",
    " pa",
    "reg",
    " sil",
    " enter",
    "ger",
    " maint",
    "has",
    "itions",
    " coll",
    " recog",
    " recogn",
    " fra",
    " increasingly",
    " compan",
    " companies",
    "oli",
    "ources",
    " adv",
    " stren",
    " streng",
    " strength",
    " att",
    " cruc",
    " crucial",
    " good",
    " goods",
    " Many",
    " consider",
    " having",
    " Dal",
    " rail",
    " railw",
    " Europe",
    "bell",
    "bellion",
    " pr",
    " sho",
    " unit",
    " lim",
    " safe",
    "guard",
    "ush",
    " marked",
    " dep",
    "struc",
    "pay",
    " consum",
    " provided",
    " crit",
    "co",
    " vic",
    " vict",
    " decade",
    "ises",
    " lib",
    " liberal",
    "form",
    " pers",
    " sep",
    " 70",
    "af",
    " Eur",
    " Euras",
    "one",
    "idly",
    " makes",
    " Thar",
    " Desert",
    " remaining",
    "pur",
    "kh",
    " Deccan",
    " contains",
    "itud",
    " Himalayan",
    " rivers",
    " drain",
    "ada",
    " kil",
    " kilomet",
    " kilometres",
    " mi",
    "400",
    " bel",
    " belong",
    "300",
    "land",
    " consists",
    " 11",
    "ann",
    " latter",
    " 28",
    " clim",
    " summer",
    "ds",
    " sim",
    " moist",
    " tropical",
    " 0",
    " 2018",
    " cause",
    "ections",
    " employed",
    " contain",
    " endemic",
    " mamm",
    " mammals",
    " displ",
    " 40",
    "uous",
    "rig",
    "ayed",
    " exchange",
    " extin",
    "ke",
    " threat",
    "ened",
    "des",
    "tre",
    "pen",
    " recent",
    " 1935",
    " Pro",
    "mend",
    " added",
    " eight",
    " Bi",
    "ams",
    " Jan",
    " Janata",
    " right",
    " office",
    " 1962",
    " chos",
    " chosen",
    " Indira",
    " She",
    " defe",
    "iber",
    "ency",
    " opp",
    " oppos",
    " ministers",
    " 31",
    " Fron",
    " Front",
    "ha",
    " min",
    " governments",
    " follow",
    "ee",
    " Democ",
    "DA",
    "PA",
    "han",
    "resident",
    "ute",
    " 2024",
    " Constitu",
    " Constituent",
    " Assem",
    " Assemb",
    " Assembly",
    " constitutional",
    " elected",
    "anch",
    " village",
    " distin",
    "ctions",
    " becom",
    " becoming",
    " 1950s",
    " Non",
    " went",
    "ese",
    " test",
    " weap",
    " weapons",
    "round",
    " signed",
    "ither",
    " Treat",
    " Treaty",
    "crimin",
    "no",
    " use",
    "ble",
    "eter",
    " 2008",
    " energy",
    " 2010",
    " gro",
    " nation",
    " aver",
    " average",
    " fall",
    " trade",
    " sect",
    " sector",
    " 2022",
    " hig",
    " tot",
    " total",
    " 2013",
    " cal",
    "201",
    "200",
    "24",
    "reen",
    " gas",
    "iqu",
    " resident",
    " residents",
    "91",
    " fem",
    "abad",
    " comprom",
    " compromise",
    "ii",
    " formal",
    "heduled",
    " others",
    "after",
    " express",
    " impro",
    " schools",
    "HO",
    "reath",
    "ports",
    "tt",
    " div",
    " very",
    " marriages",
    "anged",
    "rents",
    "orce",
    " natal",
    " band",
    " influences",
    "irt",
    " style",
    " sites",
    "anta",
    " manus",
    " manuscri",
    " folk",
    " mathematical",
    " transmit",
    " transmitted",
    " contributions",
    " conce",
    " exam",
    " example",
    " For",
    "oulder",
    "alw",
    " kame",
    " kamee",
    " kameez",
    "yp",
    " cu",
    " chur",
    " churid",
    " churidars",
    " dishes",
    " veg",
    " veget",
    "ricket",
    " Rep",
    " Republic",
    " democracy",
    " Ocean",
    " southwest",
    "ares",
    " borders",
    " Nep",
    " marit",
    " Thail",
    " Thailand",
    " humans",
    " occupation",
    " isolation",
    " hun",
    " hunter",
    "gather",
    "gatherers",
    " highly",
    "ettled",
    " evol",
    " archaic",
    " diffused",
    " hym",
    " hymn",
    " hymns",
    "isting",
    " supplanted",
    " arisen",
    "laim",
    "laiming",
    " Ear",
    " Early",
    "kn",
    "knit",
    "ires",
    " flour",
    " creativity",
    " untouchability",
    " exported",
    " Chri",
    " Christ",
    " Christian",
    " Christianity",
    "aism",
    " Z",
    " Zor",
    " Zoro",
    " Zoroastri",
    " Zoroastrianism",
    " coasts",
    "nd",
    "ently",
    " overran",
    " Sultanate",
    " drew",
    " net",
    "works",
    " medie",
    " medieval",
    " Vij",
    " Vijay",
    " Vijayanag",
    " Vijayanagara",
    "hered",
    " expansion",
    " relative",
    " peace",
    " expanding",
    " turned",
    " colonial",
    " 1858",
    " ide",
    " ro",
    " nationalist",
    " nonviol",
    " nonviolent",
    " factor",
    " ending",
    " independent",
    "major",
    "majority",
    " dominion",
    "scale",
    " migration",
    " accom",
    " govern",
    " democratic",
    "eth",
    "nic",
    " 361",
    " nominal",
    " income",
    " annually",
    "60",
    " 74",
    "grow",
    "growing",
    " inform",
    " information",
    " cost",
    " neigh",
    " neighb",
    " neighbour",
    " unres",
    " unresol",
    " unresolved",
    "econom",
    "economic",
    " fac",
    " gender",
    " child",
    " levels",
    " pollution",
    " meg",
    " megadi",
    " megadiverse",
    " biodi",
    " biodiversity",
    " hots",
    " hotsp",
    " hotspots",
    " immediately",
    " Cl",
    " Class",
    " Classical",
    " Lat",
    " historical",
    "Ἰν",
    "Ἰνδ",
    " Ancient",
    " Ach",
    " Acha",
    " Achaem",
    " Achaemen",
    " Old",
    " Sin",
    " Asians",
    "Bh",
    "aː",
    " applied",
    " gained",
    " mean",
    " meaning",
    "ring",
    "ased",
    "och",
    " data",
    " anat",
    " anatom",
    " like",
    " vary",
    " only",
    "ils",
    "vid",
    "vidence",
    " Bal",
    "includ",
    "including",
    " bar",
    "eb",
    " cat",
    " cattle",
    " occurred",
    "app",
    "avira",
    "akh",
    " characteristic",
    " included",
    " stand",
    " standar",
    " standardis",
    " standardised",
    " works",
    " pot",
    "rac",
    " Net",
    " towns",
    " villages",
    "astoral",
    " associated",
    " what",
    "sp",
    "ling",
    " nex",
    " next",
    " sw",
    "sted",
    " imple",
    " settle",
    " settlement",
    " may",
    " involved",
    " creating",
    " fami",
    " family",
    " mainly",
    "dif",
    "dified",
    " chap",
    "tell",
    " regist",
    " 300",
    " fort",
    " fortified",
    " varna",
    " ethical",
    " systems",
    "violence",
    "ixed",
    " heredit",
    " hereditary",
    " living",
    "ronic",
    " begin",
    " beginnings",
    " geograph",
    "23",
    " brief",
    " briefly",
    " hubs",
    " exce",
    " notable",
    " ins",
    "cription",
    " produced",
    "ream",
    " Fol",
    " Following",
    " adopted",
    " subsequently",
    " policy",
    " dh",
    "mission",
    "erous",
    " edic",
    " edicts",
    " welf",
    " welfare",
    " kill",
    " dest",
    "mental",
    " historians",
    " emb",
    " complex",
    " Plain",
    " mod",
    " model",
    "sel",
    " refl",
    " flowering",
    " literature",
    " ruled",
    " Chol",
    " respect",
    " Ka",
    " Kaver",
    " Kaveri",
    " valley",
    "andy",
    " Pallavas",
    " Sim",
    " Simultan",
    " Simultane",
    " Simultaneously",
    " fav",
    "tional",
    " gods",
    " particular",
    " extensively",
    " able",
    " lands",
    " cleared",
    " make",
    " way",
    " ruling",
    " 6th",
    " 7th",
    " They",
    "yal",
    "yalty",
    " temples",
    " patron",
    " cit",
    " citiz",
    " citizens",
    " Temple",
    " various",
    " siz",
    "ili",
    " merchants",
    " initi",
    " 10th",
    "aval",
    " united",
    " repe",
    " repeated",
    " repeatedly",
    "western",
    " event",
    " eventually",
    " Islamic",
    "rup",
    "tive",
    " largely",
    " own",
    " cust",
    "uls",
    " raid",
    " devast",
    " scen",
    " artists",
    " artis",
    " artisans",
    " build",
    " building",
    " portion",
    " rulers",
    " warri",
    " warriors",
    " did",
    "ste",
    "stead",
    " bal",
    "lus",
    "wing",
    " bonds",
    " Akbar",
    "fl",
    "ms",
    " emper",
    " emperor",
    " mand",
    " taxes",
    " lar",
    " larger",
    " markets",
    " 17th",
    " literary",
    " textil",
    " New",
    "rent",
    " groups",
    " Marat",
    " Rajput",
    " Rajputs",
    " Sikhs",
    "oration",
    " Ex",
    " commerce",
    " imper",
    " imperial",
    "ority",
    " late",
    " 18th",
    "ilitated",
    " aut",
    " affa",
    " affair",
    " affairs",
    " presence",
    " coastal",
    "osts",
    " resources",
    " advanced",
    " attract",
    " company",
    "idel",
    " access",
    " manu",
    " manuf",
    " manufact",
    " mater",
    " material",
    " materials",
    " ons",
    " onset",
    " severely",
    "iled",
    " effect",
    " appoin",
    "eneral",
    " ess",
    " essent",
    " essential",
    " dem",
    " railways",
    "duction",
    " Dis",
    "vas",
    "vasive",
    "sty",
    "style",
    " reforms",
    " prin",
    " princes",
    " rebellion",
    " unitary",
    " limited",
    " safeguard",
    " against",
    " hal",
    " half",
    " 19th",
    " farm",
    " farmers",
    " depend",
    " dependent",
    "espite",
    " industrial",
    " generated",
    "ropp",
    " food",
    " consumption",
    " relief",
    "ressive",
    " stri",
    "dent",
    " self",
    "ma",
    " 1930s",
    " victories",
    "ip",
    " II",
    " push",
    " advent",
    " liberalisation",
    " transform",
    " transformed",
    " persist",
    " vi",
    " viol",
    " violence",
    " Na",
    " separat",
    " Jamm",
    " Jammu",
    " Nort",
    " Northeast",
    " territor",
    " territorial",
    " accoun",
    " bul",
    " bulk",
    "ying",
    "onic",
    " geolog",
    " super",
    " supercontinent",
    " Gond",
    " Gondwan",
    " Gondwana",
    "east",
    " spreading",
    " obstruc",
    " she",
    " layer",
    "ets",
    "head",
    " stif",
    " stiff",
    " Tib",
    " Tibet",
    "ick",
    " rap",
    " rapidly",
    " sedi",
    " sediment",
    "stitut",
    "stitutes",
    "Gang",
    "Gangetic",
    " original",
    " abo",
    " above",
    " extend",
    " extends",
    "erly",
    " To",
    " lies",
    " survives",
    " ranges",
    " chains",
    " Gujarat",
    " Jhar",
    " Jharkh",
    " Jharkhand",
    " Eastern",
    "uted",
    " fash",
    " latitud",
    " subst",
    " substant",
    " substantially",
    " Brahmap",
    " Brahmaput",
    " Brahmaputra",
    " Kos",
    " Kosi",
    " extreme",
    " extremely",
    " gradi",
    " gradient",
    " flo",
    " flood",
    " prevent",
    " Nar",
    " coastline",
    " meas",
    "51",
    " leng",
    " length",
    "94",
    " Laksh",
    " Lakshad",
    " Lakshadwe",
    " Lakshadweep",
    " 43",
    " shores",
    " marsh",
    " marshy",
    "arb",
    " shared",
    "ls",
    " vol",
    " volcan",
    " strongly",
    " monso",
    " winds",
    " simil",
    " similar",
    " role",
    " June",
    " Oct",
    " Octo",
    " October",
    " climatic",
    " wet",
    " dry",
    "atures",
    " °",
    " proj",
    " present",
    " countri",
    " countries",
    "ological",
    " habitat",
    " rept",
    " reptil",
    " amp",
    " amphi",
    " fish",
    " plant",
    "aps",
    " 34",
    " endemism",
    " dense",
    " decid",
    " deciduous",
    " thor",
    " thorn",
    "ible",
    "string",
    " medic",
    "iant",
    "osa",
    "ought",
    " desc",
    "ision",
    " Eurasia",
    " Still",
    "ographic",
    " pass",
    " contra",
    "key",
    " threatened",
    "edd",
    "iger",
    "ulture",
    " extinct",
    " open",
    "lands",
    "zed",
    " black",
    " blackb",
    " blackbuc",
    " blackbuck",
    " cheet",
    " cheetah",
    " respon",
    " response",
    " Fore",
    " 1980",
    " amend",
    " amendments",
    "osp",
    "osphere",
    "erves",
    " parties",
    "gener",
    " Party",
    " centre",
    " Jaw",
    " Jawa",
    " Jawahar",
    " Jawaharl",
    " Jawaharlal",
    " remained",
    " comf",
    " comfort",
    " comfortable",
    " died",
    " 1964",
    " Bah",
    " Shastri",
    " soon",
    " 1967",
    " 1971",
    " declared",
    "ending",
    " liber",
    " Emerg",
    " Emergency",
    " voted",
    " lasted",
    " returned",
    " assass",
    " assassin",
    " assassinated",
    " 1984",
    " suc",
    " Rajiv",
    " alliance",
    " Chand",
    " Lankan",
    " organisation",
    "king",
    " intervention",
    "year",
    " followed",
    " 1998",
    " Bihar",
    " Vaj",
    " Vajpay",
    " Vajpayee",
    " short",
    " due",
    " El",
    " 1999",
    " Democratic",
    " Alliance",
    "Congress",
    "te",
    " NDA",
    " defeated",
    " President",
    " UPA",
    " 2009",
    " Modi",
    " abs",
    "ser",
    " uncom",
    " uncommon",
    " 1949",
    " Government",
    " frame",
    " framework",
    " exerc",
    " reser",
    " legislature",
    " hous",
    " houses",
    " Sab",
    " Sabha",
    " deleg",
    " delegates",
    " represent",
    "atives",
    " defin",
    "ayat",
    " committ",
    "ees",
    "Ar",
    "Art",
    "Artic",
    " Common",
    " Commonwe",
    " Commonwealth",
    " president",
    " seats",
    " house",
    "cil",
    " port",
    " decis",
    "mented",
    " compr",
    " comprising",
    " supreme",
    " jur",
    " juris",
    " jurisdic",
    " jurisdiction",
    " involving",
    " down",
    "vene",
    " any",
    " action",
    " Ter",
    "organ",
    " ling",
    " city",
    " played",
    "Al",
    " cor",
    " relations",
    "urs",
    " wars",
    " close",
    " So",
    " Sovi",
    " Soviet",
    " 1960s",
    " arms",
    " produ",
    " produce",
    " additional",
    "Prol",
    "Prolif",
    "Proliferation",
    " discrimin",
    "atory",
    " doc",
    "tr",
    " civilian",
    " agree",
    " rece",
    " International",
    " Agen",
    " Agency",
    " rest",
    " ten",
    " economies",
    " domestic",
    "PP",
    " annual",
    " historically",
    "idesp",
    "idespread",
    "side",
    " emphas",
    "lows",
    " Or",
    " Organ",
    " Organiz",
    " Organization",
    " lab",
    " 2017",
    " service",
    "100",
    " highe",
    " highest",
    " contributed",
    " 1985",
    " 2021",
    " nin",
    " ninth",
    " exporter",
    " pet",
    " 42",
    " calend",
    " several",
    " 2007",
    " Some",
    "80",
    "30",
    "fast",
    " includes",
    "500",
    " producer",
    " top",
    " biot",
    " biotech",
    " ₹",
    "Indian",
    " elect",
    "rical",
    " gig",
    " gigaw",
    " gigawat",
    " gigawatts",
    " renewable",
    " green",
    " greenh",
    " greenhouse",
    " emiss",
    " emissions",
    " Inc",
    " Increasing",
    "21",
    " brough",
    " brought",
    " decreasing",
    " live",
    " births",
    " whe",
    " whereas",
    " 41",
    " sex",
    " rati",
    " according",
    " females",
    " males",
    " fo",
    " foetic",
    " foeticide",
    " 63",
    " stud",
    " study",
    " do",
    " dy",
    " 27",
    " 53",
    " Mum",
    " Mumb",
    " Mumbai",
    " bre",
    " break",
    "down",
    " speakers",
    " sole",
    "fficial",
    " international",
    " numeral",
    " numerals",
    " artic",
    " Ur",
    " Urdu",
    " scheduled",
    "riya",
    " Punjabi",
    " Sant",
    " Hind",
    " Hindus",
    " Muslims",
    "aith",
    " expression",
    "hip",
    "everal",
    " Sarn",
    " Ni",
    " percent",
    " percentage",
    " poin",
    " points",
    " Keral",
    " Kerala",
    " colleg",
    " colleges",
    " affir",
    " affirm",
    "den",
    " tub",
    " tuberc",
    " tubercul",
    " tuberculos",
    " tuberculosis",
    " dise",
    " diseas",
    " disease",
    "ath",
    " breath",
    " breathing",
    " WHO",
    "ival",
    " bot",
    " bott",
    " bottom",
    " therefore",
    "castes",
    "ogam",
    "ogamy",
    " marry",
    "ched",
    " formally",
    " related",
    " parents",
    " divorce",
    " less",
    " married",
    " usually",
    " carved",
    " seal",
    " excav",
    " excavated",
    " best",
    " thereafter",
    " prob",
    " probably",
    " distinct",
    " figure",
    " give",
    " Shiv",
    " Shiva",
    " either",
    " cut",
    " Aj",
    " Ajanta",
    " generally",
    " artistic",
    " saw",
    " dominance",
    " Cav",
    " Caves",
    " bron",
    " bronz",
    " Nat",
    " paintings",
    " ple",
    " inno",
    " innov",
    " everyday",
    "lit",
    " Ve",
    " Vedic",
    "yth",
    " orally",
    " manuscript",
    " mathematicians",
    "rigon",
    "rigonomet",
    " cosine",
    " series",
    " Hindustani",
    " Carn",
    " Carnatic",
    "ga",
    " fil",
    " cin",
    "ayb",
    "ayback",
    "adem",
    "ademi",
    "anc",
    "uk",
    " promin",
    "asi",
    " Chh",
    " Chhau",
    " Yaksh",
    " Yakshag",
    " Yakshagan",
    " Yakshagana",
    "tu",
    " fest",
    "angra",
    " 20th",
    "centur",
    "century",
    "ables",
    "cover",
    " cloth",
    " shoulder",
    "body",
    " garment",
    " 1",
    " shalw",
    " tun",
    " kur",
    " kurta",
    "ypically",
    " nar",
    " narrow",
    " pants",
    " occas",
    " occasions",
    " sports",
    " jac",
    " jacket",
    " jackets",
    " cere",
    " cereal",
    " savour",
    " savoury",
    " steam",
    " steamed",
    " bread",
    "ake",
    " garlic",
    " cuis",
    " feature",
    " techni",
    " techniqu",
    " partially",
    " tand",
    " tando",
    " tandoor",
    " kh",
    " kho",
    " Ches",
    " Chess",
    " Champ",
    " Cup",
    " Cups",
    "Government",
    " web",
    " offic",
    " officially",
    " sevent",
    " seventh",
    " Bound",
    " Bounded",
    " southeast",
    " shares",
    " Nepal",
    " Bhut",
    " Bhutan",
    " Lanka",
    " Maldiv",
    " Maldives",
    " maritime",
    " border",
    "Mo",
    "Modern",
    " arri",
    " arrived",
    " predominant",
    " predominantly",
    " Settled",
    " evolving",
    " daw",
    " dawnings",
    "existing",
    " proc",
    " proclaiming",
    " orders",
    " unl",
    " unlin",
    " unlinked",
    " heredity",
    " consolidations",
    " Emp",
    " Empires",
    " flourish",
    " flourishing",
    " writing",
    " declined",
    " organised",
    " scripts",
    " 1st",
    " Jud",
    " Judaism",
    " 2nd",
    " intermitt",
    " intermittently",
    " cosm",
    " cosmop",
    " cosmopol",
    " cosmopolit",
    " cosmopolitan",
    " networks",
    "last",
    "lasting",
    " composite",
    " reject",
    " rejecting",
    " institutional",
    " institutionalised",
    " ushered",
    " architectural",
    " legacy",
    " Gra",
    " Gradu",
    " Gradually",
    " consolidated",
    " Crow",
    " Crown",
    " promised",
    " granted",
    " slowly",
    " technological",
    " ideas",
    " root",
    " movements",
    " Noted",
    " resist",
    " resistance",
    " 1920",
    " partitioned",
    " dominions",
    " unp",
    " unpre",
    " unpreced",
    " unprecedent",
    " unprecedented",
    " accomp",
    " accompan",
    " accompanied",
    " governed",
    " plural",
    " pluralistic",
    " multil",
    " multiling",
    " multilingual",
    "ethnic",
    "601",
    "weap",
    "weapon",
    " ran",
    " ranks",
    " expen",
    " expendi",
    " expenditure",
    " neighbours",
    "20th",
    " socio",
    " chall",
    " challeng",
    " challenges",
    " faces",
    " mal",
    " maln",
    " malnut",
    " malnutrit",
    " malnutrition",
    " rising",
    " vie",
    " view",
    " viewed",
    " tol",
    " toler",
    " tolerance",
    " habitats",
    "According",
    " Ox",
    " Oxf",
    " Oxford",
    " Dic",
    " Diction",
    " Dictionary",
    " proper",
    " noun",
    " derives",
    " Latin",
    " reference",
    " loosely",
    "def",
    "defined",
    " stret",
    " stretch",
    " stretching",
    " Further",
    " ety",
    " etymon",
    " etymons",
    " Hell",
    " Hellen",
    " Hellenistic",
    "Ἰνδί",
    "Ἰνδία",
    " Indos",
    "Ἰνδό",
    "Ἰνδός",
    " Ri",
    " River",
    " Achaemenian",
    " province",
    " Achaemenid",
    " Sindh",
    " Sindhu",
    "river",
    " specif",
    " specifically",
    " extension",
    "settled",
    " Greeks",
    " referred",
    " Indoi",
    "Bhā",
    "Bhārat",
    " pron",
    " pronoun",
    " pronounced",
    "ˈb",
    "ˈbʱ",
    "ˈbʱaː",
    "ˈbʱaːɾ",
    "ˈbʱaːɾə",
    "ˈbʱaːɾət",
    " ment",
    " mention",
    " mentioned",
    " epic",
    " po",
    " poet",
    " poetry",
    " variations",
    " ren",
    " render",
    " rendering",
    " Bharatav",
    " Bharatavar",
    " Bharatavarsha",
    "19th",
    " native",
    "Hin",
    "Hindust",
    "Hindustan",
    "ɦɪ",
    "ɦɪnd",
    "ɦɪndʊ",
    "ɦɪndʊˈ",
    "ɦɪndʊˈst",
    "ɦɪndʊˈstaː",
    "ɦɪndʊˈstaːn",
    " Hindustan",
    " varied",
    " referring",
    " encom",
    " encompassing",
    "present",
    " entire",
    " entirety",
    "Based",
    " coalesc",
    " coalescence",
    " Mit",
    " Mitoch",
    " Mitochond",
    " Mitochondrial",
    " DN",
    " DNA",
    " Chrom",
    " Chromos",
    " Chromosome",
    " line",
    " lineages",
    " anatomically",
    " Hom",
    " Homo",
    " sap",
    " sapi",
    " sapiens",
    " 80",
    " likeli",
    " likelih",
    " likelihood",
    " initially",
    " varying",
    " genetic",
    " foss",
    " fossils",
    " date",
    " Evidence",
    " neol",
    " neolith",
    " neolithic",
    " Mehr",
    " Mehrg",
    " Mehrgar",
    " Mehrgarh",
    " Baloch",
    " Balochistan",
    " dates",
    " 7000",
    " Domestic",
    " Domestication",
    " grain",
    "produc",
    "producing",
    " plants",
    " barle",
    " barley",
    " humped",
    " zeb",
    " zebu",
    " here",
    " evolved",
    " flourished",
    " 2500",
    "1900",
    " Centred",
    " Har",
    " Harapp",
    " Harappa",
    " Dh",
    " Dhol",
    " Dholavira",
    " Gan",
    " Ganw",
    " Ganweri",
    " Ganweriw",
    " Ganweriwala",
    " Rakh",
    " Rakhig",
    " Rakhigar",
    " Rakhigarhi",
    " weigh",
    " weights",
    " steat",
    " steatite",
    " plan",
    " planning",
    " cra",
    " craf",
    " crafts",
    " potter",
    " pottery",
    " terrac",
    " terracot",
    " terracotta",
    " statu",
    " statuett",
    " statuettes",
    " Networks",
    " agro",
    "pastoral",
    "Between",
    " 1500",
    " evidence",
    " Rig",
    " Ved",
    " Veda",
    " scripture",
    "wh",
    "which",
    "speak",
    "speaking",
    " tribes",
    " migr",
    " migrating",
    " Afgh",
    " Afghan",
    " Afghanistan",
    " sett",
    " settling",
    " swat",
    " swathes",
    " adj",
    " adjoin",
    " adjoining",
    " defore",
    " deforested",
    " fires",
    " employing",
    " iron",
    " implements",
    " prep",
    " prepared",
    " driving",
    " pree",
    " preex",
    " preexisting",
    " ens",
    " ensl",
    " enslaving",
    "divide",
    " spok",
    " spoken",
    " refined",
    " gram",
    " gramm",
    " grammatical",
    " emer",
    " emerge",
    "1st",
    " codified",
    " Aṣ",
    " Aṣṭ",
    " Aṣṭā",
    " Aṣṭādh",
    " Aṣṭādhy",
    " Aṣṭādhyā",
    " Aṣṭādhyāy",
    " Aṣṭādhyāyī",
    "Eight",
    " chapter",
    " chapters",
    " Pā",
    " Pāṇ",
    " Pāṇin",
    " Pāṇini",
    " ep",
    " epics",
    " Mahā",
    " Mahāb",
    " Mahābh",
    " Mahābhā",
    " Mahābhār",
    " Mahābhārata",
    " Rā",
    " Rām",
    " Rāmā",
    " Rāmāya",
    " Rāmāyaṇ",
    " Rāmāyaṇa",
    " oral",
    " story",
    " storytell",
    " storytelling",
    " registers",
    " Epic",
    " rough",
    " roughly",
    " contem",
    " contempor",
    " contemporary",
    " taken",
    " differenti",
    " differentiation",
    "millennium",
    " teach",
    " teachings",
    " Mahavira",
    " Both",
    " stressed",
    " abj",
    " abjured",
    " sac",
    " sacri",
    " sacrif",
    " sacrifices",
    " Brahmanism",
    " fixed",
    " ethically",
    " socially",
    " mor",
    " morally",
    " Chronic",
    " Chronicling",
    " backd",
    " backdrop",
    " emergence",
    " geographically",
    " extensive",
    " foun",
    " founder",
    " grands",
    " grandson",
    "ca",
    " 268",
    "232",
    " controlled",
    " arter",
    " arteries",
    " except",
    " deep",
    " inscription",
    " inscriptions",
    " declining",
    " mainst",
    " mainstream",
    " speaking",
    " conqu",
    " conquest",
    " Kaling",
    " Kalinga",
    " forces",
    " imm",
    " immense",
    " adopting",
    " dhamm",
    " dhamma",
    " commission",
    " commissioning",
    " numerous",
    " pill",
    " pillar",
    " throughout",
    " promot",
    " promote",
    " conduct",
    " forb",
    " forbade",
    " killing",
    " destr",
    " destruc",
    " destruction",
    " seen",
    " env",
    " envir",
    " environ",
    " environmental",
    " embodi",
    " embodiment",
    " ethos",
    " 4th",
    " 5th",
    " taxation",
    " Under",
    " Gupt",
    " Guptas",
    " renewed",
    " manage",
    " management",
    " rit",
    " ritual",
    " itsel",
    " itself",
    " renewal",
    " reflected",
    " sci",
    " science",
    " Sang",
    " Sangam",
    " reve",
    " reveals",
    " peninsul",
    " peninsula",
    " Cher",
    " Cheras",
    " Cholas",
    " respectively",
    " Pandy",
    " Pandyas",
    " farther",
    " Vaig",
    " Vaigai",
    " sixth",
    " grown",
    " favou",
    " favoured",
    " conserv",
    " conservative",
    " transac",
    " transactional",
    " transactionalism",
    " repl",
    " replaced",
    " kingly",
    " plac",
    " places",
    " Bhak",
    " Bhakti",
    " traded",
    " Rom",
    " Roman",
    " 600",
    " defined",
    " No",
    " ruler",
    " create",
    " consist",
    " consistently",
    " bey",
    " beyond",
    " core",
    " pastoral",
    " peoples",
    " accomm",
    " accommod",
    " accommodated",
    "tra",
    "traditional",
    " consequent",
    " consequently",
    " differen",
    " differences",
    " devotional",
    " imit",
    " imitated",
    " resur",
    " resurg",
    " resurgence",
    " royalty",
    " big",
    " patronised",
    " capital",
    " sizes",
    " everyw",
    " everywhere",
    " underw",
    " underwent",
    " 8th",
    " 9th",
    " effec",
    " effects",
    " fel",
    " felt",
    " La",
    " Laos",
    " Br",
    " Brune",
    " Brunei",
    " Cam",
    " Camb",
    " Cambodi",
    " Cambodia",
    " Viet",
    " Vietnam",
    " Ph",
    " Phili",
    " Philipp",
    " Philippines",
    " Malays",
    " Malaysia",
    " schol",
    " scholars",
    " transmission",
    " initiative",
    " soj",
    " sojour",
    " sojourning",
    " sem",
    " semin",
    " seminaries",
    " transl",
    " translating",
    " nom",
    " noma",
    " nomadic",
    " clans",
    " using",
    " swif",
    " swift",
    "hor",
    "horse",
    " caval",
    " cavalry",
    " raising",
    " ethnic",
    " ethnicity",
    " establish",
    " establishment",
    " 120",
    " 1206",
    " forays",
    " disrup",
    " disruptive",
    "Muslim",
    " subject",
    " customs",
    " repuls",
    " repulsing",
    " Mong",
    " Mongol",
    " raiders",
    " saved",
    " devastation",
    " visited",
    " scene",
    " fle",
    " flee",
    " fleeing",
    " sol",
    " soldi",
    " soldiers",
    " lear",
    " learn",
    " learned",
    " my",
    " myst",
    " mystics",
    " traders",
    " thereb",
    " thereby",
    " syn",
    " sync",
    " syncret",
    " syncretic",
    "Isl",
    "Islam",
    "Islamic",
    " raiding",
    " weak",
    " weakening",
    " pav",
    " paved",
    " Emb",
    " Embrac",
    " Embracing",
    " Sha",
    " Shaiv",
    " Shaivite",
    " upon",
    " afterwards",
    " 16th",
    " fell",
    " superi",
    " superior",
    " mob",
    " mobility",
    " fire",
    " firep",
    " firepower",
    " generation",
    " stamp",
    " societ",
    " societies",
    " Instead",
    " balanced",
    " pac",
    " pacified",
    " administr",
    " administrative",
    " inclus",
    " inclusive",
    " systematic",
    " centralised",
    " unif",
    " uniform",
    " Esc",
    " Esche",
    " Eschewing",
    " ident",
    " identity",
    " Mughals",
    "flung",
    " real",
    " realms",
    " loyalty",
    "exp",
    "expressed",
    " Persianised",
    "to",
    "divine",
    " deriving",
    " mandating",
    " paid",
    "regul",
    "regulated",
    " silver",
    " peas",
    " peasants",
    " maintained",
    " patronage",
    " textiles",
    " Newly",
    " cohe",
    " coherent",
    " Marathas",
    " governing",
    " amb",
    " ambitions",
    " collab",
    " collaboration",
    " adversity",
    " recognition",
    " experi",
    " experience",
    " Exp",
    " Expand",
    " Expanding",
    " incre",
    " incremental",
    " frag",
    " fragment",
    " fragmentation",
    " au",
    " auth",
    " authority",
    " facilitated",
    " decent",
    " decentral",
    " decentralisation",
    " enabl",
    " enabling",
    " provin",
    " provincial",
    " localised",
    " autonom",
    " autonomy",
    " consolidate",
    " lines",
    " enterp",
    " enterpr",
    " enterprise",
    " blurred",
    " charter",
    " chartered",
    "not",
    "notably",
    "soli",
    "solidified",
    " outp",
    " outposts",
    " seas",
    " training",
    " attractive",
    " elite",
    " factors",
    " allowing",
    " gain",
    " 176",
    " 1765",
    " sidel",
    " sideline",
    " ric",
    " riches",
    " size",
    " army",
    " enab",
    " enabled",
    " annex",
    " annexe",
    " subdu",
    " subdue",
    " 1820",
    " 1820s",
    " exporting",
    " manufactured",
    " instead",
    " supply",
    " supplying",
    " raw",
    " curta",
    " curtailed",
    " effectively",
    " consci",
    " consciously",
    " aren",
    " arenas",
    " appoint",
    " appointment",
    " 184",
    " 1848",
    " Lord",
    " Dalh",
    " Dalhous",
    " Dalhousie",
    " Govern",
    " Governor",
    " General",
    " stage",
    " consolidation",
    " demar",
    " demarc",
    " demarcation",
    " surve",
    " surveill",
    " surveillance",
    " Tech",
    " Technolog",
    " Technological",
    "among",
    " canals",
    " teleg",
    " telegraph",
    "were",
    " introduction",
    " Disa",
    " Disaff",
    " Disaffection",
    " Rebellion",
    " 1857",
    " Fed",
    " resent",
    " resentments",
    " perce",
    " perception",
    " perceptions",
    " invasive",
    " har",
    " harsh",
    " summary",
    " treat",
    " treatment",
    " wealth",
    " wealthy",
    " landown",
    " landowners",
    " rocked",
    " shook",
    " foundations",
    " suppressed",
    " disb",
    " disband",
    " disbanded",
    " administer",
    " Proc",
    " Proclaiming",
    " gradual",
    " landed",
    " gent",
    " gentry",
    " feud",
    " feudal",
    " fut",
    " future",
    " unre",
    " unrest",
    " founding",
    " 188",
    " 1885",
    " rush",
    " commercialisation",
    " setb",
    " setbac",
    " setbacks",
    " whim",
    " whims",
    " faraw",
    " faraway",
    " increase",
    " famines",
    " despite",
    " ris",
    " risks",
    " infra",
    " infrastruc",
    " infrastructure",
    " borne",
    " taxpay",
    " taxpayers",
    " little",
    " employment",
    " cropp",
    " cropping",
    " newly",
    " canalled",
    " production",
    " internal",
    " railway",
    " network",
    " critical",
    " famine",
    " notably",
    " moving",
    " hel",
    " helped",
    " nas",
    " nascent",
    "owned",
    " Gandhian",
    " repressive",
    " legislation",
    " strident",
    " call",
    " calls",
    "rul",
    "rule",
    " Mahat",
    " Mahatma",
    " legislative",
    " bes",
    " beset",
    " crises",
    " particip",
    " participation",
    " fin",
    " final",
    " ups",
    " upsur",
    " upsurge",
    " nationalism",
    " capped",
    " tempered",
    " Econom",
    " Economic",
    " ham",
    " hamstr",
    " hamstrung",
    " persistent",
    "rel",
    "related",
    " Mao",
    " Maoist",
    "insp",
    "inspire",
    "inspired",
    " Nax",
    " Naxal",
    " Naxalite",
    " insur",
    " insurgen",
    " insurgenc",
    " insurgencies",
    " separatism",
    " accounts",
    " lying",
    " atop",
    " tect",
    " tectonic",
    "Aust",
    "Austral",
    "Australian",
    " defining",
    " geologic",
    " processes",
    "eastw",
    "eastward",
    " drift",
    " seaf",
    " seaflo",
    " seafloor",
    " Teth",
    " Tethyan",
    " ocean",
    " oceanic",
    " nort",
    " northeast",
    " subduc",
    " subduct",
    " Eurasian",
    " continent",
    " continental",
    " obstructed",
    " sheared",
    " hor",
    " horiz",
    " horizon",
    " horizont",
    " horizontally",
    " mant",
    " mantle",
    " sl",
    " slid",
    " piled",
    " sheets",
    " napp",
    " nappes",
    " ahead",
    " subduction",
    " zone",
    " oro",
    " orogen",
    " orogeny",
    " moun",
    " mount",
    " mountain",
    " stiffer",
    " causing",
    " crustal",
    " thick",
    " thickening",
    " Tibetan",
    " Im",
    " Immediately",
    " emerging",
    " cres",
    " crescent",
    "shap",
    "shaped",
    " trough",
    " fill",
    " filled",
    "bor",
    "borne",
    " constitutes",
    " appearance",
    " Araval",
    " Aravalli",
    " Rid",
    " Ridge",
    " southwesterly",
    " direction",
    " chec",
    " checked",
    " Arav",
    " Aravall",
    " Aravallis",
    " geologically",
    " stable",
    " Sat",
    " Satpur",
    " Satpura",
    " Vin",
    " Vindh",
    " Vindhya",
    " paralle",
    " parallel",
    " run",
    "rich",
    " Chot",
    " Chota",
    " Nag",
    " Nagpur",
    " landm",
    " landmass",
    " flan",
    " flanked",
    " plateau",
    " formations",
    " Constituted",
    " fashion",
    " equat",
    " equator",
    " 6°",
    " 44",
    " 44′",
    " 35",
    " 35°",
    " 30′",
    " latitude",
    " 68",
    " 68°",
    " 7′",
    " 97",
    " 97°",
    " 25′",
    " longitud",
    " longitude",
    "Major",
    "orig",
    "origin",
    " Imp",
    " Import",
    " Important",
    " tribut",
    " tributaries",
    " Yam",
    " Yamun",
    " Yamuna",
    "term",
    " silt",
    " depos",
    " deposition",
    " leads",
    " severe",
    " floods",
    " course",
    " Major",
    " steep",
    " steeper",
    " gradients",
    " wat",
    " waters",
    " flooding",
    " God",
    " Godav",
    " Godavari",
    " Mahan",
    " Mahanadi",
    " Kr",
    " Krish",
    " Krishn",
    " Krishna",
    " Narm",
    " Narmada",
    " Tap",
    " Tapti",
    " measures",
    "517",
    "700",
    " distance",
    "423",
    "094",
    " island",
    " naval",
    " hyd",
    " hydro",
    " hydrog",
    " hydrograph",
    " hydrographic",
    " charts",
    " mainland",
    " sandy",
    " beac",
    " beaches",
    " rocky",
    " cli",
    " cliff",
    " cliffs",
    " 46",
    " mud",
    " mudfl",
    " mudflats",
    " Co",
    " Coast",
    " Coastal",
    " Rann",
    " Kut",
    " Kutch",
    " allu",
    " alluv",
    " alluvial",
    " Sund",
    " Sundarb",
    " Sundarbans",
    " del",
    " delta",
    " archip",
    " archipel",
    " archipelag",
    " archipelagos",
    " coral",
    " atol",
    " atolls",
    " volcanic",
    " chain",
    " climate",
    " drive",
    " economically",
    " cultur",
    " culturally",
    " piv",
    " pivot",
    " pivotal",
    " winter",
    " monsoons",
    " cold",
    " kat",
    " katab",
    " katabatic",
    " blowing",
    " ke",
    " keep",
    " keeping",
    " warmer",
    " locations",
    " latitudes",
    " plays",
    " attracting",
    " moisture",
    "lad",
    "laden",
    " monsoon",
    " provide",
    " rain",
    " rainf",
    " rainfall",
    "Four",
    " groupings",
    " predominate",
    " subt",
    " subtropical",
    " humid",
    " mont",
    " montan",
    " montane",
    " Temper",
    " Temperatures",
    " risen",
    " °C",
    " °F",
    " 190",
    " 1901",
    " Clim",
    " Climate",
    " change",
    " retreat",
    " gl",
    " glac",
    " glaci",
    " glaciers",
    " adverse",
    " adversely",
    " affected",
    " current",
    " projections",
    " severity",
    " drough",
    " droughts",
    " will",
    " markedly",
    " host",
    " biological",
    " bird",
    " reptile",
    " amphibian",
    " Ful",
    " Fully",
    " overl",
    " overlaps",
    " display",
    " occupy",
    " Moder",
    " Moderately",
    " canop",
    " canopy",
    " dens",
    " density",
    " occupies",
    "39",
    " predominates",
    " temper",
    " temperate",
    " conif",
    " coniferous",
    " sal",
    " teak",
    " natural",
    " zones",
    " irrig",
    " irrigation",
    " visible",
    " tre",
    " trees",
    " astring",
    " astringent",
    " Az",
    " Azadi",
    " Azadira",
    " Azadirach",
    " Azadirachta",
    " indic",
    " indica",
    " neem",
    " herbal",
    " medicine",
    " lu",
    " lux",
    " luxur",
    " luxuriant",
    " Fic",
    " Ficus",
    " religiosa",
    " peep",
    " peepul",
    " displayed",
    " Pali",
    " canon",
    " sought",
    " enl",
    " enligh",
    " enlighten",
    " enlightenment",
    "Many",
    " descend",
    " descended",
    " separ",
    " separated",
    " 100",
    " collision",
    " mass",
    " volcanism",
    " extinction",
    " entered",
    " zo",
    " zoo",
    " zooge",
    " zoogeographic",
    " passes",
    " flank",
    " flanking",
    " lowered",
    " stands",
    " contrast",
    " contrasting",
    " 45",
    " reptiles",
    " amphib",
    " amphibians",
    " endemics",
    " vul",
    " vuln",
    " vulner",
    " vulnerable",
    " hood",
    " hooded",
    " leaf",
    " monkey",
    " Bedd",
    " Beddome",
    " toad",
    " 172",
    " IU",
    " IUC",
    " IUCN",
    "design",
    "designated",
    " tiger",
    " dol",
    " dolph",
    " dolphin",
    " Crit",
    " Critically",
    " ghar",
    " gharial",
    " croc",
    " crocodi",
    " crocodili",
    " crocodilian",
    " bust",
    " bustard",
    " white",
    "rum",
    "rumped",
    " vulture",
    " nearly",
    " inge",
    " ingested",
    " carr",
    " carrion",
    " dic",
    " diclo",
    " diclof",
    " diclofen",
    " diclofenac",
    "treated",
    " Bef",
    " Before",
    " ming",
    " mingled",
    " interv",
    " intervals",
    " grass",
    " grasslands",
    " grazed",
    " herds",
    " prey",
    " preyed",
    " Asi",
    " Asiatic",
    " pervasive",
    " ec",
    " ecolog",
    " ecologically",
    " devastating",
    " encro",
    " encroach",
    " encroachment",
    " critically",
    " parks",
    " expanded",
    " 1972",
    " Wild",
    " Wildlife",
    " Prot",
    " Protection",
    " Project",
    " Tiger",
    " wil",
    " wildern",
    " wilderness",
    " Forest",
    " Cons",
    " Conserv",
    " Conservation",
    " 1988",
    " hosts",
    " hund",
    " hundred",
    " san",
    " sanct",
    " sanctu",
    " sanctuaries",
    " eighte",
    " eighteen",
    " biosphere",
    " reserves",
    " Network",
    " Biosphere",
    " Res",
    " Reserves",
    " eigh",
    " eighty",
    "nine",
    " wetlands",
    " registered",
    " Rams",
    " Ramsar",
    " Convention",
    "par",
    "party",
    " recognised",
    "generally",
    " Bharati",
    " Bharatiya",
    "BJP",
    " considered",
    " ideological",
    "righ",
    "right",
    " Au",
    " Aug",
    " August",
    " Domin",
    " Dominion",
    " caret",
    " caretak",
    " caretaker",
    " 1957",
    " May",
    " Lal",
    " Bahad",
    " Bahadur",
    " unan",
    " unanim",
    " unanimously",
    " thus",
    "Pakistan",
    " 1966",
    " signing",
    " Tash",
    " Tashk",
    " Tashkent",
    " Pe",
    " Peace",
    " Decl",
    " Declar",
    " Declaration",
    " chose",
    " landsl",
    " landslide",
    " defeat",
    " Liber",
    " Liberation",
    " 1975",
    " emergency",
    " sus",
    " susp",
    " suspending",
    " libert",
    " liberties",
    " discon",
    " discont",
    " discontent",
    " 1977",
    " opposed",
    " Mor",
    " Morar",
    " Morarj",
    " Morarji",
    " Desai",
    " Char",
    " Charan",
    " oper",
    " operation",
    " militants",
    " occupying",
    " Gold",
    " Golden",
    " Am",
    " Amrit",
    " Amrits",
    " Amritsar",
    " bodyguard",
    " succe",
    " succeed",
    " succeeded",
    " victory",
    " 1989",
    " Lef",
    " Left",
    " Chandra",
    " Shek",
    " Shekhar",
    " round",
    " polling",
    " separatist",
    " see",
    " seeking",
    " aven",
    " avenge",
    " Naras",
    " Narasim",
    " Narasimha",
    " Ra",
    " Rao",
    " minority",
    " ful",
    " full",
    " 1996",
    " winning",
    " relied",
    " Deve",
    " Gow",
    " Gowd",
    " Gowda",
    " Gujral",
    " serving",
    " Atal",
    " Bihari",
    "lived",
    " lack",
    " mandate",
    " Elections",
    "NDA",
    " complete",
    " 2004",
    " Prog",
    " Progressive",
    "UPA",
    " Man",
    " Manm",
    " Manmo",
    " Manmohan",
    " prop",
    " propos",
    " proposed",
    " Son",
    " Sonia",
    "elected",
    " 2014",
    " Naren",
    " Narendra",
    " absol",
    " absolute",
    " 2019",
    " los",
    " losing",
    " partn",
    " partners",
    " lon",
    " longe",
    " longest",
    "serving",
    " backsl",
    " backslid",
    " backsliding",
    "Dem",
    " Democracy",
    " Report",
    " draf",
    " drafted",
    " spe",
    " speed",
    " absence",
    " irreg",
    " irregular",
    " irregularities",
    " 1946",
    " Long",
    " passages",
    " describ",
    " describes",
    " struc",
    " structure",
    " conspic",
    " conspicuous",
    " exclus",
    " exclusively",
    " exercised",
    " defence",
    " ports",
    " reserve",
    " pow",
    " powers",
    " taking",
    " Lok",
    " Rajya",
    " members",
    " nominated",
    " representatives",
    " definition",
    " directives",
    " go",
    " goals",
    " ende",
    " endeav",
    " endeavor",
    " Ire",
    " Ireland",
    " recom",
    " recommend",
    " recommended",
    " panch",
    " panchayat",
    " committees",
    " Untouchability",
    " il",
    " illeg",
    " illegal",
    "Article",
    " distinctions",
    " derec",
    " derecog",
    " derecogni",
    " derecognized",
    "Articles",
    " promul",
    " promulg",
    " promulgation",
    " exercises",
    " App",
    " Appoin",
    " Appointed",
    " vice",
    "president",
    " Coun",
    " Council",
    " Minist",
    " Ministers",
    "with",
    " cab",
    " cabin",
    " cabinet",
    " committee",
    "headed",
    " Any",
    " hold",
    " holding",
    " portf",
    " portfoli",
    " portfolio",
    " must",
    " subord",
    " subordin",
    " subordinate",
    " council",
    " respons",
    " responsible",
    " servants",
    " act",
    " perm",
    " perman",
    " permanent",
    " executives",
    " decisions",
    " implemented",
    "tier",
    " ju",
    " judic",
    " judici",
    " judiciary",
    " headed",
    " Chi",
    " Chief",
    " Just",
    " Justice",
    " trial",
    " cas",
    " cases",
    " appell",
    " appellate",
    " strike",
    " contravene",
    " inval",
    " invalid",
    " invalidate",
    " deem",
    " deems",
    " uncon",
    " unconstitution",
    " unconstitutional",
    " Pud",
    " Puduc",
    " Puducher",
    " Puducherry",
    " Cap",
    " Capit",
    " Capital",
    " Territ",
    " Territory",
    " legislatures",
    " Westmin",
    " Westminst",
    " Westminster",
    " appointed",
    " administrat",
    " administrators",
    " 1956",
    " Reorgan",
    " Reorganisation",
    " reorgan",
    " reorganised",
    " lingu",
    " linguistic",
    " basis",
    " quar",
    " quarter",
    " bodi",
    " bodies",
    " distric",
    " district",
    " bloc",
    " block",
    " Nations",
    " decol",
    " decolon",
    " decolonisation",
    "Align",
    "Aligned",
    " Movement",
    " cordi",
    " cordial",
    " decisively",
    " fend",
    " Chinese",
    " excurs",
    " excursions",
    " Sikk",
    " Sikkim",
    " une",
    " uneas",
    " uneasy",
    " Three",
    " fought",
    " disputed",
    " territory",
    " purs",
    " pursue",
    " ties",
    " suppli",
    " supplier",
    "Ch",
    "Chin",
    "China",
    " 59",
    " 596",
    " threats",
    " intervene",
    " 1974",
    " carri",
    " carried",
    " underg",
    " underground",
    " testing",
    " neither",
    " Compre",
    " Comprehen",
    " Comprehens",
    " Comprehensive",
    "Test",
    "Ban",
    " considering",
    " flaw",
    " flawed",
    " discriminatory",
    " maintains",
    " developing",
    " tri",
    " triad",
    " capab",
    " capability",
    "Min",
    "Minim",
    "Minimum",
    " Credi",
    " Credible",
    " Deter",
    " Deterren",
    " Deterrence",
    " doctr",
    " doctrine",
    "Since",
    " Cold",
    " strate",
    " strateg",
    " strategic",
    " cooperation",
    " agreement",
    " poss",
    " possess",
    " possessed",
    " received",
    " wai",
    " waivers",
    " Atom",
    " Atomic",
    " Energy",
    " Sup",
    " Supp",
    " Suppli",
    " Suppliers",
    " Gr",
    " Group",
    " earlier",
    " restric",
    " restriction",
    " restrictions",
    " agreements",
    " Rus",
    " Russ",
    " Russia",
    " Fr",
    " France",
    " King",
    " Kingd",
    " Kingdom",
    " Can",
    " Canada",
    " gross",
    " output",
    "GDP",
    " placed",
    " Meas",
    " Measured",
    " pur",
    " purch",
    " purchas",
    " purchasing",
    " parity",
    "PPP",
    " fastest",
    " exceed",
    " exceeding",
    " 1990",
    " Dem",
    " Demograph",
    " Demographics",
    " stra",
    " strain",
    " maintain",
    " maintaining",
    " regionally",
    " measured",
    " glob",
    " globally",
    "income",
    " dai",
    " daily",
    "Un",
    "Until",
    " protection",
    " protectionist",
    " socialist",
    " economics",
    " Widespread",
    " regul",
    " regulation",
    " walled",
    " outside",
    " ac",
    " acute",
    " balance",
    " pay",
    " payments",
    " cris",
    " crisis",
    " forced",
    " liberalise",
    " moved",
    " towards",
    " free",
    "market",
    " emphasising",
    " inve",
    " invest",
    " investment",
    " inflows",
    " Tra",
    " Trade",
    " 1995",
    " 52",
    " 522",
    "million",
    "worker",
    " labour",
    " force",
    " remitt",
    " remittances",
    " 32",
    " working",
    " 2006",
    " stood",
    " 24",
    " impor",
    " importer",
    " sixte",
    " sixteent",
    " sixteenth",
    " Between",
    " contrib",
    " contribution",
    " petroc",
    " petrochem",
    " petrochemical",
    " eng",
    " engine",
    " engineering",
    " textile",
    " calendar",
    "Aver",
    "Averag",
    "Averaging",
    " dou",
    " doub",
    " doubled",
    " hour",
    " hourly",
    " wage",
    " 21st",
    " 431",
    " projected",
    " 580",
    " 2030",
    " consumer",
    " steadi",
    " steadily",
    "308",
    "380",
    "73",
    "731",
    " expected",
    "264",
    " autom",
    " automot",
    " automotive",
    "fastest",
    " sales",
    "2010",
    "2009",
    " veh",
    " vehic",
    " vehicle",
    " surpassing",
    " Jap",
    " Japan",
    " IT",
    " prof",
    " profess",
    " profession",
    " professionals",
    " equall",
    " equalling",
    " merchan",
    " merchandi",
    " merchandise",
    " manufacturing",
    " units",
    " generic",
    " medicines",
    " supplies",
    " vac",
    " vacc",
    " vaccines",
    " demand",
    " contributing",
    "44",
    " destin",
    " destinations",
    " 2012",
    "2013",
    " ₹20",
    " ₹204",
    " rup",
    " rupees",
    " ₹23",
    " ₹235",
    "US",
    " capac",
    " capacity",
    " generate",
    " electrical",
    " usage",
    " emit",
    " emits",
    " equates",
    " tons",
    " carb",
    " carbon",
    " dio",
    " diox",
    " dioxide",
    " person",
    " electric",
    " electricity",
    " clean",
    " liqu",
    " liquef",
    " liquefied",
    " petrol",
    " petrole",
    " petroleum",
    " prior",
    " priorities",
    "With",
    "428",
    "62",
    "627",
    "66",
    "663",
    "210",
    "193",
    "422",
    " reported",
    " provision",
    " provisional",
    " report",
    " median",
    " 2020",
    " Medic",
    " Medical",
    " advances",
    " product",
    " productivity",
    "Green",
    " Revol",
    " Revolution",
    " decen",
    " decenn",
    " decennial",
    " compared",
    "54",
    " previ",
    " previous",
    "1991",
    "2001",
    " post",
    "col",
    "colonial",
    " counted",
    " expect",
    " expectan",
    " expectancy",
    " 49",
    " 1970",
    "197",
    "1975",
    " 72",
    "five",
    " mort",
    " mortality",
    " 113",
    " 1994",
    " ratio",
    " 94",
    " 940",
    " Fem",
    " Female",
    " infant",
    " infantic",
    " infanticide",
    " lately",
    " female",
    " lop",
    "sided",
    " ratios",
    " miss",
    " missing",
    " quad",
    " quadrup",
    " quadrupled",
    "2014",
    " faster",
    " same",
    " gir",
    " girls",
    " unwan",
    " unwanted",
    " receive",
    " adequ",
    " adequate",
    " care",
    " Despite",
    " ban",
    "select",
    "selective",
    " practice",
    " stop",
    " stopped",
    "Mig",
    "Migration",
    " dynam",
    " dynamic",
    " lived",
    "81",
    "16",
    " slowing",
    " overall",
    " shar",
    " sharp",
    " decline",
    "plus",
    " aggl",
    " agglom",
    " agglomer",
    " agglomerations",
    " Kol",
    " Kolk",
    " Kolkata",
    " Chen",
    " Chenn",
    " Chennai",
    " Bengalur",
    " Bengaluru",
    " Hy",
    " Hyder",
    " Hyderabad",
    " Ahm",
    " Ahmed",
    " Ahmedabad",
    " order",
    "Langu",
    "Languages",
    " Census",
    " gives",
    " breakdown",
    "There",
    " Tai",
    "Kad",
    "Kadai",
    " Andamanese",
    " minor",
    " isolates",
    " Sept",
    " Septem",
    " September",
    " deb",
    " debate",
    " opposing",
    " camp",
    " camps",
    " protag",
    " protagon",
    " protagonists",
    " wanted",
    " Dev",
    " Devanag",
    " Devanagari",
    "national",
    " pref",
    " prefer",
    " preferred",
    "official",
    " associate",
    " lex",
    " lexic",
    " lexicon",
    "iii",
    "Ara",
    "Arab",
    "Arabic",
    " resol",
    " resolution",
    " articles",
    " 343",
    "351",
    " bit",
    " bitter",
    " opposition",
    " where",
    " continue",
    "associ",
    "associate",
    " indef",
    " indefin",
    " indefinite",
    " indefinitely",
    " Eigh",
    " Eighth",
    " Sc",
    " Schedul",
    " Schedule",
    " recognises",
    " 22",
    " obl",
    " oblig",
    " obligated",
    "scheduled",
    " list",
    "such",
    "spec",
    "specific",
    "bec",
    "beca",
    "becaus",
    "because",
    " val",
    " value",
    " herit",
    " heritage",
    " Assam",
    " Assamese",
    " Bengali",
    " Gujar",
    " Gujarati",
    " Kann",
    " Kannada",
    " Kashmi",
    " Kashmiri",
    " Malay",
    " Malayal",
    " Malayalam",
    " Marathi",
    " Oriya",
    " Tel",
    " Telu",
    " Telugu",
    " Sind",
    " Sindhi",
    "196",
    "1967",
    " Nepali",
    " Mani",
    " Manipur",
    " Manipuri",
    " Kon",
    " Konk",
    " Konkani",
    "199",
    "1992",
    " Maith",
    " Maithili",
    " Dog",
    " Dogri",
    " Santali",
    " Bod",
    " Bodo",
    "2004",
    "Rel",
    "Relig",
    "Religion",
    " characterised",
    " beliefs",
    " Through",
    " Throughout",
    " birthpl",
    " birthplace",
    " Jains",
    " Buddhists",
    " adher",
    " adhering",
    "Pars",
    "Parsis",
    " Iran",
    " Iranis",
    " Bahá",
    " Faith",
    " Pream",
    " Preamble",
    " declares",
    " fre",
    " freed",
    " freedom",
    " liberty",
    " faith",
    " wors",
    " worship",
    " 79",
    " follows",
    " Several",
    " Don",
    " Dony",
    " Donyi",
    "Pol",
    "Polo",
    " San",
    " Sanam",
    " Sanamah",
    " Sanamahism",
    " Sarnaism",
    " Niam",
    " Niamtre",
    "04",
    " 65",
    "46",
    " 82",
    "14",
    " gap",
    " dropp",
    " dropped",
    " improvement",
    " twice",
    " 93",
    " lowest",
    "82",
    " 1981",
    " respective",
    " 29",
    " 1921",
    " 1891",
    " Latik",
    " Latika",
    " Cha",
    " Chaud",
    " Chaudh",
    " Chaudhary",
    " 191",
    " 1911",
    " Stat",
    " Statist",
    " Statistically",
    " priv",
    " private",
    " spending",
    " Pri",
    " Primary",
    " taugh",
    " taught",
    " 900",
    " uni",
    " univers",
    " universities",
    " higher",
    " reserved",
    " affirmative",
    " disad",
    " disadv",
    " disadvant",
    " disadvantag",
    " disadvantaged",
    " improved",
    " cited",
    " contributors",
    " bears",
    " dispro",
    " dispropor",
    " disproportion",
    " disproportionately",
    " bur",
    " burden",
    " He",
    " Health",
    "WHO",
    " statistic",
    " statistics",
    " estimating",
    " infections",
    " accounting",
    " carry",
    " infection",
    " chronic",
    " obstructive",
    " pul",
    " pulmon",
    " pulmonary",
    " death",
    " hear",
    " heart",
    " polluted",
    " 140",
    " limit",
    " quality",
    " reports",
    " meets",
    " saf",
    " safety",
    " gu",
    " guidel",
    " guidelines",
    " equival",
    " equivalent",
    " smok",
    " smoking",
    " cig",
    " cigare",
    " cigarett",
    " cigarettes",
    " day",
    " killed",
    "Although",
    " uniqu",
    " uniquely",
    " broadly",
    " castes",
    " varnas",
    " Brahmin",
    " priest",
    " priests",
    " Ksh",
    " Kshat",
    " Kshatriya",
    " Vaish",
    " Vaishya",
    " Shud",
    " Shudra",
    " Out",
    " Outside",
    " lie",
    " formerly",
    "outcastes",
    "untouchab",
    "untouchables",
    " Dalit",
    "description",
    " pride",
    "bro",
    "brok",
    "broken",
    "downt",
    "downtro",
    "downtrod",
    "downtrodden",
    " Each",
    " divided",
    " jat",
    " jatis",
    " tied",
    " occupations",
    " custom",
    " endogamy",
    " marrying",
    " subcast",
    " subcaste",
    " label",
    " occupational",
    " cho",
    " choice",
    " entren",
    " entrenched",
    " abol",
    " abolished",
    " anti",
    "discrimin",
    "discriminatory",
    " initiatives",
    "based",
    " discrimination",
    " seg",
    " segreg",
    " segregation",
    "Mult",
    "Multi",
    "generational",
    " patr",
    " patril",
    " patriline",
    " patrilineal",
    " join",
    " joint",
    " norm",
    " arr",
    " arranged",
    " eld",
    " elders",
    " Mar",
    " Marri",
    " Marriage",
    " thous",
    " thousand",
    " reach",
    " reaching",
    " legal",
    " marriage",
    " marriageable",
    " moreover",
    " exogamy",
    " obser",
    " observed",
    " bride",
    " marries",
    " visit",
    " home",
    " rite",
    " rak",
    " raksha",
    " bandhan",
    " return",
    " hom",
    " homes",
    " offer",
    " recour",
    " recourse",
    " marital",
    " stress",
    " exchanged",
    " greatly",
    " Thous",
    " Thousands",
    " civilisation",
    " Pash",
    " Pashup",
    " Pashupati",
    " 192",
    " 1928",
    "29",
    " Virt",
    " Virtually",
    " Alm",
    " Almost",
    " surviving",
    " dur",
    " durable",
    " coins",
    " wood",
    " lost",
    " Mauryan",
    "Over",
    " distinctly",
    " sculpting",
    " interest",
    " articul",
    " articulating",
    " prec",
    " precise",
    " anatomy",
    " showing",
    " smo",
    " smooth",
    " smoothly",
    " flowing",
    " expressing",
    " pran",
    " prana",
    "breath",
    "force",
    " complic",
    " complicated",
    " need",
    " multiple",
    " heads",
    " genders",
    " Ardh",
    " Ardhan",
    " Ardhanar",
    " Ardhanarish",
    " Ardhanarishv",
    " Ardhanarishvara",
    " Parv",
    " Parvati",
    "Most",
    " stup",
    " stupas",
    " Sanch",
    " Sanchi",
    " Sarnath",
    " Amar",
    " Amarav",
    " Amaravati",
    " reliefs",
    " Kar",
    " Karla",
    " Ell",
    " Ellor",
    " Ellora",
    " spite",
    " mix",
    " mixture",
    " prev",
    " prevail",
    " prevailing",
    " sculptors",
    " comm",
    " commun",
    " communities",
    " peak",
    " 300",
    " 500",
    " regard",
    " regarded",
    " lingered",
    " Ele",
    " Eleph",
    " Elephanta",
    " Across",
    " formul",
    " formulaic",
    " 8",
    " 800",
    " fine",
    " finely",
    " det",
    " detail",
    " surround",
    " surrounds",
    " statues",
    " But",
    " Pallava",
    " Chola",
    " dyn",
    " dynast",
    " dynasties",
    " stone",
    " bronze",
    " sust",
    " sustained",
    " ach",
    " achie",
    " achievement",
    " bronzes",
    " Natar",
    " Nataraj",
    " Nataraja",
    " ic",
    " iconic",
    " symb",
    " symbol",
    "An",
    "Ancient",
    " survived",
    " few",
    " crow",
    " crowded",
    " scenes",
    " Pain",
    " Painted",
    " manuscripts",
    " survive",
    " onwards",
    " significantly",
    "derived",
    " star",
    " starting",
    " mini",
    " miniature",
    " emphasis",
    " portra",
    " portrait",
    " portraits",
    " recording",
    " prince",
    " princely",
    " pleas",
    " pleasures",
    " variety",
    " smaller",
    " innovative",
    " Nih",
    " Nihâ",
    " Nihâl",
    " Nains",
    " Nainsu",
    " Nainsukh",
    " supplied",
    " considerable",
    " cheap",
    " Kaligh",
    " Kalighat",
    " done",
    " pap",
    " paper",
    " Cal",
    " Calc",
    " Calcut",
    " Calcutta",
    " Sch",
    " School",
    " Art",
    " reflect",
    " reflecting",
    " founded",
    "Sign",
    "Significant",
    " Ś",
    " Śul",
    " Śulb",
    " Śulba",
    " Sū",
    " Sūtr",
    " Sūtras",
    "liter",
    "literally",
    "Aph",
    "Aphor",
    "Aphorism",
    "Aphorisms",
    " Chord",
    " Chords",
    " 700",
    " ver",
    " verbal",
    " Pyth",
    " Pythag",
    " Pythagore",
    " Pythagorean",
    " theore",
    " theorem",
    "although",
    " likely",
    " Bab",
    " Baby",
    " Babyl",
    " Babylon",
    " Babylonians",
    " 500",
    " docu",
    " document",
    " birch",
    " bark",
    " Bakh",
    " Bakhsh",
    " Bakhshali",
    " Ary",
    " Aryab",
    " Aryabh",
    " Aryabhata",
    " Brahmag",
    " Brahmagup",
    " Brahmagupta",
    " Bhas",
    " Bhask",
    " Bhaskara",
    " Var",
    " Varā",
    " Varāh",
    " Varāham",
    " Varāhami",
    " Varāhamihi",
    " Varāhamihira",
    " Mad",
    " Madh",
    " Madhav",
    " Madhava",
    " decimal",
    " concept",
    " zer",
    " zero",
    " neg",
    " negative",
    " arith",
    " arithm",
    " arithmetic",
    " alge",
    " algeb",
    " algebra",
    " Trigonomet",
    " Trigonometry",
    " definitions",
    " sine",
    " concepts",
    " landmar",
    " landmark",
    " expansions",
    " trigonomet",
    " trigonometric",
    " fun",
    " functions",
    "sine",
    " arc",
    " tang",
    " tangent",
    " 15th",
    " work",
    " completed",
    " invention",
    " calc",
    " calcul",
    " calculus",
    " Sr",
    " Srin",
    " Sriniv",
    " Srinivas",
    " Srinivasa",
    " Ram",
    " Ramanu",
    " Ramanuj",
    " Ramanujan",
    " theory",
    " arra",
    " array",
    " musical",
    " musics",
    " origins",
    " split",
    " improv",
    " improvis",
    " improvisational",
    " featuring",
    " instr",
    " instru",
    " instruments",
    " sit",
    " sitar",
    " tabl",
    " tabla",
    " foc",
    " focused",
    " compositions",
    " krit",
    " kriti",
    " whil",
    " while",
    " ele",
    " elements",
    " raga",
    " mel",
    " melo",
    " melodic",
    " tala",
    " rh",
    " rhyth",
    " rhythm",
    " rhythmic",
    " meter",
    " genres",
    " ja",
    " jaz",
    " jazz",
    " musicians",
    " counter",
    " counterc",
    " counterculture",
    " film",
    " cinem",
    " cinema",
    " directors",
    " sung",
    " playback",
    " singers",
    " Modern",
    " takes",
    "Dance",
    " drawn",
    " heavi",
    " heavily",
    " turn",
    " aro",
    " arose",
    " contex",
    " contexts",
    " spons",
    " sponsors",
    " sponsorship",
    " promotion",
    " Whe",
    " Whether",
    " deter",
    " determ",
    " determined",
    " Sange",
    " Sangeet",
    " Natak",
    " Ac",
    " Academi",
    " perform",
    " performing",
    " perh",
    " perhaps",
    " meet",
    " criter",
    " criteria",
    " Akademi",
    "known",
    " Bharatn",
    " Bharatnat",
    " Bharatnaty",
    " Bharatnatyam",
    " temple",
    " devad",
    " devadas",
    " devadasis",
    " Ident",
    " Identified",
    "prostitutes",
    " courtes",
    " courtesans",
    " danc",
    " dancing",
    " bann",
    " banned",
    " Conc",
    " Concur",
    " Concurrent",
    " Concurrently",
    " reh",
    " rehab",
    " rehabilitated",
    "pure",
    " Ruk",
    " Rukmin",
    " Rukmini",
    " Devi",
    " Arund",
    " Arundale",
    " prominent",
    " devd",
    " devdasi",
    " attain",
    " prominence",
    " Than",
    " Thanj",
    " Thanjav",
    " Thanjavur",
    " Balas",
    " Balasar",
    " Balasaras",
    " Balasarasw",
    " Balasaraswati",
    " sources",
    " Odi",
    " Odisha",
    " Karn",
    " Karnat",
    " Karnatak",
    " Karnataka",
    "Loc",
    "Local",
    " addition",
    " Ras",
    " Rasl",
    " Raslil",
    " Raslila",
    " Utt",
    " Uttar",
    " Pra",
    " Prades",
    " Pradesh",
    " Teruk",
    " Terukk",
    " Terukkut",
    " Terukkuttu",
    " Nad",
    " Nadu",
    " calendrical",
    " festival",
    " Bhangra",
    " Vais",
    " Vaisak",
    " Vaisakhi",
    " spring",
    " Garb",
    " Garba",
    " Nav",
    " Navrat",
    " Navratri",
    " Adiv",
    " Adivasi",
    " Santal",
    " Tod",
    " Toda",
    " hon",
    " honour",
    " Ö",
    " Ön",
    " buff",
    " buffal",
    " buffalo",
    " earth",
    "Among",
    " directions",
    " Uday",
    " Shank",
    " Shankar",
    " adhered",
    " rig",
    " rigidly",
    " Examp",
    " Examples",
    " fables",
    " Panch",
    " Panchat",
    " Panchatant",
    " Panchatantra",
    " medit",
    " meditation",
    " Discover",
    " Discovery",
    " Dance",
    " asp",
    " aspect",
    " films",
    " tal",
    " talk",
    " talkies",
    " indiv",
    " individ",
    " individual",
    " Bol",
    " Bolly",
    " Bollyw",
    " Bollywood",
    " Tow",
    " Towards",
    " innovations",
    " Post",
    "Bhangra",
    "From",
    " dress",
    " draped",
    " pi",
    " piec",
    " piece",
    " yards",
    " wra",
    " wrapp",
    " wrapped",
    " comb",
    " combined",
    " unders",
    " undersk",
    " underskirt",
    " pett",
    " pettico",
    " petticoat",
    " tuc",
    " tucked",
    " secure",
    " fastening",
    " blouse",
    " choli",
    " serves",
    "covering",
    " midri",
    " midriff",
    " obsc",
    " obscuring",
    " contour",
    " contours",
    " shor",
    " shorter",
    " dhot",
    " dhoti",
    " stit",
    " stitched",
    " clot",
    " clothes",
    " widespread",
    " 1300",
    " 15",
    " 152",
    " 1525",
    " garments",
    " still",
    " shalwars",
    " py",
    " pyj",
    " pyjam",
    " pyjamas",
    " trous",
    " trousers",
    " tunics",
    " Shalw",
    " Shalwars",
    " atypically",
    " cuff",
    " cuffed",
    " draw",
    " drawstring",
    " causes",
    " pleated",
    " When",
    " quite",
    " bias",
    " shirt",
    " tunic",
    " side",
    " seams",
    " waistline",
    " collar",
    " collarles",
    " collarless",
    " cott",
    " cotton",
    " silk",
    " embro",
    " embroid",
    " embroidered",
    " decoration",
    " chik",
    " chikank",
    " chikankari",
    " typically",
    " falls",
    " wearer",
    " kne",
    " knees",
    " fashions",
    " changed",
    " deal",
    " Increasingly",
    " appare",
    " apparel",
    " shalwar",
    " rare",
    " rarely",
    " youn",
    " younger",
    " favour",
    " je",
    " jeans",
    " settings",
    " ub",
    " ubiqu",
    " ubiquit",
    " ubiquitous",
    " condition",
    " conditioning",
    " allows",
    " wedd",
    " weddings",
    " bandh",
    " bandhg",
    " bandhgala",
    " groom",
    " grooms",
    " groomsm",
    " groomsmen",
    " spor",
    " sporting",
    " sher",
    " sherwan",
    " sherwanis",
    " foundation",
    " typ",
    " typical",
    " meal",
    " plainly",
    " complemented",
    " rice",
    " chapati",
    " thin",
    " unle",
    " unleav",
    " unleavened",
    " id",
    " idli",
    " breakfast",
    " cake",
    " dosa",
    " gri",
    " grid",
    " gridd",
    " griddled",
    " panc",
    " pancake",
    " might",
    " lent",
    " lentils",
    " puls",
    " pulses",
    " vegetables",
    " pou",
    " poul",
    " poult",
    " poultry",
    " spic",
    " spiced",
    " ging",
    " ginger",
    " cori",
    " coriand",
    " coriander",
    " cum",
    " cumin",
    " tur",
    " turmer",
    " turmeric",
    " cinnam",
    " cinnamon",
    " card",
    " cardam",
    " cardamom",
    " inst",
    " instances",
    " ing",
    " ingredi",
    " ingredient",
    " ingredients",
    " mixed",
    " distinctive",
    " vegetar",
    " vegetarian",
    " cuisines",
    " each",
    " geographical",
    " histories",
    " adhe",
    " adherents",
    " Ab",
    " About",
    " 39",
    " vegetari",
    " vegetarians",
    " eat",
    " eaten",
    " propor",
    " proportional",
    " techniques",
    " pil",
    " pilaf",
    " On",
    " Onions",
    " alm",
    " almonds",
    " spices",
    " simple",
    " yog",
    " yogur",
    " yogurt",
    " marin",
    " marinade",
    " Persia",
    " Rice",
    " layered",
    " altern",
    " alternately",
    " saute",
    " sauteed",
    " sealed",
    " tight",
    " tightly",
    " technique",
    " biryan",
    " biryani",
    " festive",
    " dining",
    " worldw",
    " worldwide",
    " conceal",
    " concealed",
    " cuisine",
    " popularity",
    " tandoori",
    " chick",
    " chicken",
    "cook",
    "cooked",
    " oven",
    " bak",
    " baking",
    "dates",
    " entre",
    " entrep",
    " entrepren",
    " entreprene",
    " entrepreneur",
    " entrepreneurial",
    " displaced",
    "Several",
    " kabad",
    " kabaddi",
    " peh",
    " pehl",
    " pehlwan",
    " pehlwani",
    " gill",
    " gilli",
    "dand",
    "danda",
    " mart",
    " martial",
    " Kalari",
    " Kalaripp",
    " Kalarippayat",
    " Kalarippayattu",
    " marma",
    " adi",
    " originated",
    " chat",
    " chatur",
    " chatura",
    " chaturaṅ",
    " chaturaṅga",
    " grand",
    "க்",
    "ம்",
    "ப்",
    " இ",
    "ன்",
    "ல்",
    "ந்",
    "த்",
    "ற்",
    "ட்",
    "ள்",
    "ர்",
    " அ",
    "ண்",
    " ம",
    " உ",
    "ந்தி",
    "ర్",
    "ங்",
    "ப்ப",
    " ప",
    " ப",
    " ஆ",
    "స్",
    " வ",
    "க்க",
    "్ర",
    " இந்தி",
    "న్",
    "ற்று",
    "ட்ட",
    "భార",
    "கள்",
    "ந்த",
    "త్",
    " மற்று",
    "క్",
    " மற்றும்",
    "க்கு",
    " అ",
    "ள்ள",
    " ప్ర",
    "த்தி",
    "భారత",
    " மு",
    " க",
    "ల్",
    " இந்தியா",
    "దేశం",
    "த்த",
    "ద్",
    "னது",
    " వ",
    "ங்க",
    "ట్",
    " ச",
    " கா",
    "్య",
    " த",
    " ఉ",
    "ண்டு",
    " మ",
    " ஒ",
    " భారత",
    " எ",
    " ఆ",
    " பி",
    " స",
    "ந்து",
    " సం",
    "ச்",
    " రా",
    " கு",
    " పా",
    " பெ",
    "తీయ",
    " தொ",
    " ఇ",
    "ள்ளது",
    "న్న",
    "த்து",
    " క",
    "கிய",
    "ష్",
    "ப்பட்ட",
    " స్",
    " பா",
    " ఎ",
    " கொ",
    " జ",
    " ந",
    " వి",
    "ப்பு",
    " ఉం",
    "న్నా",
    "களி",
    " ప్",
    " நி",
    "దేశా",
    " இரு",
    " కా",
    "ட்டு",
    " త",
    " பொ",
    " కూ",
    "ப்படு",
    "దేశంలో",
    " வி",
    "గ్",
    " போ",
    "దేశ",
    " మా",
    "ன்ற",
    "చ్",
    " இந்திய",
    " సా",
    "யில்",
    " ఈ",
    "வின்",
    "త్ర",
    " இது",
    "చింది",
    "யாக",
    " భా",
    "கும்",
    "డ్",
    " ఒ",
    " ஒரு",
    "లలో",
    "களை",
    " ర",
    "ப்பி",
    "న్నాయి",
    " நா",
    " మొ",
    "களா",
    "బ్",
    "ற்கு",
    " ని",
    " செ",
    "లను",
    "னர்",
    " భార",
    "ட்டி",
    " రై",
    "లకు",
    " தொட",
    "మైన",
    " பு",
    " వా",
    "ற்ற",
    "స్తా",
    "ஆம்",
    "ప్",
    "ந்தது",
    " రాజ",
    "ப்பா",
    " పే",
    "த்தை",
    "జాతీయ",
    " கால",
    " దేశా",
    "வில்",
    " ద",
    " வே",
    " అధి",
    "ங்கள்",
    "న్ని",
    " క్",
    " அமை",
    "వస్",
    "த்தின்",
    " ఉంది",
    "ண்டி",
    " ఉన్నాయి",
    "க்கா",
    " లో",
    " அர",
    "నికి",
    "க்கி",
    "చిన",
    "குதி",
    " ఏ",
    "யான",
    " రాష్",
    "களு",
    "రాలు",
    "తర",
    " அதி",
    " పార్",
    "மாக",
    "ముఖ",
    "ரும்",
    "క్ష",
    " கி",
    " హిం",
    " இந்தியாவின்",
    "శ్",
    " ఇం",
    "ற்ப",
    " వచ్",
    "ண்ட",
    "ధ్య",
    "சிய",
    " ప్రా",
    " வெ",
    " స్థా",
    "ரிய",
    " వ్య",
    "క్కు",
    " ஆண்டு",
    "యాలు",
    "மானது",
    "క్షి",
    " के",
    " மி",
    "లతో",
    " பொரு",
    " గ",
    "யானது",
    "స్తు",
    " కు",
    " உல",
    " కూడా",
    "றது",
    " శా",
    " கொண்டு",
    " కో",
    "களில்",
    " దేశం",
    "వస్థ",
    " உரு",
    " प",
    " ఒక",
    "மான",
    " భారతదేశం",
    " மா",
    "ధాన",
    " பகுதி",
    " ఎన్",
    "త్రి",
    "ய்",
    " న",
    "தன்",
    " ప్రపం",
    "க்கிய",
    " ప్రాం",
    " மே",
    " దక్షి",
    " में",
    " సి",
    " சி",
    " జా",
    "இல்",
    "ర్య",
    " உள்ள",
    "మ్",
    " చే",
    "ழ்",
    " మధ్య",
    "ங்களி",
    " మార్",
    " வா",
    " ప్రధాన",
    " அதிக",
    " పేరు",
    "र्",
    "ర్వ",
    "யும்",
    " అధికా",
    " தெ",
    "ధిక",
    "கிறது",
    " పార్టీ",
    " ஆகிய",
    " మొద",
    " చ",
    "ர்கள்",
    " ఉన్న",
    " சம",
    " వ్యవస్థ",
    "ட்சி",
    " హిందూ",
    " स",
    " పం",
    "த்தில்",
    " బ",
    " உருவா",
    " పరి",
    " தி",
    "నాలు",
    "డిన",
    " கோ",
    "ల్లో",
    " மிக",
    " క్రీ",
    "ரம்",
    " భారతీయ",
    " भा",
    "ప్ర",
    "ன்று",
    " రైలు",
    " தா",
    "నాభా",
    "களின்",
    "ద్ద",
    "க்கப்பட்ட",
    "ద్ర",
    " ప్రాంతా",
    " து",
    " ద్",
    "விய",
    " చి",
    " अ",
    "டைய",
    " రాజ్",
    " వచ్చింది",
    "ற்றி",
    " చెం",
    " ஐ",
    " అయి",
    "கின்ற",
    " వం",
    " దేశంలో",
    "யின்",
    " ప్రభు",
    "த்தா",
    " ప్రభుత్",
    "தல்",
    "्र",
    " భారతదేశంలో",
    "ளர்",
    "ట్ట",
    " ఇతర",
    " ஊ",
    " సాం",
    " கூ",
    "త్రం",
    " மொ",
    " సభ",
    "லான",
    "ట్ర",
    "ங்களை",
    "త్య",
    " भार",
    "భారతదేశం",
    " குறி",
    " అతి",
    "ன்ப",
    "పెద్ద",
    " பெரும்",
    "క్కువ",
    " ஏ",
    " శ",
    " ఉత్",
    " நீ",
    " పు",
    " சு",
    " జరి",
    "ருந்து",
    " है",
    " ఆర్",
    "ல்ல",
    " సంస్",
    "రువా",
    " தே",
    "దిన",
    "லும்",
    " రెం",
    " நிலை",
    "రాల",
    " கொண்டுள்ளது",
    "భారతదేశ",
    " భాష",
    " உள்ளது",
    " औ",
    "భారతీయ",
    " மக்க",
    " జనాభా",
    "டன்",
    " రాష్ట్",
    "தார",
    " కేం",
    " కలి",
    "த்தது",
    "గిన",
    " முறை",
    " అనే",
    "க்கும்",
    " దక్షిణా",
    " और",
    " పాకి",
    "ங்கி",
    "స్తాన్",
    " அல்ல",
    "లంలో",
    " அல்லது",
    "క్ర",
    " నుం",
    "வது",
    " బ్",
    " படி",
    "ళ్",
    " சா",
    " అం",
    "ச்சி",
    " ఏర్",
    " क",
    " ఎన్నో",
    " சமய",
    "క్క",
    " பொருளா",
    "న్నారు",
    " அதிகரி",
    "రణం",
    " ஓ",
    " రాష్ట్ర",
    " మం",
    " நட",
    " కాం",
    " போது",
    " కాంగ్",
    " का",
    " பர",
    " కాంగ్రె",
    "வும்",
    "ప్రదా",
    "வர்",
    " ప్రపంచ",
    " మార్గా",
    " தொடர்",
    " పెద్ద",
    " பிற",
    "లన",
    " பிரி",
    " ఎక్కువ",
    " की",
    "ங்களில்",
    "్యం",
    " ముఖ",
    "வன",
    "సియా",
    " பிர",
    " వే",
    " உள்",
    "రిత్ర",
    "దారు",
    "தற்கு",
    " బం",
    "களுக்கு",
    "ల్ల",
    " இர",
    " भारत",
    " సరి",
    " సరిహ",
    " பே",
    " సరిహద్",
    " பொருளாதார",
    " సరిహద్దు",
    "கக்",
    " గల",
    "யல்",
    " ఇది",
    " సిం",
    " பொது",
    " నా",
    "न्",
    " குடி",
    "రిక",
    "றிய",
    "ద్ధ",
    "ந்திய",
    " మత",
    "విధ",
    " பல",
    "రాజ",
    "லிருந்து",
    " కాలంలో",
    "ப்படுகிறது",
    " ప్రస్తు",
    " ब",
    "னவை",
    " చిన్న",
    "డియా",
    "தில்",
    "ద్ధి",
    " இந்தியாவில்",
    "ప్ప",
    " இரா",
    "ప్పటి",
    "ற்றா",
    "స్తారు",
    " இருந்த",
    "టాయి",
    "त्",
    " తరువా",
    " பெரும்பா",
    " అయిన",
    "ந்தை",
    "యులు",
    "மையான",
    " ఏర్ప",
    " இட",
    " శాస్",
    "வாக",
    "ల్లీ",
    "ரசு",
    "్యా",
    " से",
    "పతి",
    " உலகி",
    " ప్రతి",
    " முன்",
    " సిని",
    "சியா",
    " సినిమా",
    " பெரிய",
    "రంగా",
    " வட",
    " రవా",
    "ரம்ப",
    " రవాణా",
    "स्",
    "ரம்பரிய",
    " సాధిం",
    "ஞ்",
    " సంగీ",
    " மூ",
    "నంలో",
    " கோடி",
    " కేంద్ర",
    " సమా",
    " தலை",
    "ఖ్య",
    "ந்தியா",
    " ఉప",
    "क्",
    " என்று",
    " చా",
    " இல",
    " రహ",
    " రహదారు",
    "வுக்கு",
    "ఫ్",
    "கின்றன",
    " బహు",
    " குறை",
    " వివిధ",
    " பாரம்பரிய",
    "సింది",
    " त",
    " కొ",
    "ருந்தது",
    "వర్",
    " நடு",
    " బ్రి",
    "ல்லி",
    " ఇండియా",
    " நூ",
    " కం",
    " முதல்",
    " స్వా",
    "కోవ",
    " இந்த",
    " प्र",
    "వతం",
    " வளர்",
    "రణ",
    "ப்படும்",
    "గంగా",
    " ஆகும்",
    " రెండు",
    " நில",
    " ల",
    " పట్ట",
    " வடி",
    " आ",
    " సంస్కృ",
    " வீ",
    " వర్",
    " பண்",
    "తిక",
    " ஆகியவை",
    " ప్రముఖ",
    "வ்",
    "ఢిల్లీ",
    "గలు",
    " வந்த",
    " उ",
    " జన",
    "களாக",
    "భిన్న",
    " மொழி",
    "తులు",
    "ப்பட்டு",
    " మతా",
    "க்கை",
    " భారత్",
    " நிறு",
    " రాజకీ",
    "யர்",
    " రాజకీయ",
    " वि",
    " అత్య",
    "ஸ்",
    " ప్రజ",
    " அடி",
    "స్థా",
    " உலகின்",
    "ర్టు",
    " தொகை",
    " రకా",
    " தென்",
    "्य",
    " జాతీయ",
    " தனி",
    "ర్యా",
    " செய்",
    " నె",
    " குறிப்பி",
    "శ్ర",
    " உள்ளன",
    " మూ",
    " எண்",
    " దేశంలోని",
    " सं",
    " దేశాల",
    " மக்கள்",
    " నడి",
    "ள்ளன",
    " క్రీడ",
    "தாக",
    "చంలో",
    " கார",
    " మొదటి",
    "ங்கு",
    " ప్రజా",
    " रा",
    " சே",
    "స్వా",
    " ప్రాంతాలు",
    " நூற்றா",
    " ఒకటి",
    " தொழி",
    " ముఖ్య",
    "ன்றா",
    " అధిక",
    "ங்களா",
    " కూడు",
    " అనేక",
    " को",
    "ற்கா",
    " మహా",
    " மிகப்",
    " చై",
    " கிழ",
    " చైనా",
    "ங்கா",
    " నే",
    " భూ",
    " வடிவ",
    " దా",
    " நக",
    " हैं",
    " శతా",
    " வை",
    " శతాబ్",
    " கலை",
    " శతాబ్దం",
    " నుండి",
    " வரு",
    " యు",
    " கட",
    "త్వా",
    " இருந்து",
    " सा",
    " స్వాతం",
    "ர்ந்த",
    " స్వాతంత్",
    " தோ",
    " జరిగిన",
    " పో",
    " கொண்டி",
    " అను",
    "ப்பட்டது",
    " అభి",
    " நாடா",
    " ए",
    "స్య",
    " அள",
    "దేశానికి",
    " இடை",
    " మొత్",
    "களால்",
    " మొత్తం",
    " పేర్",
    "ட்டா",
    " పండు",
    " இதன்",
    " इ",
    " ఎక్కువగా",
    "நில",
    " ఉంటాయి",
    " வழி",
    "నుక",
    " சமூ",
    " తరువాత",
    " அரசிய",
    " పూ",
    "த்திய",
    "నులు",
    " ने",
    " గు",
    " இய",
    "వత్",
    " அதன்",
    " సమ",
    " முடி",
    " ఐ",
    "ச்ச",
    "త్వం",
    " இவை",
    " ग",
    " కూడిన",
    " பொருட்",
    " తన",
    "ப்புற",
    "మంత్రి",
    " கீ",
    " నిర్వ",
    " ఆర్ధిక",
    " விளை",
    "కారం",
    " கொண்ட",
    " द",
    " రాష్ట్రపతి",
    "த்திற்கு",
    " పద్ధ",
    " காரண",
    " ఎన్ను",
    " இருந்தது",
    " అత్యధిక",
    " இந்து",
    "టుంది",
    " பேர",
    " पर",
    "టారు",
    "ங்களு",
    " కోర్టు",
    " மீ",
    " ప్రభుత్వం",
    " உயி",
    " కాంగ్రెసు",
    " தொழில்",
    " దేశ",
    "ड़",
    "మలు",
    "ட்ப",
    "భారతదేశంలో",
    "ப்பை",
    "హ్",
    "டுத்த",
    "త్రీ",
    " உண",
    " భారతదేశ",
    " நு",
    " జాబి",
    " ज",
    "இந்தியா",
    " జాబితా",
    " நாடு",
    " ప్రస్తుతం",
    " சீ",
    " పట్టణా",
    " நே",
    " ము",
    "களானவை",
    " తె",
    " कि",
    "டுத்து",
    " తమి",
    " ஆண்டி",
    " సౌ",
    " இராணு",
    " సౌక",
    " இராணுவ",
    " మార్గాలు",
    " व",
    " இணை",
    " రైల్",
    " குறிப்பிட",
    " రైల్వే",
    " பய",
    " నడిపిం",
    "கின்றனர்",
    " మన",
    " వె",
    "களைக்",
    " स्",
    " రహదారులు",
    " இதில்",
    " సంగీతం",
    "மதி",
    " బెం",
    " துறை",
    " బెంగా",
    " தேர்",
    " పై",
    " जा",
    "ப்படை",
    " పైగా",
    "ங்கை",
    " ప్రపంచంలో",
    "ட்டை",
    " వై",
    "னால்",
    "యంలో",
    "స్వామ",
    " அமைப்பு",
    " राज",
    "స్వామ్య",
    " சமூக",
    " రాష్ట్రాలు",
    " பண்பா",
    "పాలి",
    "லாம்",
    " కలిగి",
    " సై",
    "ன்மை",
    "నిక",
    "तीय",
    "மன்ற",
    " దేశాలలో",
    " கல்",
    " కి",
    " அதிகரித்து",
    " సము",
    "ములో",
    "ட்டின்",
    " దక్షిణాన",
    " வரை",
    "द्",
    " పశ్",
    " பெற்ற",
    " పశ్చి",
    "ற்பட்ட",
    " పాకిస్తాన్",
    "దేశ్",
    " மாநில",
    " ఆఫ్",
    " தொடக்க",
    " म",
    " శ్",
    " வாழ்",
    " ద్వీ",
    " ஓர்",
    " సామ్",
    " உறு",
    " సామ్రాజ",
    " రాజ్యాలు",
    "க்கால",
    "యింది",
    " कर",
    "னிய",
    " బ్రిటి",
    " முக்கிய",
    " కిం",
    " வீத",
    " గాం",
    " பயன்ப",
    "యక",
    " வர",
    " ఆధా",
    " तथा",
    " ఆర్థి",
    "த்துவ",
    " ఆర్థిక",
    " வளர்ச்சி",
    "కరణ",
    " அரசா",
    " అభివృ",
    "ட்ச",
    " र",
    " అభివృద్ధి",
    " அவை",
    "తున్న",
    "క్షరా",
    " ஜ",
    "క్షరాస్య",
    " என்ப",
    "క్షరాస్యత",
    " ஆகியவ",
    " भारतीय",
    " వంటి",
    "ண்டா",
    "ళ్లను",
    " மேற்கு",
    "ట్లు",
    "கமாக",
    "టిలో",
    "வையாக",
    " జం",
    "श्",
    " எதி",
    " భారతదేశానికి",
    "ప్పటికీ",
    " கூட்ட",
    " మే",
    "யுடைய",
    " దక్షిణ",
    "ப்பானது",
    " हु",
    " ఉత్తర",
    " போன்ற",
    " గో",
    " அனை",
    " లే",
    "ந்தா",
    " దీ",
    " கட்சி",
    " వచ్చిన",
    " १",
    "ரப்",
    "రత",
    " குடிய",
    "నది",
    " రూ",
    " இந்தியப்",
    "చీన",
    "லில்",
    " दे",
    " సంవత్",
    " தீ",
    " వార",
    "வீன",
    " వారస",
    " பாது",
    "డింది",
    " பாதுகா",
    "జ్",
    "ष्",
    "ப்பட்டன",
    " శాస్త్రం",
    " அறி",
    " ఖ",
    "ப்த",
    "త్వ",
    " ஆனால்",
    "లైన",
    " नि",
    "ப்பாக",
    " సు",
    "க்குப்",
    " ఆక్ర",
    "ராக",
    "తంగా",
    " கட்ட",
    "వరి",
    " भी",
    " ஆட்சி",
    " లక్ష",
    "ண்மை",
    " ప్రధానమంత్రి",
    "రణంగా",
    " என",
    " సభ్",
    " புவி",
    " ప్రకారం",
    " அணு",
    " एक",
    "న్యా",
    " ஆயு",
    "న్యాయ",
    " உலக",
    "లవు",
    "ற்றை",
    "తుంది",
    " அவ",
    "त्र",
    "మైనది",
    " உற்ப",
    "రాష్",
    " உற்பத்தி",
    " కార్య",
    " வணி",
    " లోక్",
    " வணிக",
    " हो",
    "రిగా",
    " இரண்டு",
    " అని",
    " வெளி",
    "క్షం",
    " கீழ்",
    " ఇవి",
    "னும்",
    " చరిత్ర",
    "्रा",
    "திய",
    " మాత్రం",
    "చుకోవ",
    " அரசாங்க",
    " సంప్రదా",
    "யாகும்",
    " పాకిస్థా",
    " போட்டி",
    " बा",
    " పాకిస్థాన్",
    " அடிப்படை",
    " వాతా",
    "த்தைக்",
    " వాతావ",
    "வாகும்",
    " వాతావరణం",
    " துணை",
    " न",
    "లుగు",
    " மொத்த",
    "దన",
    " கண்ட",
    " చేయ",
    "தான",
    " పాత్ర",
    " पा",
    " முக",
    " పరిశ్ర",
    " நிறுவன",
    " కల్",
    "யிலான",
    " మూడు",
    " ஐஅ",
    " నగ",
    " इस",
    "ர்க்க",
    " ముం",
    " ஆயுத",
    "బాద్",
    "ருந்த",
    " ఉన్నారు",
    "ப்படுகின்றன",
    " जि",
    " కుటుం",
    "ங்களின்",
    " భాషలు",
    "மய",
    " రకాల",
    " அனைத்து",
    " సర్",
    " பெரும்பாலான",
    " किया",
    " సర్వీ",
    " தொடர்ந்து",
    " సర్వీసు",
    " பிறகு",
    " పాక్",
    " சட்ட",
    " य",
    " రో",
    " பாணி",
    " రోడ్",
    " விரி",
    " సాంప్రదా",
    " வேறு",
    " చెందిన",
    "கியது",
    " वर्",
    " బెంగాలీ",
    " காண",
    " వంట",
    "யாகக்",
    " పత",
    " பரவ",
    "कार",
    " இக்கால",
    "కాలు",
    "ற்க",
    "డర్",
    "க்கம்",
    " క్యా",
    " நூற்றாண்டி",
    " हि",
    " వెబ్",
    " பிரித்தா",
    " స్థానంలో",
    "ரத்தில்",
    " విస్",
    "ర్ణం",
    "டும்",
    " सम",
    " ప్రజాస్వామ్య",
    "ரும",
    " కేంద్రపాలి",
    " உயிரி",
    " కేంద్రపాలిత",
    " உயர்",
    " పాలన",
    " సమాఖ్య",
    " तक",
    "த்தக்க",
    "మర్",
    "தாகும்",
    " ఒకటిగా",
    " இடையில்",
    " ముఖ్యమైన",
    " தொலை",
    "క్తి",
    " क्",
    "టర్",
    "ப்பின்",
    " ఉపఖం",
    "யாள",
    "కొని",
    " வங்கா",
    " వాణి",
    " मा",
    " வங்காள",
    " వాణిజ",
    " వాణిజ్య",
    " ரீ",
    " ఉత్త",
    " ரீதி",
    " ఉత్తరా",
    " உடைய",
    " लि",
    " హి",
    "வெளி",
    " హిమా",
    " செய்ய",
    " హిమాల",
    "ద్రం",
    " கொண்டிருந்தது",
    "तर",
    "మాన",
    " கூட",
    " బంగా",
    " இந்தியாவை",
    "లుగా",
    "ரசா",
    " బంగ్",
    " எதிர்",
    "पूर्",
    " బంగ్లా",
    " அரசு",
    " బంగ్లాదేశ్",
    " నేపా",
    " அக",
    "నిస్తాన్",
    "ல்லிய",
    "प्",
    " శ్రీ",
    " பயன்படுத்த",
    "వులు",
    "ப்பட்டுள்ளது",
    " నాగ",
    " உள்ளட",
    " నాగరిక",
    "क्षि",
    " கரு",
    " నాగరికత",
    " పుట్",
    " வகை",
    "టిల్",
    "ரின்",
    " జన్",
    " சோ",
    " साथ",
    " జన్మ",
    "களும்",
    " బహుళ",
    " இவ்",
    " జాతి",
    " సంఘ",
    "வதற்கு",
    "्या",
    "న్య",
    " நடத்த",
    "ప్రా",
    " தேசிய",
    "భాగం",
    " காங்கி",
    " ఒకే",
    " था",
    "நாட்டு",
    " కంపె",
    " பொ",
    " కంపెనీ",
    " పరిపా",
    " விளையா",
    " కింద",
    " दि",
    "லம்",
    " గాంధీ",
    " பல்",
    "ర్యం",
    " இரண்டா",
    "ర్వా",
    "ற்போ",
    "ग्",
    " స్వతం",
    " தொடங்",
    " దేశంగా",
    " அரசியல்",
    " వేగంగా",
    " ஒன்",
    " అవి",
    " दक्षि",
    "న్నది",
    " முகலா",
    " నాలు",
    " பிரித்தானிய",
    " నాలుగు",
    " உருவானது",
    " उत्",
    " చె",
    "ளுமன்ற",
    "చ్చు",
    "ட்டில்",
    " వీ",
    "ற்றின்",
    " వీటిలో",
    "न्य",
    " உணவு",
    " జంబూ",
    " நகர்",
    "బడిన",
    "யின",
    "కృష్",
    " உள்நாட்டு",
    " లేదా",
    " दक्षिण",
    " రాజు",
    "வான",
    " మీ",
    " பத",
    "తల",
    " கிரா",
    " जन",
    "మారు",
    "இந்திய",
    " హిందూదేశం",
    " முதன்",
    " గ్",
    "ண்ண",
    " गया",
    "వల",
    " கூட்டணி",
    "చారు",
    " சமை",
    " పొం",
    " பூ",
    " పొందిన",
    " क्षे",
    "ந்துள்ளது",
    "తము",
    " கொள்",
    " గుర్",
    "னித",
    " గుర్తిం",
    "रूप",
    "ரிக்கா",
    " ప్రాచీన",
    " இந்தியத்",
    " మొట్ట",
    " మొట్టమొ",
    " பௌ",
    " మొట్టమొద",
    " பெண்",
    " सर",
    " మొట్టమొదటి",
    " ஆசியா",
    " ఏర్పడ్",
    " சேர்ந்த",
    " సంస్కృతి",
    "லிம்",
    " १९",
    " సాంస్",
    " முகலாய",
    " సాంస్కృ",
    "ஆக",
    " సాంస్కృతిక",
    " குறிப்பிடத்தக்க",
    " చేసింది",
    " ना",
    " என்ற",
    "బడింది",
    "மைப்பு",
    " సార",
    " ஈ",
    "స్వతం",
    " எண்ணி",
    " शा",
    " మొదలైన",
    " எண்ணிக்கை",
    "డవ",
    " கட்டு",
    "హస్",
    " அழி",
    " प्रा",
    "కుల",
    " புதிய",
    " ఢిల్లీ",
    " நுட்ப",
    "ట్టు",
    " உள்ளி",
    " ఇంగ్",
    " बाद",
    " உள்ளிட்ட",
    " వ్యా",
    "க்கான",
    " వ్యాపా",
    "ணிய",
    " తి",
    " அட",
    " श",
    "ఖ్యా",
    " வெற்றி",
    " భాగం",
    " உறுப்பி",
    "త్తా",
    "யியல்",
    " जिस",
    " దేశానికి",
    " மலை",
    " కారణంగా",
    " பாதுகாப்பு",
    "ద్ధం",
    " இற",
    "పక",
    "ष्ट",
    " கண",
    "హించింది",
    " இதற்கு",
    " అవ",
    " மேற்",
    " రాజ్యాం",
    "ढ़",
    " மனித",
    " అధికారం",
    "ப்படுத்த",
    " న్యాయ",
    " வேறுப",
    " నిర్వహ",
    " நீண்ட",
    "धान",
    " నిర్వహణ",
    "யுள்ளது",
    " ద్వా",
    "வானது",
    " ద్వారా",
    "ப்படி",
    "भार",
    " రాష్ట్రాల",
    " பரி",
    " పద్ధతి",
    " தற்போ",
    " సంవత్స",
    "த்தால்",
    " सब",
    "డతా",
    " வடக்கு",
    " தொடங்கியது",
    " సంకీ",
    " பௌத்த",
    "బడ్",
    " சை",
    " ఉంటుంది",
    " सबसे",
    "னம்",
    "భారతదేశపు",
    " கடற்க",
    " వ్యవస్థలో",
    " கடற்கரை",
    "కుంటారు",
    " अधि",
    " நீடி",
    " సూ",
    " பஞ்",
    "చన",
    "யது",
    "దుగా",
    "रीय",
    " அறிய",
    " ఘ",
    " முக்கியமான",
    " పూర్",
    "ந்திர",
    " దాదా",
    " நாடாளுமன்ற",
    " २",
    " దాదాపు",
    "வல்",
    "త్యం",
    "மைய",
    " ప్రభుత్వా",
    " காடு",
    "रिक",
    " ఎన్ని",
    "சின்",
    " ఎన్నిక",
    " குறிப்பாக",
    " வரலா",
    " గె",
    " हिन्",
    "பல",
    " కలిసి",
    " பின்",
    " నుంచి",
    "கர்",
    " మతాలు",
    " ध",
    " மாற்ற",
    "లాలు",
    "ளது",
    " సంప్రదాయాలు",
    " முன்னே",
    " కూడుకు",
    "ந்தைய",
    "मुख",
    " మై",
    " பெற்றது",
    " ఉండ",
    "தம",
    " కాశ్",
    " வகு",
    " ह",
    " కాశ్మీ",
    " இலக்கிய",
    " ప్రజల",
    " பிரா",
    " సంఖ్య",
    " ஏற்பட்ட",
    " यह",
    " శాస్త్రీ",
    "ண்டும்",
    " శాస్త్రీయ",
    " ஓவிய",
    "కంగా",
    " இருந்தன",
    " बहु",
    " పరిశ్రమలు",
    " பொதுவாக",
    " காங்கிரசு",
    " సినిమాలు",
    "ப்பில்",
    " రంగా",
    " கிராம",
    "ग्रे",
    " పట్టణాలు",
    " முதன்மையான",
    " మంది",
    "ல்லியன்",
    "రంగం",
    " பொருட்கள்",
    " भाषा",
    " భిన్న",
    " விளையாட்டு",
    "వెనుక",
    " முத",
    "వెనుకటి",
    " இதுவாகும்",
    "कर",
    " కల",
    " அடை",
    " పురు",
    "க்கில்",
    " పురుషు",
    "ச்சிய",
    "ल्",
    " தென்னி",
    "గణ",
    " தெற்கு",
    " సంబం",
    " முசு",
    " కార్యక్ర",
    " முசுலிம்",
    "स्ता",
    " కార్యక్రమా",
    "ப்பீ",
    " భ",
    " நூற்றாண்டு",
    " జరు",
    "க்கப்பட்டது",
    " वा",
    " பெய",
    " జరుపు",
    " வள",
    " పండుగలు",
    " சில",
    " హిందీ",
    " दो",
    " நான்",
    " తెలుగు",
    " சொ",
    " కన్న",
    "லாக",
    "द्र",
    " తమిళం",
    " கை",
    "శాఖ",
    "க்குக்",
    " வேளா",
    " ప్రారం",
    "भारत",
    " வேளாண்மை",
    " ఇస్",
    "ங்களாக",
    " ఇస్లా",
    " கட்டுப்பா",
    " ఇస్లామా",
    "ज्य",
    "க்கப்ப",
    " ఇస్లామాబాద్",
    "ரால்",
    "ట్టా",
    " மத்தி",
    "र्म",
    "களைப்",
    " దక్షిణాసియా",
    "வியல்",
    " సర్వీసులు",
    "இந்தியாவின்",
    "చాల",
    " पूर्",
    " இவ்வா",
    " ప్రతిపా",
    " ஏற்று",
    " ప్రతిపాదన",
    " ஏற்றுமதி",
    "చ్చ",
    " अप",
    " சந்தை",
    "களுடன்",
    " రైళ్లను",
    " இருக்க",
    " శాఖ",
    " रूप",
    " உறுப்பினர்",
    "మతి",
    "மலை",
    " నడిపించ",
    " பிரதம",
    "మేన",
    " निर्",
    " ஐக்கிய",
    " నిర్",
    "கெடு",
    " రోడ్డు",
    " மதி",
    " विश्",
    " ஆண்",
    " కే",
    "ர்வ",
    " కేవ",
    " குடியரசு",
    " కేవలం",
    "म्",
    "ளவு",
    "జాలు",
    " பாக்கி",
    " பாக்கித்தா",
    " చాలా",
    "र्य",
    " இந்",
    " పరంగా",
    "யைப்",
    " భావి",
    "வர்கள்",
    " राष्ट",
    " సాంప్రదాయి",
    " ஆக்கி",
    " இரண்டாவது",
    " సాంప్రదాయిక",
    " முன்னர்",
    " కథ",
    " जो",
    " தற்போது",
    " ఆహా",
    " வழ",
    "పిక్",
    "ல்லா",
    " विश्व",
    "கிழ",
    " పతకాలు",
    " பஞ்சா",
    " టై",
    " கட்டட",
    " క్యాలెం",
    "चीन",
    " பெரும்பான்மை",
    "நாய",
    " క్యాలెండర్",
    " நப",
    "దినాలు",
    " ल",
    "யிலிருந்து",
    "SB",
    " மைய",
    "SBN",
    "பாடு",
    "प्त",
    "வால்",
    " అధికారిక",
    " உயிரின",
    " వెబ్సై",
    " பார",
    " వెబ్సైటు",
    " साम",
    " கிழக்கு",
    " కోట్",
    " அரசியல",
    " జనాభాతో",
    " நவீன",
    "తీర్ణం",
    "्यों",
    "ண்டை",
    "యుత",
    " விவ",
    " పార్ల",
    " மெ",
    " పార్లమెం",
    " स्था",
    " நகர",
    " సైనిక",
    " సామర్",
    " பழ",
    " సామర్థ",
    " பணி",
    " సామర్థ్యం",
    " बना",
    "ருக்க",
    " ప్రాంతీయ",
    " காலத்திற்கு",
    "సియాలో",
    " தங்க",
    " వేల",
    " शास",
    " కిలో",
    "பக",
    " కిలోమీ",
    " புது",
    " కిలోమీటర్",
    " மத்தியில்",
    " కిలోమీటర్లకు",
    "क्ष",
    " பிராந்திய",
    " సముద్ర",
    " தமி",
    " సముద్రతీ",
    "கம்",
    " ఉపఖండ",
    " लो",
    " భాగా",
    "வாய்",
    " భాగాన్ని",
    "ன்றாக",
    " కూడుకొని",
    "ள்ளி",
    " చారిత్ర",
    " सरकार",
    " கல்வி",
    " చారిత్రక",
    " தசா",
    " ఉత్తరాన",
    " మహాస",
    " தசாப்த",
    " अं",
    " మహాసము",
    " இலட்ச",
    " మహాసముద్రం",
    " குறைவான",
    " పశ్చిమాన",
    " தலைமை",
    " తూ",
    " बड़",
    " செய",
    " తూర్",
    " ஆண்டின்",
    " తూర్పు",
    "మార్",
    "ராச",
    " देश",
    " నేపాల్",
    " நாட்டு",
    " భూటా",
    " ஆக",
    " భూటాన్",
    " கணக்",
    " चु",
    "చుకుం",
    " கணக்கெடு",
    " ఇండో",
    " உலகக்",
    "రలో",
    "దేశాలు",
    " हुआ",
    " என்பது",
    " సింధు",
    " தெற்கா",
    " బౌ",
    " சூ",
    " జై",
    "ளம்",
    " मि",
    " సిక్కు",
    "ல்லை",
    " మతము",
    " ஆண்டுகளுக்கு",
    " ఏప్",
    " வேறுபட்ட",
    " पु",
    " ఏప్రి",
    " மர",
    " ఏప్రిల్",
    "வகை",
    " చైనాను",
    " சிந்து",
    "మౌర్య",
    " अनु",
    " ஆண்டில்",
    " మి",
    " வாக்கில்",
    "వర్తి",
    " வேத",
    " పాలనలో",
    "द्ध",
    " பதி",
    "పరి",
    " పలు",
    " சாதி",
    " రాజ్యాలుగా",
    "த்தன",
    " हुई",
    "పోయింది",
    " பேரரசு",
    " బ్రిటిష్",
    " அடிப்படையாகக்",
    " ఈస్",
    "மையை",
    " च",
    " ఈస్ట్",
    "திலும்",
    "యాలను",
    "களையும்",
    " బ్రిటీ",
    " தில்லி",
    " स्व",
    " పరిపాలన",
    " விரிவ",
    " కిందకు",
    "றாக",
    " మహాత్",
    "னநாய",
    " మహాత్మా",
    " क्षेत्र",
    " இன",
    " నాయక",
    " நபர்",
    " స్వాతంత్ర్యం",
    " வேகமாக",
    " తర్వా",
    "मान",
    " குழ",
    " స్వతంత్ర",
    " நான்கு",
    "భవిం",
    " సంస్కరణ",
    " நாட்டின்",
    "सार",
    "రిస్",
    " கொண்டுள்ளன",
    " చెందు",
    " ஆத",
    " చెందుతున్న",
    " மூன்றா",
    " जाता",
    "కాహా",
    " பிரபல",
    "కాహార",
    " முழு",
    "కొంటు",
    " எஞ்",
    " राज्य",
    " పేర్లు",
    " நகர்ப்புற",
    " చెప్",
    "ற்றில்",
    " చెప్పు",
    "ங்களானவை",
    " వేదా",
    "००",
    " அமைப்பானது",
    " ఇవ",
    " தங்களது",
    " ఉపయో",
    " नाम",
    " மக்களி",
    " ఉపయోగి",
    "த்தியது",
    " కృష్",
    "க்தி",
    " గోదా",
    " धर्म",
    " ஆகியவற்றை",
    "వరీ",
    "రేడు",
    "வில்லை",
    " కనుక",
    "முறை",
    " दिया",
    " మీద",
    " மீண்டும்",
    " మీదగా",
    "க்கள்",
    " ఇత",
    " ஐரோ",
    " शासन",
    " విశ్",
    "ங்கும்",
    "నక",
    "க்கப்படு",
    "తరువా",
    " சார்ந்த",
    " कु",
    " సింధూ",
    "தைத்",
    " సింధూనది",
    " வேலை",
    "కులు",
    " பதவி",
    "योग",
    " రూపాం",
    " செயல்",
    "తరం",
    " வெப்ப",
    " వలన",
    " இமய",
    " उत्तर",
    "ముఖ్య",
    " இமயமலை",
    " ప్రభుత్వ",
    " தடு",
    " శి",
    " ई",
    " నివా",
    " தொடர்ச்சி",
    " ఏర్పడ్డా",
    " மேற்பட்ட",
    " ఏర్పడ్డాయి",
    "ந்தெ",
    "स्कृ",
    " స్థావ",
    "ந்தெடு",
    " స్థావరాలు",
    "க்கப்படும்",
    " పశ్చిమ",
    " 2011ஆம்",
    "त्री",
    " మె",
    " சராச",
    "హర్",
    " சராசரி",
    "గర్",
    "ध्य",
    " இடத்தை",
    " ప్రాంతాల్లో",
    " உள்ளிட்டவை",
    "లోయ",
    "டக",
    " చెందా",
    " बढ़",
    " போட்டிகள்",
    " చెందాయి",
    " அதிகா",
    "లిన",
    " இந்தியக்",
    " భారతం",
    " यु",
    " அந்த",
    " సామ్రాజ్యం",
    "க்கோ",
    " వారసత్వా",
    " காரணமாக",
    " విలు",
    "बंध",
    "தற்கா",
    " తరువాతి",
    "க்கப்பட்டு",
    "వర్ణ",
    "விட",
    "ణించ",
    "शिया",
    "யால்",
    " మొదల",
    " வில",
    " మొదలగు",
    "ராத",
    "स्तान",
    " పాలిం",
    " கங்கை",
    " పాలించారు",
    " செய்த",
    " కళ",
    " உருவாக்கிய",
    " थी",
    " కళలు",
    " தென்னிந்தியா",
    " நிறுவ",
    " సారస్వతం",
    " சமவெளி",
    " సాంకే",
    " समय",
    "த்தின",
    " సాంకేతిక",
    " இறு",
    " మొదలైనవి",
    " சுல்",
    "ల్లా",
    "तिक",
    " சுல்தான",
    " సహస్",
    " இணைய",
    " సహస్రా",
    " நூற்றாண்டில்",
    " लिए",
    " సహస్రాబ్",
    "ளவில்",
    " సహస్రాబ్ది",
    " கட்டடக்",
    " మొగలు",
    " கிழக்கி",
    " प्रमुख",
    " అయినా",
    " அரச",
    " ముఖ్యం",
    " குடும்",
    " ముఖ్యంగా",
    " குடும்ப",
    " कें",
    "ర్చు",
    " இயக்க",
    "రాన్",
    " நாடாக",
    "क्षा",
    " ఐరో",
    " வருமான",
    " ఐరోపా",
    " கல்விய",
    " கல்வியறி",
    " ఇక్క",
    " अन्य",
    " கல்வியறிவு",
    "థితి",
    " சேவை",
    " ఆక్రమిం",
    " வரும்",
    " బ్రిటిషు",
    "रण",
    " பல்வே",
    " తిరు",
    " பல்வேறு",
    " తిరుగు",
    " இசை",
    " తిరుగుబా",
    " राज्यों",
    "தனை",
    " తిరుగుబాటు",
    " உலகளா",
    " స్వాతంత్ర్య",
    " உலகளாவிய",
    " द्",
    " సమరం",
    " தன்மை",
    "త్వంలో",
    " போதிலும்",
    " ఫ",
    " அளவுக்கு",
    "ब्",
    " జనవరి",
    " செல",
    " 26న",
    " ஆதர",
    " గణ",
    " நூற்றாண்டின்",
    "श्चि",
    " గణతం",
    " பரவலாக",
    " గణతంత్ర",
    " உள்ளடக்கிய",
    " भू",
    " காலத்தில்",
    " రాజ్యం",
    " சுமா",
    " రాజ్యంగా",
    " சுமார்",
    " జాతులు",
    " पूर्व",
    "ஞ்ச",
    " విభిన్న",
    " காலத்தின்",
    " పర",
    " மேல்",
    "ర్ష",
    "लय",
    "ளர்கள்",
    "ర్షణ",
    "த்துக்கு",
    " చవి",
    " போர்",
    "स्था",
    " లౌ",
    "த்தைச்",
    " లౌకి",
    " தலைவ",
    " లౌకిక",
    " करो",
    " முன்னேற்ற",
    " లక్షణా",
    " நெ",
    " కాపా",
    " மகா",
    " हिन्दी",
    " కాపాడు",
    " பின்ப",
    " కాపాడుకుం",
    " எண்ண",
    " కాపాడుకుంటూ",
    " சிற்ப",
    "ज़",
    "ధించిన",
    " அந்",
    "யைத்",
    " మాత్ర",
    " उप",
    " நேர",
    " మాత్రమే",
    " வலி",
    "వాదం",
    " நடை",
    "ధాలు",
    " महा",
    " இவர்",
    "ద్య",
    "ரில்",
    " సభ్యు",
    " புற",
    " समा",
    " పరీ",
    "வர",
    " పరీక్ష",
    " கால்",
    " నిర్వహించింది",
    " करने",
    " அதிகரித்தது",
    " మరో",
    " பாதி",
    "తరిం",
    "ப்பாடு",
    " रहा",
    " రాజ్యాంగం",
    " பங்களி",
    " లె",
    " ஒன்றிய",
    "त्व",
    "వ్య",
    "மீப",
    "వ్యవస్థ",
    "ப்போ",
    "లవుతుంది",
    " சது",
    "च्",
    " கல",
    " పద",
    "ன்றன",
    " పదవి",
    "क्त",
    "நிலை",
    "రాష్ట్ర",
    " கிராமப்புற",
    " ఎల",
    "வையாகும்",
    " ఎలక్",
    " देशों",
    " குறு",
    " ఎలక్టో",
    " ஆண்டுகளில்",
    " ఎలక్టోర",
    " தேர்த",
    " अधिक",
    " ఎలక్టోరల్",
    " தேர்ந்தெடு",
    " కాలే",
    " உற",
    "మితి",
    " दश",
    " அமெ",
    " ఎన్నుకో",
    " ஆற்ற",
    " ఎన్నుకోబ",
    " பில்லியன்",
    " अंग्रे",
    " ఎన్నుకోబడతా",
    "லேயே",
    " ఎన్నుకోబడతారు",
    " திற",
    " एशिया",
    " లోక్స",
    " இருக்கலாம்",
    " లోక్సభ",
    "அண்",
    " సభ్యులు",
    " வென்று",
    " पाकि",
    " மாமி",
    " నియ",
    " மாமிச",
    " నియమిం",
    " पाकिस्तान",
    " அழை",
    " నియమించ",
    "லாமி",
    " మంత్రి",
    " பெரு",
    " संस्कृ",
    " స్వీ",
    " பெருங்க",
    " శాస",
    "க்கே",
    " हुए",
    " శాసన",
    " சீனா",
    " பகி",
    " ఎగు",
    " பகிர்",
    " సభను",
    " मै",
    " அரு",
    " రాజ్య",
    " ஆப்பி",
    " ప్రజలు",
    "கரி",
    " अन्",
    " ஆயி",
    "ప్రీం",
    "ப்பிய",
    " కోర్టులు",
    "ல்லாத",
    " सि",
    " హై",
    " பரவிய",
    " రి",
    " உறுதி",
    "చ్చే",
    "तंत्र",
    " கவன",
    " பகுதிகளில்",
    "డమ",
    "ன்றி",
    " జో",
    "क्ति",
    " இராச்சிய",
    " వ్యవస్థకు",
    " இசு",
    " వహిం",
    " பேரரசா",
    " प्",
    "రిస్తారు",
    " பகுதியில்",
    " முகலாயப்",
    " అతిపెద్ద",
    " கிழக்கிந்திய",
    " अनुसार",
    "ళ్ళ",
    " நேரத்தில்",
    "పాటు",
    " இறை",
    " జనతా",
    " या",
    "யையும்",
    " ఐక్",
    " ஏற்ப",
    "க்காக",
    " ఐక్య",
    " पह",
    " சுத",
    " ప్రతిప",
    " சுதந்திர",
    " ఓ",
    " பெரும",
    " कई",
    " ప్రభుత్వాన్ని",
    " பெருமள",
    " பெயர்",
    " ఇటీ",
    " வளரும்",
    "లపై",
    " जी",
    " வர்க்க",
    " కోల్",
    " அமைப்பை",
    " సార్వ",
    " திரை",
    " होता",
    " సార్వత్రి",
    " பெற்று",
    " பேரர",
    " సార్వత్రిక",
    " बी",
    "க்கிறது",
    " సంకీర్",
    " இந்தியர்",
    "న్నీ",
    "ரான",
    " नहीं",
    "కాగా",
    " துணைக்",
    " ఎన్నికల్లో",
    "ங்களுக்கு",
    " கடு",
    " కాంగ్రెస్",
    " कारण",
    "த்துடன்",
    " స్థానా",
    "களான",
    " స్థానాలను",
    " அவர்",
    " चुना",
    " గెలు",
    " தூ",
    " గెలుచుకోవ",
    " நீர்",
    " न्",
    "மயமா",
    " గెలుచుకోవడం",
    " காரணமானது",
    " పేర్కొ",
    " தவி",
    "राज्य",
    "నవ",
    "லின்",
    " భౌ",
    "ங்களும்",
    " சிற",
    " తా",
    "देश",
    " நீடித்தி",
    " కులాలు",
    " தீபக",
    "ళిక",
    " इसके",
    " தீபகற்ப",
    " బి",
    " வகுத்தது",
    " ఈశా",
    " பிந்தைய",
    " इं",
    " அந்நே",
    " ఈశాన్య",
    " அந்நேரத்தில்",
    " హిమాలయ",
    " साम्रा",
    " நோ",
    " పర్వ",
    "ற்சி",
    " కూడుకుని",
    " எந்த",
    " मध्य",
    " కూడి",
    " இவ்வாறு",
    "ப்பர",
    " థా",
    " அரசின்",
    " सेना",
    " పూర్తి",
    " கொள்கை",
    " పూర్తిగా",
    " ஆதி",
    "्यव",
    " పీ",
    "ப்படியான",
    " పీఠ",
    " நிலையில்",
    "ருத்த",
    " పీఠభూ",
    " शु",
    " உட",
    " పీఠభూమి",
    " எனி",
    " కను",
    " करोड़",
    " எனினும்",
    " కనుమలు",
    " தள",
    " இலட்சம்",
    "దులు",
    " प्रति",
    "ல்வா",
    " కొన్ని",
    " சமீப",
    " గం",
    " केंद्र",
    "கிழக்கு",
    " య",
    " ஆறு",
    "హ్మ",
    "ருப்பு",
    "माण",
    " மறை",
    "దేశపు",
    "ர்த்தி",
    "ష్ణ",
    "யைக்",
    " पार्",
    " నెల",
    "வுட",
    " జమ్",
    " பரிமா",
    " हा",
    " జమ్మూ",
    " மந்தி",
    " பொதுத்",
    " లకు",
    " தேர்தலில்",
    "ड़ा",
    "రాష్ట్",
    " மூன்றாவது",
    " పటం",
    " உச்ச",
    "ర్క్",
    " द्वा",
    "வண்",
    "లేదు",
    " அமைச்ச",
    " நீதி",
    " ఆధార",
    " ही",
    " உறவு",
    " ఆధారప",
    " அமெரிக்கா",
    " ఆధారపడిన",
    " राष्ट्",
    " வருகிறது",
    " వ్యవ",
    " இறக்கு",
    " இறக்குமதி",
    "దాయంలో",
    "विधान",
    " துறையானது",
    " కంటే",
    " அறிக்கை",
    "పెట్",
    " தமிழ்",
    "मंत्री",
    " టె",
    " தொகைக்",
    "మిక",
    " அண்",
    " लोक",
    " நாடக",
    " కేంద్",
    " திரும",
    "తమై",
    " திருமண",
    " न्या",
    " గత",
    "கறி",
    " ప్రపంచంలోని",
    " கோப்பை",
    "ख्या",
    "దింది",
    " தெற்",
    " பாக்கித்தான்",
    " 2003",
    "தேச",
    "ర్లు",
    " पश्चि",
    "ன்ம",
    "దేశీ",
    " ஆகியவற்று",
    " பகிர்ந்து",
    " యా",
    " गु",
    " அமைந்துள்ளது",
    " రంగం",
    " ஆப்பிரிக்கா",
    " துணைக்க",
    " అమె",
    " भ",
    " துணைக்கண்ட",
    " అమెరి",
    " முன்ன",
    "ப்படுத்தப்பட்ட",
    " అమెరికా",
    " मैदा",
    "வர்களாக",
    " వ్యాపార",
    " சமயப்",
    " భాగ",
    " செய்யப்பட்ட",
    "र्थ",
    " வாய்",
    "మించి",
    "லானது",
    " సామా",
    " स्वतंत्र",
    "கத்",
    " ஒன்றி",
    " సామాజి",
    " ஒன்றிணை",
    " సామాజిక",
    " भूमि",
    " படை",
    "స్తాయి",
    " பண்பாடு",
    "தம்",
    " నగరాలు",
    " वर्ष",
    " மீது",
    " ముంబై",
    " விட்டு",
    "ட்டம்",
    "కాతా",
    " प्राचीन",
    " இறுதி",
    "న్నై",
    " பண்பாட்டு",
    "దరా",
    " தாக்கம்",
    " ती",
    " ஒப்பீ",
    " 83",
    " ஒப்பீட்ட",
    " आर्",
    " అక్షరాస్యత",
    " அமைதி",
    " தொடங்கி",
    " మహి",
    " விரிவடை",
    "सित",
    " స్త్రీ",
    " வைத்த",
    "லாட்சி",
    " స్త్రీలు",
    " இடம்",
    " बीच",
    " జనగణ",
    " சனநாய",
    " రెండో",
    "கழ்",
    " கிட்ட",
    " क्षेत्",
    " ముస్",
    " தக",
    " ముస్లిం",
    " நடுத்த",
    " यू",
    " நடுத்தர",
    "17",
    " திட்ட",
    "స్తులు",
    "ப்பட",
    "शन",
    " కార్యక్రమాలు",
    " வறு",
    " வறுமை",
    " భక్తి",
    "த்துள்ளது",
    " चा",
    " జరుపుకుంటారు",
    " குழந்தை",
    " காற்று",
    " బా",
    "பொரு",
    " द्वारा",
    "రామ",
    " காட்டு",
    " భాషా",
    " பாரம்பரியமாக",
    " ஆங்கி",
    " ओ",
    " కుటుంబా",
    " பெற",
    " భాషలను",
    "க்கப்",
    " भाषाओं",
    " பாரசீ",
    " అధికారి",
    " பாரசீக",
    " అధికార",
    " அரசியலமைப்பு",
    " संघ",
    " பயன்படுத்தப்படுகிறது",
    " ఇంగ్లీ",
    " பூர்",
    " ఇంగ్లీషు",
    " பூர்வீ",
    " सै",
    "బాదు",
    " காலப்",
    "னின்",
    "మ్మ",
    " அறியப்பட்ட",
    "ग्रेस",
    " సౌకర్యా",
    "ர்களின்",
    " பின்னர்",
    " సౌకర్యాలలో",
    "ட்டிருந்தது",
    " प्रधान",
    " సౌకర్య",
    " தொடர்பு",
    "గము",
    " இக்காலத்தின்",
    " दशक",
    " ஆகி",
    " నిడి",
    " ஆகியோ",
    " నిడివి",
    " எண்ணிக்கையிலான",
    " संविधान",
    " மேலும்",
    "ఢాకా",
    " நெருக்க",
    "లాహో",
    " வளர்ந்து",
    " चुनावों",
    "లాహోర్",
    " தவிர்",
    " ரீதியாக",
    " పట్టా",
    " மக்களின்",
    "फ़",
    " ప్రారంభిం",
    " நிர்",
    " வரி",
    " ప్రారంభించాల",
    "ण्",
    "மல்",
    " ప్రతిపాదనకు",
    " மூலம்",
    " பிரதி",
    "పుతూ",
    " स्थि",
    " குடியி",
    " రైల్వేశాఖ",
    "ரவ",
    "చ్చని",
    "र्व",
    "ங்களைப்",
    " மேற்கொ",
    " నిపు",
    " இன்",
    "न्न",
    " నిపుణు",
    "ல்கள்",
    " ஆசிய",
    " నిపుణులు",
    "ட்டது",
    " मु",
    " సూచిం",
    "விலிருந்து",
    " సూచించిన",
    " வலிமையான",
    " अन्त",
    "யாளர்",
    " సూచించినట్లు",
    "ளூர்",
    " వర్గా",
    " சீர்",
    "यन",
    " நிலப்பர",
    "బుల్",
    "னார்",
    " ప్రయో",
    "्यवस्था",
    "யைச்",
    " ప్రయోజ",
    " குழு",
    "ங்களைக்",
    " మనదేశం",
    " बहुत",
    " அதிகப்படியான",
    "వల్ల",
    "ப்படுத்து",
    "वर्",
    " வரைய",
    "మేనని",
    " அடங்கும்",
    " మార్గం",
    "ளர்ச்சி",
    "मिल",
    " பஞ்சாபி",
    " పాలకు",
    " உடை",
    " ఉండటం",
    " தேர்தல்",
    "निक",
    "మిస్తు",
    "க்கப்பட்டுள்ளது",
    "50",
    " జరిగే",
    " குச",
    " निर्माण",
    " குசரா",
    "ప్పటికి",
    " பாறை",
    "ప్పటికినీ",
    "களுக்கும்",
    " नेतृ",
    "க்கின்றன",
    " నగరాల",
    " சமீபத்திய",
    "నుండి",
    " नेतृत्व",
    " அகணிய",
    "உம்",
    " ఇతరదేశా",
    " அடர்த்தி",
    " ला",
    " అంత",
    " பிரிவு",
    " అంతర్",
    " இருப்ப",
    "स्त",
    "ன்னா",
    " అంతర్జాతీయ",
    " உண்ண",
    " తక్కువ",
    " பிற்ப",
    " राष्ट्रीय",
    " பிற்பகுதி"
  ],
  "merges": [
    [
      " ",
      "t"
    ],
    [
      "a",
      "n"
    ],
    [
      "h",
      "e"
    ],
    [
      "i",
      "n"
    ],
    [
      " t",
      "he"
    ],
    [
      "o",
      "n"
    ],
    [
      "e",
      "r"
    ],
    [
      "r",
      "e"
    ],
    [
      " ",
      "a"
    ],
    [
      " ",
      "o"
    ],
    [
      "e",
      "n"
    ],
    [
      "s",
      "t"
    ],
    [
      "a",
      "l"
    ],
    [
      "d",
      "i"
    ],
    [
      "a",
      "t"
    ],
    [
      " ",
      "c"
    ],
    [
      "an",
      "d"
    ],
    [
      "e",
      "d"
    ],
    [
      " ",
      "I"
    ],
    [
      "a",
      "r"
    ],
    [
      " ",
      "w"
    ],
    [
      "i",
      "t"
    ],
    [
      " o",
      "f"
    ],
    [
      " ",
      "in"
    ],
    [
      " ",
      "s"
    ],
    [
      " ",
      "and"
    ],
    [
      " I",
      "n"
    ],
    [
      " ",
      "b"
    ],
    [
      "o",
      "r"
    ],
    [
      "i",
      "on"
    ],
    [
      " ",
      "p"
    ],
    [
      " ",
      "m"
    ],
    [
      "e",
      "s"
    ],
    [
      " ",
      "f"
    ],
    [
      "i",
      "c"
    ],
    [
      " In",
      "di"
    ],
    [
      "i",
      "s"
    ],
    [
      "in",
      "g"
    ],
    [
      "a",
      "s"
    ],
    [
      "en",
      "t"
    ],
    [
      " ",
      "l"
    ],
    [
      "o",
      "m"
    ],
    [
      " ",
      "e"
    ],
    [
      "o",
      "u"
    ],
    [
      " Indi",
      "a"
    ],
    [
      " t",
      "o"
    ],
    [
      "l",
      "y"
    ],
    [
      " ",
      "h"
    ],
    [
      " ",
      "d"
    ],
    [
      "u",
      "r"
    ],
    [
      "e",
      "c"
    ],
    [
      " ",
      "re"
    ],
    [
      " ",
      "1"
    ],
    [
      " ",
      "n"
    ],
    [
      " ",
      "g"
    ],
    [
      " ",
      "T"
    ],
    [
      "i",
      "l"
    ],
    [
      "t",
      "h"
    ],
    [
      "v",
      "er"
    ],
    [
      "u",
      "l"
    ],
    [
      " ",
      "A"
    ],
    [
      "r",
      "i"
    ],
    [
      "o",
      "l"
    ],
    [
      "r",
      "a"
    ],
    [
      " ",
      "C"
    ],
    [
      "at",
      "ion"
    ],
    [
      "a",
      "m"
    ],
    [
      " ",
      "B"
    ],
    [
      "r",
      "o"
    ],
    [
      "v",
      "e"
    ],
    [
      "l",
      "e"
    ],
    [
      " ",
      "is"
    ],
    [
      " ",
      "S"
    ],
    [
      "u",
      "t"
    ],
    [
      " T",
      "he"
    ],
    [
      "c",
      "e"
    ],
    [
      " b",
      "y"
    ],
    [
      " Indi",
      "an"
    ],
    [
      "i",
      "st"
    ],
    [
      "a",
      "st"
    ],
    [
      "e",
      "t"
    ],
    [
      " ",
      "2"
    ],
    [
      "a",
      "d"
    ],
    [
      "u",
      "s"
    ],
    [
      "i",
      "m"
    ],
    [
      " t",
      "h"
    ],
    [
      "g",
      "e"
    ],
    [
      "i",
      "g"
    ],
    [
      "o",
      "w"
    ],
    [
      " 1",
      "9"
    ],
    [
      "i",
      "d"
    ],
    [
      "it",
      "h"
    ],
    [
      "u",
      "n"
    ],
    [
      " f",
      "or"
    ],
    [
      "i",
      "r"
    ],
    [
      " ",
      "r"
    ],
    [
      " b",
      "e"
    ],
    [
      "u",
      "c"
    ],
    [
      " w",
      "ith"
    ],
    [
      " c",
      "on"
    ],
    [
      "m",
      "ent"
    ],
    [
      " w",
      "as"
    ],
    [
      "at",
      "e"
    ],
    [
      "0",
      "0"
    ],
    [
      "i",
      "es"
    ],
    [
      "t",
      "ion"
    ],
    [
      "o",
      "p"
    ],
    [
      " a",
      "s"
    ],
    [
      "re",
      "s"
    ],
    [
      " w",
      "h"
    ],
    [
      "t",
      "er"
    ],
    [
      " ",
      "st"
    ],
    [
      " m",
      "o"
    ],
    [
      " ",
      "P"
    ],
    [
      "e",
      "m"
    ],
    [
      " ",
      "M"
    ],
    [
      "r",
      "om"
    ],
    [
      "on",
      "g"
    ],
    [
      "a",
      "in"
    ],
    [
      " ",
      "it"
    ],
    [
      "t",
      "s"
    ],
    [
      "ic",
      "al"
    ],
    [
      " e",
      "x"
    ],
    [
      "e",
      "st"
    ],
    [
      " ",
      "di"
    ],
    [
      " ",
      "E"
    ],
    [
      "he",
      "r"
    ],
    [
      " ",
      "an"
    ],
    [
      "an",
      "g"
    ],
    [
      "l",
      "d"
    ],
    [
      " f",
      "rom"
    ],
    [
      " h",
      "as"
    ],
    [
      "s",
      "e"
    ],
    [
      " o",
      "r"
    ],
    [
      "a",
      "b"
    ],
    [
      "ic",
      "h"
    ],
    [
      "a",
      "c"
    ],
    [
      "i",
      "al"
    ],
    [
      "g",
      "h"
    ],
    [
      " ",
      "on"
    ],
    [
      "u",
      "m"
    ],
    [
      "il",
      "l"
    ],
    [
      "a",
      "y"
    ],
    [
      "u",
      "p"
    ],
    [
      "d",
      "er"
    ],
    [
      " ",
      "N"
    ],
    [
      " a",
      "r"
    ],
    [
      " ",
      "D"
    ],
    [
      " wh",
      "ich"
    ],
    [
      " ",
      "H"
    ],
    [
      "u",
      "d"
    ],
    [
      " ",
      "un"
    ],
    [
      " ",
      "G"
    ],
    [
      " a",
      "re"
    ],
    [
      "i",
      "ve"
    ],
    [
      "it",
      "y"
    ],
    [
      " p",
      "ar"
    ],
    [
      "u",
      "b"
    ],
    [
      "c",
      "on"
    ],
    [
      " 2",
      "0"
    ],
    [
      "a",
      "k"
    ],
    [
      "t",
      "ed"
    ],
    [
      "r",
      "it"
    ],
    [
      "u",
      "re"
    ],
    [
      "ul",
      "t"
    ],
    [
      " in",
      "c"
    ],
    [
      " it",
      "s"
    ],
    [
      "o",
      "c"
    ],
    [
      "er",
      "e"
    ],
    [
      "l",
      "i"
    ],
    [
      " c",
      "om"
    ],
    [
      "ou",
      "n"
    ],
    [
      "o",
      "ver"
    ],
    [
      " a",
      "l"
    ],
    [
      "en",
      "d"
    ],
    [
      "er",
      "s"
    ],
    [
      "d",
      "u"
    ],
    [
      " w",
      "ere"
    ],
    [
      " ",
      "v"
    ],
    [
      "an",
      "s"
    ],
    [
      "i",
      "v"
    ],
    [
      "t",
      "her"
    ],
    [
      "at",
      "ed"
    ],
    [
      "ar",
      "y"
    ],
    [
      "e",
      "l"
    ],
    [
      "e",
      "ar"
    ],
    [
      "o",
      "s"
    ],
    [
      " c",
      "ent"
    ],
    [
      " d",
      "e"
    ],
    [
      "ar",
      "ge"
    ],
    [
      "c",
      "h"
    ],
    [
      "o",
      "d"
    ],
    [
      "is",
      "m"
    ],
    [
      " A",
      "s"
    ],
    [
      "ou",
      "s"
    ],
    [
      " w",
      "or"
    ],
    [
      "m",
      "p"
    ],
    [
      "ou",
      "gh"
    ],
    [
      " in",
      "t"
    ],
    [
      " p",
      "ro"
    ],
    [
      "ou",
      "r"
    ],
    [
      "p",
      "or"
    ],
    [
      " c",
      "o"
    ],
    [
      " c",
      "h"
    ],
    [
      "f",
      "ter"
    ],
    [
      " con",
      "t"
    ],
    [
      "ou",
      "th"
    ],
    [
      "over",
      "n"
    ],
    [
      "I",
      "n"
    ],
    [
      "an",
      "t"
    ],
    [
      "al",
      "ly"
    ],
    [
      "a",
      "ge"
    ],
    [
      " H",
      "in"
    ],
    [
      "ion",
      "s"
    ],
    [
      "am",
      "e"
    ],
    [
      "as",
      "s"
    ],
    [
      " a",
      "t"
    ],
    [
      " ",
      "W"
    ],
    [
      "r",
      "y"
    ],
    [
      " n",
      "or"
    ],
    [
      "i",
      "f"
    ],
    [
      "a",
      "g"
    ],
    [
      "ur",
      "ing"
    ],
    [
      " b",
      "ec"
    ],
    [
      "con",
      "om"
    ],
    [
      "l",
      "ow"
    ],
    [
      "o",
      "t"
    ],
    [
      " par",
      "t"
    ],
    [
      " ",
      "U"
    ],
    [
      "a",
      "v"
    ],
    [
      " m",
      "ar"
    ],
    [
      " int",
      "o"
    ],
    [
      " for",
      "m"
    ],
    [
      "is",
      "h"
    ],
    [
      " e",
      "conom"
    ],
    [
      "an",
      "ce"
    ],
    [
      " s",
      "p"
    ],
    [
      "res",
      "s"
    ],
    [
      "overn",
      "ment"
    ],
    [
      " re",
      "g"
    ],
    [
      "er",
      "n"
    ],
    [
      "an",
      "y"
    ],
    [
      "a",
      "j"
    ],
    [
      "ill",
      "ion"
    ],
    [
      "a",
      "p"
    ],
    [
      "c",
      "t"
    ],
    [
      " s",
      "e"
    ],
    [
      " C",
      "h"
    ],
    [
      " s",
      "ub"
    ],
    [
      " ",
      "J"
    ],
    [
      " ",
      "k"
    ],
    [
      " p",
      "l"
    ],
    [
      "st",
      "it"
    ],
    [
      " cent",
      "ur"
    ],
    [
      " l",
      "e"
    ],
    [
      " l",
      "arge"
    ],
    [
      " c",
      "l"
    ],
    [
      " a",
      "d"
    ],
    [
      " ",
      "R"
    ],
    [
      "i",
      "a"
    ],
    [
      " p",
      "op"
    ],
    [
      " ",
      "y"
    ],
    [
      "ang",
      "u"
    ],
    [
      "ut",
      "ion"
    ],
    [
      "er",
      "al"
    ],
    [
      " p",
      "er"
    ],
    [
      "m",
      "e"
    ],
    [
      "at",
      "es"
    ],
    [
      " 20",
      "1"
    ],
    [
      "en",
      "ce"
    ],
    [
      "c",
      "c"
    ],
    [
      "m",
      "er"
    ],
    [
      " l",
      "angu"
    ],
    [
      " re",
      "l"
    ],
    [
      "h",
      "i"
    ],
    [
      "o",
      "g"
    ],
    [
      "T",
      "he"
    ],
    [
      "o",
      "re"
    ],
    [
      "in",
      "ist"
    ],
    [
      " e",
      "l"
    ],
    [
      " g",
      "overnment"
    ],
    [
      "In",
      "di"
    ],
    [
      " pop",
      "ul"
    ],
    [
      " wor",
      "ld"
    ],
    [
      " d",
      "ec"
    ],
    [
      "i",
      "re"
    ],
    [
      " p",
      "ri"
    ],
    [
      "re",
      "as"
    ],
    [
      "q",
      "u"
    ],
    [
      " ",
      "K"
    ],
    [
      "l",
      "ud"
    ],
    [
      " In",
      "d"
    ],
    [
      " y",
      "ear"
    ],
    [
      " a",
      "g"
    ],
    [
      "a",
      "ve"
    ],
    [
      "re",
      "at"
    ],
    [
      " com",
      "p"
    ],
    [
      " f",
      "ir"
    ],
    [
      " fir",
      "st"
    ],
    [
      " s",
      "y"
    ],
    [
      "om",
      "e"
    ],
    [
      " g",
      "en"
    ],
    [
      " t",
      "ra"
    ],
    [
      "c",
      "es"
    ],
    [
      "Indi",
      "a"
    ],
    [
      " s",
      "h"
    ],
    [
      "v",
      "ed"
    ],
    [
      "re",
      "d"
    ],
    [
      " ",
      "V"
    ],
    [
      "f",
      "f"
    ],
    [
      " Hin",
      "du"
    ],
    [
      "d",
      "uc"
    ],
    [
      " ",
      "end"
    ],
    [
      "al",
      "l"
    ],
    [
      "di",
      "tion"
    ],
    [
      "p",
      "p"
    ],
    [
      "uc",
      "h"
    ],
    [
      " inc",
      "lud"
    ],
    [
      "ec",
      "tion"
    ],
    [
      "i",
      "an"
    ],
    [
      "ig",
      "h"
    ],
    [
      "us",
      "ed"
    ],
    [
      " ar",
      "t"
    ],
    [
      "ec",
      "t"
    ],
    [
      " bec",
      "ame"
    ],
    [
      "g",
      "an"
    ],
    [
      " o",
      "ver"
    ],
    [
      " re",
      "s"
    ],
    [
      "stit",
      "ution"
    ],
    [
      "ro",
      "w"
    ],
    [
      "id",
      "e"
    ],
    [
      "o",
      "k"
    ],
    [
      " sy",
      "st"
    ],
    [
      " syst",
      "em"
    ],
    [
      "w",
      "e"
    ],
    [
      "o",
      "th"
    ],
    [
      "in",
      "e"
    ],
    [
      " d",
      "uring"
    ],
    [
      "s",
      "o"
    ],
    [
      "b",
      "er"
    ],
    [
      "der",
      "n"
    ],
    [
      "est",
      "ern"
    ],
    [
      " ",
      "ri"
    ],
    [
      " h",
      "ad"
    ],
    [
      "mp",
      "ire"
    ],
    [
      " b",
      "ut"
    ],
    [
      "ation",
      "al"
    ],
    [
      "aj",
      "or"
    ],
    [
      " be",
      "en"
    ],
    [
      " n",
      "e"
    ],
    [
      "h",
      "ar"
    ],
    [
      " h",
      "ave"
    ],
    [
      "r",
      "ic"
    ],
    [
      " ",
      "5"
    ],
    [
      " s",
      "up"
    ],
    [
      "ther",
      "n"
    ],
    [
      "d",
      "h"
    ],
    [
      " con",
      "s"
    ],
    [
      " rel",
      "ig"
    ],
    [
      "r",
      "al"
    ],
    [
      " m",
      "e"
    ],
    [
      "ur",
      "al"
    ],
    [
      "ig",
      "n"
    ],
    [
      " in",
      "f"
    ],
    [
      " ",
      "F"
    ],
    [
      " al",
      "so"
    ],
    [
      " mo",
      "re"
    ],
    [
      "ong",
      "ress"
    ],
    [
      " S",
      "outh"
    ],
    [
      " mo",
      "st"
    ],
    [
      "oun",
      "d"
    ],
    [
      " l",
      "at"
    ],
    [
      " year",
      "s"
    ],
    [
      "or",
      "d"
    ],
    [
      "ag",
      "es"
    ],
    [
      " t",
      "w"
    ],
    [
      " p",
      "e"
    ],
    [
      " a",
      "fter"
    ],
    [
      " ",
      "3"
    ],
    [
      " m",
      "illion"
    ],
    [
      " inc",
      "reas"
    ],
    [
      " ",
      "7"
    ],
    [
      " cl",
      "ass"
    ],
    [
      " th",
      "at"
    ],
    [
      " centur",
      "y"
    ],
    [
      " s",
      "uch"
    ],
    [
      "ow",
      "er"
    ],
    [
      " n",
      "um"
    ],
    [
      " m",
      "inist"
    ],
    [
      "t",
      "in"
    ],
    [
      " l",
      "ong"
    ],
    [
      " reg",
      "ion"
    ],
    [
      " ",
      "4"
    ],
    [
      " ",
      "he"
    ],
    [
      " p",
      "ol"
    ],
    [
      "u",
      "res"
    ],
    [
      " tw",
      "o"
    ],
    [
      " r",
      "ul"
    ],
    [
      " mo",
      "dern"
    ],
    [
      "at",
      "ic"
    ],
    [
      " di",
      "s"
    ],
    [
      "m",
      "ong"
    ],
    [
      " tra",
      "dition"
    ],
    [
      " ",
      "im"
    ],
    [
      "en",
      "s"
    ],
    [
      " b",
      "oth"
    ],
    [
      "im",
      "al"
    ],
    [
      "p",
      "t"
    ],
    [
      " c",
      "a"
    ],
    [
      " 2",
      "00"
    ],
    [
      " C",
      "ongress"
    ],
    [
      " pri",
      "me"
    ],
    [
      " As",
      "ia"
    ],
    [
      "ist",
      "an"
    ],
    [
      " B",
      "C"
    ],
    [
      " BC",
      "E"
    ],
    [
      " c",
      "ast"
    ],
    [
      " s",
      "oc"
    ],
    [
      "t",
      "y"
    ],
    [
      " s",
      "c"
    ],
    [
      " 19",
      "5"
    ],
    [
      " 20",
      "2"
    ],
    [
      " m",
      "ajor"
    ],
    [
      "ver",
      "s"
    ],
    [
      "re",
      "n"
    ],
    [
      "et",
      "we"
    ],
    [
      "etwe",
      "en"
    ],
    [
      "ur",
      "b"
    ],
    [
      "urb",
      "an"
    ],
    [
      "l",
      "es"
    ],
    [
      " un",
      "der"
    ],
    [
      "u",
      "st"
    ],
    [
      " s",
      "er"
    ],
    [
      " of",
      "f"
    ],
    [
      "e",
      "p"
    ],
    [
      "l",
      "ic"
    ],
    [
      " c",
      "oun"
    ],
    [
      "in",
      "ce"
    ],
    [
      " ",
      "O"
    ],
    [
      " ",
      "L"
    ],
    [
      "is",
      "ation"
    ],
    [
      " langu",
      "age"
    ],
    [
      " cast",
      "e"
    ],
    [
      " B",
      "ud"
    ],
    [
      " Bud",
      "dh"
    ],
    [
      "o",
      "se"
    ],
    [
      " th",
      "is"
    ],
    [
      " c",
      "ult"
    ],
    [
      "he",
      "d"
    ],
    [
      " E",
      "mpire"
    ],
    [
      "i",
      "k"
    ],
    [
      " B",
      "rit"
    ],
    [
      " Brit",
      "ish"
    ],
    [
      "r",
      "ough"
    ],
    [
      "am",
      "ent"
    ],
    [
      " popul",
      "ation"
    ],
    [
      "uc",
      "le"
    ],
    [
      "ucle",
      "ar"
    ],
    [
      "ve",
      "l"
    ],
    [
      " ",
      "urban"
    ],
    [
      "t",
      "ing"
    ],
    [
      " n",
      "ot"
    ],
    [
      " g",
      "row"
    ],
    [
      " the",
      "ir"
    ],
    [
      " el",
      "ection"
    ],
    [
      " minist",
      "er"
    ],
    [
      " 19",
      "6"
    ],
    [
      "ial",
      "ly"
    ],
    [
      " s",
      "outh"
    ],
    [
      "en",
      "g"
    ],
    [
      "ou",
      "t"
    ],
    [
      " l",
      "and"
    ],
    [
      "ak",
      "istan"
    ],
    [
      " nor",
      "th"
    ],
    [
      "con",
      "tin"
    ],
    [
      "contin",
      "ent"
    ],
    [
      "n",
      "i"
    ],
    [
      " re",
      "c"
    ],
    [
      " e",
      "ar"
    ],
    [
      " be",
      "gan"
    ],
    [
      "ang",
      "es"
    ],
    [
      "el",
      "l"
    ],
    [
      "re",
      "e"
    ],
    [
      "ical",
      "ly"
    ],
    [
      " C",
      "on"
    ],
    [
      "ar",
      "i"
    ],
    [
      " m",
      "any"
    ],
    [
      "on",
      "d"
    ],
    [
      " b",
      "etween"
    ],
    [
      "ri",
      "b"
    ],
    [
      "l",
      "o"
    ],
    [
      "low",
      "ing"
    ],
    [
      " f",
      "ol"
    ],
    [
      " 19",
      "9"
    ],
    [
      " d",
      "ance"
    ],
    [
      " I",
      "t"
    ],
    [
      " P",
      "akistan"
    ],
    [
      " e",
      "ast"
    ],
    [
      " lat",
      "er"
    ],
    [
      "ad",
      "e"
    ],
    [
      "mer",
      "g"
    ],
    [
      " nor",
      "thern"
    ],
    [
      "e",
      "f"
    ],
    [
      "it",
      "e"
    ],
    [
      " econom",
      "ic"
    ],
    [
      " ex",
      "p"
    ],
    [
      " econom",
      "y"
    ],
    [
      "l",
      "u"
    ],
    [
      "it",
      "ion"
    ],
    [
      " re",
      "p"
    ],
    [
      " t",
      "im"
    ],
    [
      " t",
      "er"
    ],
    [
      "s",
      "h"
    ],
    [
      " a",
      "pp"
    ],
    [
      " ",
      "en"
    ],
    [
      "al",
      "s"
    ],
    [
      "di",
      "c"
    ],
    [
      " f",
      "ore"
    ],
    [
      " U",
      "n"
    ],
    [
      " ",
      "ra"
    ],
    [
      "it",
      "ed"
    ],
    [
      " ",
      "up"
    ],
    [
      " ",
      "j"
    ],
    [
      "ub",
      "lic"
    ],
    [
      " coun",
      "t"
    ],
    [
      " s",
      "ince"
    ],
    [
      "c",
      "y"
    ],
    [
      " A",
      "n"
    ],
    [
      " h",
      "um"
    ],
    [
      " sub",
      "continent"
    ],
    [
      "00",
      "0"
    ],
    [
      "om",
      "in"
    ],
    [
      " w",
      "estern"
    ],
    [
      "g",
      "in"
    ],
    [
      "a",
      "w"
    ],
    [
      "v",
      "i"
    ],
    [
      "ation",
      "s"
    ],
    [
      " the",
      "re"
    ],
    [
      "u",
      "gh"
    ],
    [
      "a",
      "ce"
    ],
    [
      " 1",
      "8"
    ],
    [
      "ol",
      "og"
    ],
    [
      " n",
      "on"
    ],
    [
      " inf",
      "lu"
    ],
    [
      " increas",
      "ed"
    ],
    [
      " l",
      "it"
    ],
    [
      " r",
      "ate"
    ],
    [
      "il",
      "it"
    ],
    [
      "m",
      "on"
    ],
    [
      " sp",
      "ec"
    ],
    [
      " ex",
      "t"
    ],
    [
      " pe",
      "op"
    ],
    [
      " s",
      "ec"
    ],
    [
      " a",
      "b"
    ],
    [
      "or",
      "y"
    ],
    [
      " C",
      "E"
    ],
    [
      " class",
      "ical"
    ],
    [
      "ul",
      "ar"
    ],
    [
      "vel",
      "op"
    ],
    [
      "ar",
      "d"
    ],
    [
      "k",
      "et"
    ],
    [
      "er",
      "ed"
    ],
    [
      "ic",
      "e"
    ],
    [
      "por",
      "t"
    ],
    [
      " 201",
      "1"
    ],
    [
      "v",
      "ent"
    ],
    [
      " 19",
      "4"
    ],
    [
      "s",
      "l"
    ],
    [
      " T",
      "h"
    ],
    [
      " th",
      "an"
    ],
    [
      " o",
      "cc"
    ],
    [
      " l",
      "if"
    ],
    [
      " lif",
      "e"
    ],
    [
      " e",
      "merg"
    ],
    [
      "is",
      "e"
    ],
    [
      "t",
      "a"
    ],
    [
      "is",
      "ed"
    ],
    [
      "ain",
      "s"
    ],
    [
      " M",
      "ugh"
    ],
    [
      " C",
      "om"
    ],
    [
      "ec",
      "h"
    ],
    [
      "c",
      "ed"
    ],
    [
      " par",
      "li"
    ],
    [
      " parli",
      "ament"
    ],
    [
      " lit",
      "er"
    ],
    [
      " m",
      "id"
    ],
    [
      " n",
      "uclear"
    ],
    [
      " st",
      "ate"
    ],
    [
      "h",
      "m"
    ],
    [
      "vers",
      "ity"
    ],
    [
      "ec",
      "ted"
    ],
    [
      "ate",
      "ly"
    ],
    [
      " h",
      "ist"
    ],
    [
      "c",
      "i"
    ],
    [
      " peop",
      "le"
    ],
    [
      "e",
      "ver"
    ],
    [
      "ow",
      "n"
    ],
    [
      " per",
      "i"
    ],
    [
      " peri",
      "od"
    ],
    [
      " ne",
      "w"
    ],
    [
      "p",
      "h"
    ],
    [
      " p",
      "ower"
    ],
    [
      "r",
      "ol"
    ],
    [
      "ab",
      "le"
    ],
    [
      "am",
      "il"
    ],
    [
      " ",
      "6"
    ],
    [
      " de",
      "velop"
    ],
    [
      " A",
      "l"
    ],
    [
      " w",
      "ar"
    ],
    [
      "es",
      "p"
    ],
    [
      " m",
      "at"
    ],
    [
      " num",
      "ber"
    ],
    [
      " c",
      "our"
    ],
    [
      " spec",
      "ies"
    ],
    [
      " a",
      "mong"
    ],
    [
      " gen",
      "eral"
    ],
    [
      " large",
      "st"
    ],
    [
      " m",
      "us"
    ],
    [
      " count",
      "ry"
    ],
    [
      " B",
      "eng"
    ],
    [
      " Beng",
      "al"
    ],
    [
      " Ch",
      "in"
    ],
    [
      " b",
      "as"
    ],
    [
      "ill",
      "en"
    ],
    [
      "illen",
      "ni"
    ],
    [
      "illenni",
      "um"
    ],
    [
      " S",
      "ans"
    ],
    [
      " Sans",
      "k"
    ],
    [
      " Sansk",
      "rit"
    ],
    [
      " Ind",
      "o"
    ],
    [
      "ur",
      "op"
    ],
    [
      "urop",
      "e"
    ],
    [
      " langu",
      "ages"
    ],
    [
      " soc",
      "ial"
    ],
    [
      " M",
      "a"
    ],
    [
      "y",
      "a"
    ],
    [
      " e",
      "st"
    ],
    [
      "l",
      "im"
    ],
    [
      "ult",
      "an"
    ],
    [
      " P",
      "un"
    ],
    [
      " Pun",
      "j"
    ],
    [
      " Punj",
      "ab"
    ],
    [
      " Mugh",
      "al"
    ],
    [
      "at",
      "ive"
    ],
    [
      " rul",
      "e"
    ],
    [
      " E",
      "ast"
    ],
    [
      "ve",
      "ment"
    ],
    [
      " 195",
      "0"
    ],
    [
      " th",
      "rough"
    ],
    [
      " U",
      "S"
    ],
    [
      "or",
      "m"
    ],
    [
      " th",
      "ough"
    ],
    [
      " m",
      "ilit"
    ],
    [
      "f",
      "e"
    ],
    [
      "p",
      "er"
    ],
    [
      " re",
      "f"
    ],
    [
      "ci",
      "ent"
    ],
    [
      "r",
      "on"
    ],
    [
      "o",
      "od"
    ],
    [
      "it",
      "ies"
    ],
    [
      "he",
      "n"
    ],
    [
      "t",
      "en"
    ],
    [
      " includ",
      "ing"
    ],
    [
      " s",
      "et"
    ],
    [
      "p",
      "le"
    ],
    [
      " the",
      "m"
    ],
    [
      " ca",
      "used"
    ],
    [
      " P",
      "l"
    ],
    [
      " le",
      "ad"
    ],
    [
      "g",
      "en"
    ],
    [
      "ter",
      "n"
    ],
    [
      " con",
      "stitution"
    ],
    [
      "or",
      "t"
    ],
    [
      "he",
      "m"
    ],
    [
      " mus",
      "ic"
    ],
    [
      "l",
      "arge"
    ],
    [
      "large",
      "st"
    ],
    [
      "he",
      "ast"
    ],
    [
      " Chin",
      "a"
    ],
    [
      " Ind",
      "us"
    ],
    [
      " ri",
      "ver"
    ],
    [
      " ",
      "9"
    ],
    [
      " g",
      "ra"
    ],
    [
      "iv",
      "il"
    ],
    [
      "ir",
      "d"
    ],
    [
      " m",
      "illennium"
    ],
    [
      " B",
      "y"
    ],
    [
      " 1",
      "2"
    ],
    [
      " p",
      "re"
    ],
    [
      "e",
      "x"
    ],
    [
      " ex",
      "por"
    ],
    [
      " relig",
      "i"
    ],
    [
      "us",
      "lim"
    ],
    [
      " C",
      "ent"
    ],
    [
      "re",
      "w"
    ],
    [
      "k",
      "s"
    ],
    [
      " S",
      "ik"
    ],
    [
      " centur",
      "ies"
    ],
    [
      " Com",
      "p"
    ],
    [
      " g",
      "r"
    ],
    [
      "duc",
      "ed"
    ],
    [
      " o",
      "ther"
    ],
    [
      "i",
      "ed"
    ],
    [
      " b",
      "illion"
    ],
    [
      " milit",
      "ary"
    ],
    [
      "il",
      "d"
    ],
    [
      "ord",
      "ing"
    ],
    [
      "i",
      "ans"
    ],
    [
      "ow",
      "ever"
    ],
    [
      " f",
      "e"
    ],
    [
      " st",
      "y"
    ],
    [
      "he",
      "s"
    ],
    [
      " e",
      "mp"
    ],
    [
      "ment",
      "s"
    ],
    [
      "a",
      "red"
    ],
    [
      " m",
      "ain"
    ],
    [
      " s",
      "ome"
    ],
    [
      "ou",
      "ld"
    ],
    [
      "ro",
      "c"
    ],
    [
      " fore",
      "st"
    ],
    [
      " f",
      "ar"
    ],
    [
      "a",
      "i"
    ],
    [
      " t",
      "r"
    ],
    [
      " al",
      "l"
    ],
    [
      " l",
      "ed"
    ],
    [
      " s",
      "ign"
    ],
    [
      "id",
      "ent"
    ],
    [
      " wh",
      "o"
    ],
    [
      " N",
      "e"
    ],
    [
      " c",
      "r"
    ],
    [
      "es",
      "s"
    ],
    [
      " A",
      "fter"
    ],
    [
      " di",
      "re"
    ],
    [
      " W",
      "or"
    ],
    [
      " Wor",
      "ld"
    ],
    [
      " ser",
      "ved"
    ],
    [
      " r",
      "ural"
    ],
    [
      "re",
      "ad"
    ],
    [
      " H",
      "imal"
    ],
    [
      " Himal",
      "ay"
    ],
    [
      " on",
      "e"
    ],
    [
      " 19",
      "8"
    ],
    [
      "at",
      "i"
    ],
    [
      " mat",
      "hem"
    ],
    [
      " 194",
      "7"
    ],
    [
      " I",
      "sl"
    ],
    [
      "and",
      "s"
    ],
    [
      " n",
      "o"
    ],
    [
      " m",
      "ade"
    ],
    [
      " h",
      "igh"
    ],
    [
      "l",
      "ed"
    ],
    [
      " emerg",
      "ed"
    ],
    [
      " th",
      "ird"
    ],
    [
      " Hindu",
      "ism"
    ],
    [
      "p",
      "l"
    ],
    [
      "k",
      "ed"
    ],
    [
      " pol",
      "it"
    ],
    [
      " polit",
      "ical"
    ],
    [
      " w",
      "om"
    ],
    [
      " wom",
      "en"
    ],
    [
      "d",
      "le"
    ],
    [
      " religi",
      "ous"
    ],
    [
      " co",
      "ast"
    ],
    [
      " M",
      "uslim"
    ],
    [
      " Cent",
      "ral"
    ],
    [
      "m",
      "it"
    ],
    [
      " D",
      "el"
    ],
    [
      " Del",
      "hi"
    ],
    [
      "ultan",
      "ate"
    ],
    [
      " cult",
      "ure"
    ],
    [
      " Sik",
      "h"
    ],
    [
      " ",
      "us"
    ],
    [
      "ac",
      "y"
    ],
    [
      " Comp",
      "any"
    ],
    [
      " c",
      "ol"
    ],
    [
      " Indian",
      "s"
    ],
    [
      " t",
      "ech"
    ],
    [
      "2",
      "0"
    ],
    [
      " a",
      "cc"
    ],
    [
      "ist",
      "ic"
    ],
    [
      " tim",
      "e"
    ],
    [
      "p",
      "ut"
    ],
    [
      "o",
      "di"
    ],
    [
      "at",
      "s"
    ],
    [
      " E",
      "n"
    ],
    [
      "g",
      "l"
    ],
    [
      "iv",
      "es"
    ],
    [
      " ",
      "used"
    ],
    [
      "du",
      "st"
    ],
    [
      " w",
      "ide"
    ],
    [
      "d",
      "ay"
    ],
    [
      " co",
      "al"
    ],
    [
      "at",
      "a"
    ],
    [
      " hum",
      "an"
    ],
    [
      "h",
      "r"
    ],
    [
      "an",
      "ts"
    ],
    [
      " w",
      "e"
    ],
    [
      " f",
      "ound"
    ],
    [
      " as",
      "s"
    ],
    [
      " ag",
      "ric"
    ],
    [
      " agric",
      "ult"
    ],
    [
      " o",
      "ut"
    ],
    [
      "an",
      "ge"
    ],
    [
      "ar",
      "n"
    ],
    [
      " cent",
      "ral"
    ],
    [
      "ac",
      "k"
    ],
    [
      " cont",
      "rol"
    ],
    [
      "c",
      "ri"
    ],
    [
      " g",
      "reat"
    ],
    [
      "in",
      "s"
    ],
    [
      " tr",
      "ans"
    ],
    [
      "ver",
      "y"
    ],
    [
      "ar",
      "s"
    ],
    [
      "om",
      "et"
    ],
    [
      " S",
      "h"
    ],
    [
      "or",
      "s"
    ],
    [
      " l",
      "oc"
    ],
    [
      "t",
      "il"
    ],
    [
      "o",
      "st"
    ],
    [
      "an",
      "u"
    ],
    [
      " s",
      "ur"
    ],
    [
      " fol",
      "lowing"
    ],
    [
      " G",
      "and"
    ],
    [
      " Gand",
      "hi"
    ],
    [
      "i",
      "b"
    ],
    [
      " Pl",
      "ate"
    ],
    [
      " includ",
      "e"
    ],
    [
      "rib",
      "ut"
    ],
    [
      " influ",
      "en"
    ],
    [
      " S",
      "t"
    ],
    [
      " are",
      "as"
    ],
    [
      " grow",
      "th"
    ],
    [
      "an",
      "ces"
    ],
    [
      " co",
      "ok"
    ],
    [
      "ens",
      "us"
    ],
    [
      "em",
      "oc"
    ],
    [
      "w",
      "est"
    ],
    [
      "ad",
      "es"
    ],
    [
      " I",
      "ts"
    ],
    [
      "a",
      "re"
    ],
    [
      " ag",
      "o"
    ],
    [
      " occ",
      "up"
    ],
    [
      "ver",
      "se"
    ],
    [
      "v",
      "ol"
    ],
    [
      "v",
      "ing"
    ],
    [
      "al",
      "le"
    ],
    [
      " ar",
      "ch"
    ],
    [
      "urope",
      "an"
    ],
    [
      " di",
      "ff"
    ],
    [
      " ear",
      "ly"
    ],
    [
      " reg",
      "ions"
    ],
    [
      " J",
      "ain"
    ],
    [
      "om",
      "s"
    ],
    [
      "ab",
      "l"
    ],
    [
      " ar",
      "m"
    ],
    [
      "w",
      "or"
    ],
    [
      " c",
      "re"
    ],
    [
      " le",
      "g"
    ],
    [
      " ri",
      "gh"
    ],
    [
      "n",
      "olog"
    ],
    [
      " mo",
      "vement"
    ],
    [
      " f",
      "ed"
    ],
    [
      " parliament",
      "ary"
    ],
    [
      " g",
      "rew"
    ],
    [
      " c",
      "ap"
    ],
    [
      "u",
      "ally"
    ],
    [
      " liter",
      "acy"
    ],
    [
      " b",
      "i"
    ],
    [
      " En",
      "gl"
    ],
    [
      " Engl",
      "ish"
    ],
    [
      " hist",
      "or"
    ],
    [
      " pro",
      "v"
    ],
    [
      " Con",
      "stitution"
    ],
    [
      " o",
      "ri"
    ],
    [
      " ori",
      "gin"
    ],
    [
      "1",
      "9"
    ],
    [
      " ",
      "ent"
    ],
    [
      " sec",
      "ond"
    ],
    [
      " di",
      "versity"
    ],
    [
      " an",
      "imal"
    ],
    [
      " fe",
      "at"
    ],
    [
      " f",
      "ig"
    ],
    [
      " 1",
      "5"
    ],
    [
      " G",
      "anges"
    ],
    [
      "o",
      "in"
    ],
    [
      "f",
      "ore"
    ],
    [
      "ac",
      "h"
    ],
    [
      " relig",
      "ions"
    ],
    [
      " b",
      "ir"
    ],
    [
      "ra",
      "ph"
    ],
    [
      " 2",
      "6"
    ],
    [
      "n",
      "e"
    ],
    [
      " de",
      "v"
    ],
    [
      " the",
      "y"
    ],
    [
      "i",
      "z"
    ],
    [
      "if",
      "ic"
    ],
    [
      "in",
      "es"
    ],
    [
      "it",
      "es"
    ],
    [
      "ist",
      "s"
    ],
    [
      " gen",
      "er"
    ],
    [
      " loc",
      "al"
    ],
    [
      " ",
      "esp"
    ],
    [
      " esp",
      "ec"
    ],
    [
      " espec",
      "ially"
    ],
    [
      "v",
      "en"
    ],
    [
      " 1",
      "7"
    ],
    [
      " p",
      "ain"
    ],
    [
      " pain",
      "ting"
    ],
    [
      " dire",
      "ct"
    ],
    [
      "st",
      "r"
    ],
    [
      " in",
      "dust"
    ],
    [
      " st",
      "ates"
    ],
    [
      " ter",
      "rit"
    ],
    [
      "a",
      "u"
    ],
    [
      " an",
      "cient"
    ],
    [
      "c",
      "tion"
    ],
    [
      " re",
      "m"
    ],
    [
      " rem",
      "ain"
    ],
    [
      " d",
      "ra"
    ],
    [
      "un",
      "d"
    ],
    [
      "on",
      "s"
    ],
    [
      " major",
      "ity"
    ],
    [
      " ",
      "her"
    ],
    [
      " 19",
      "7"
    ],
    [
      "J",
      "P"
    ],
    [
      " Ne",
      "hr"
    ],
    [
      " Nehr",
      "u"
    ],
    [
      " part",
      "y"
    ],
    [
      " l",
      "ast"
    ],
    [
      " Un",
      "ited"
    ],
    [
      " cont",
      "ribut"
    ],
    [
      " r",
      "ates"
    ],
    [
      " c",
      "ensus"
    ],
    [
      "ic",
      "ial"
    ],
    [
      " Hin",
      "di"
    ],
    [
      " mar",
      "ri"
    ],
    [
      " sc",
      "ul"
    ],
    [
      " scul",
      "pt"
    ],
    [
      " in",
      "d"
    ],
    [
      "out",
      "heast"
    ],
    [
      "y",
      "an"
    ],
    [
      "m",
      "ar"
    ],
    [
      "an",
      "k"
    ],
    [
      " An",
      "d"
    ],
    [
      " And",
      "am"
    ],
    [
      " Andam",
      "an"
    ],
    [
      "alle",
      "y"
    ],
    [
      "n",
      "ing"
    ],
    [
      " Buddh",
      "ism"
    ],
    [
      " D",
      "uring"
    ],
    [
      " st",
      "at"
    ],
    [
      " dec",
      "l"
    ],
    [
      "in",
      "ed"
    ],
    [
      " k",
      "ing"
    ],
    [
      "is",
      "hed"
    ],
    [
      " s",
      "ou"
    ],
    [
      " sou",
      "thern"
    ],
    [
      " in",
      "ter"
    ],
    [
      " cre",
      "ated"
    ],
    [
      " comp",
      "os"
    ],
    [
      "f",
      "t"
    ],
    [
      "ur",
      "n"
    ],
    [
      " p",
      "rom"
    ],
    [
      " tech",
      "nolog"
    ],
    [
      " ",
      "ed"
    ],
    [
      " ed",
      "uc"
    ],
    [
      " educ",
      "ation"
    ],
    [
      " n",
      "ational"
    ],
    [
      "ac",
      "t"
    ],
    [
      "r",
      "ation"
    ],
    [
      " fed",
      "eral"
    ],
    [
      " rep",
      "ublic"
    ],
    [
      " bec",
      "ome"
    ],
    [
      " a",
      "ir"
    ],
    [
      "cc",
      "ording"
    ],
    [
      "ur",
      "ther"
    ],
    [
      " P",
      "ers"
    ],
    [
      " east",
      "ern"
    ],
    [
      " w",
      "ell"
    ],
    [
      " popul",
      "ar"
    ],
    [
      " wide",
      "ly"
    ],
    [
      " ear",
      "li"
    ],
    [
      " ",
      "8"
    ],
    [
      " form",
      "s"
    ],
    [
      "et",
      "ic"
    ],
    [
      "p",
      "ro"
    ],
    [
      "p",
      "ed"
    ],
    [
      " The",
      "se"
    ],
    [
      " c",
      "ities"
    ],
    [
      " M",
      "o"
    ],
    [
      " sty",
      "les"
    ],
    [
      "w",
      "n"
    ],
    [
      "at",
      "ing"
    ],
    [
      "igh",
      "t"
    ],
    [
      "ic",
      "s"
    ],
    [
      "all",
      "ed"
    ],
    [
      " bas",
      "ed"
    ],
    [
      "i",
      "x"
    ],
    [
      "se",
      "qu"
    ],
    [
      "sequ",
      "ent"
    ],
    [
      "am",
      "m"
    ],
    [
      " ",
      "roc"
    ],
    [
      " ad",
      "m"
    ],
    [
      " adm",
      "inist"
    ],
    [
      "er",
      "t"
    ],
    [
      " T",
      "amil"
    ],
    [
      " p",
      "en"
    ],
    [
      " pen",
      "ins"
    ],
    [
      "ive",
      "ly"
    ],
    [
      " region",
      "al"
    ],
    [
      " wh",
      "ose"
    ],
    [
      " s",
      "m"
    ],
    [
      "ific",
      "ant"
    ],
    [
      " s",
      "ultanate"
    ],
    [
      "th",
      "ough"
    ],
    [
      "ra",
      "ct"
    ],
    [
      " mar",
      "ket"
    ],
    [
      "ou",
      "p"
    ],
    [
      "ar",
      "at"
    ],
    [
      " com",
      "mer"
    ],
    [
      " p",
      "res"
    ],
    [
      " long",
      "er"
    ],
    [
      " se",
      "ver"
    ],
    [
      "le",
      "g"
    ],
    [
      " N",
      "ational"
    ],
    [
      " The",
      "re"
    ],
    [
      "c",
      "ent"
    ],
    [
      "er",
      "ation"
    ],
    [
      " w",
      "on"
    ],
    [
      "or",
      "ies"
    ],
    [
      " election",
      "s"
    ],
    [
      "w",
      "an"
    ],
    [
      " cont",
      "in"
    ],
    [
      " l",
      "ower"
    ],
    [
      " Himalay",
      "as"
    ],
    [
      " W",
      "estern"
    ],
    [
      " l",
      "ow"
    ],
    [
      " un",
      "ion"
    ],
    [
      " of",
      "ten"
    ],
    [
      " end",
      "em"
    ],
    [
      "b",
      "al"
    ],
    [
      " c",
      "ar"
    ],
    [
      " A",
      "ct"
    ],
    [
      " B",
      "JP"
    ],
    [
      "od",
      "y"
    ],
    [
      " 199",
      "1"
    ],
    [
      " ex",
      "ec"
    ],
    [
      " exec",
      "ut"
    ],
    [
      "iv",
      "ed"
    ],
    [
      "D",
      "P"
    ],
    [
      "d",
      "e"
    ],
    [
      " 200",
      "1"
    ],
    [
      " com",
      "mon"
    ],
    [
      " mathem",
      "atic"
    ],
    [
      " ind",
      "ep"
    ],
    [
      " indep",
      "end"
    ],
    [
      " A",
      "ra"
    ],
    [
      " S",
      "e"
    ],
    [
      "der",
      "s"
    ],
    [
      " w",
      "est"
    ],
    [
      "di",
      "v"
    ],
    [
      "b",
      "ar"
    ],
    [
      " A",
      "f"
    ],
    [
      "at",
      "her"
    ],
    [
      " rec",
      "ord"
    ],
    [
      "di",
      "an"
    ],
    [
      " Jain",
      "ism"
    ],
    [
      "re",
      "di"
    ],
    [
      " r",
      "ise"
    ],
    [
      " f",
      "l"
    ],
    [
      "il",
      "ity"
    ],
    [
      "li",
      "ef"
    ],
    [
      " king",
      "d"
    ],
    [
      " kingd",
      "oms"
    ],
    [
      " S",
      "outheast"
    ],
    [
      " Isl",
      "am"
    ],
    [
      " est",
      "abl"
    ],
    [
      " le",
      "ft"
    ],
    [
      " ch",
      "anges"
    ],
    [
      "m",
      "ary"
    ],
    [
      " d",
      "omin"
    ],
    [
      "s",
      "c"
    ],
    [
      "al",
      "e"
    ],
    [
      "os",
      "s"
    ],
    [
      "u",
      "al"
    ],
    [
      " soc",
      "i"
    ],
    [
      "et",
      "y"
    ],
    [
      " an",
      "n"
    ],
    [
      " f",
      "ast"
    ],
    [
      " technolog",
      "y"
    ],
    [
      " mid",
      "dle"
    ],
    [
      " increas",
      "ing"
    ],
    [
      "al",
      "ity"
    ],
    [
      " K",
      "as"
    ],
    [
      " Kas",
      "hm"
    ],
    [
      " A",
      "mong"
    ],
    [
      "is",
      "ing"
    ],
    [
      "a",
      "di"
    ],
    [
      " f",
      "our"
    ],
    [
      "i",
      "e"
    ],
    [
      " pro",
      "t"
    ],
    [
      " Pers",
      "ian"
    ],
    [
      " ter",
      "m"
    ],
    [
      " B",
      "har"
    ],
    [
      " v",
      "ari"
    ],
    [
      " c",
      "ur"
    ],
    [
      " though",
      "t"
    ],
    [
      " earli",
      "est"
    ],
    [
      " 5",
      "0"
    ],
    [
      "n",
      "own"
    ],
    [
      " ",
      "z"
    ],
    [
      "t",
      "le"
    ],
    [
      " ar",
      "ound"
    ],
    [
      " ch",
      "ar"
    ],
    [
      " st",
      "e"
    ],
    [
      " fig",
      "ures"
    ],
    [
      " v",
      "ill"
    ],
    [
      " o",
      "ld"
    ],
    [
      "e",
      "ak"
    ],
    [
      "c",
      "ro"
    ],
    [
      "s",
      "s"
    ],
    [
      " pl",
      "ain"
    ],
    [
      " tim",
      "es"
    ],
    [
      " emp",
      "lo"
    ],
    [
      " emplo",
      "y"
    ],
    [
      " h",
      "owever"
    ],
    [
      " diff",
      "er"
    ],
    [
      " e",
      "th"
    ],
    [
      "ic",
      "es"
    ],
    [
      " con",
      "duc"
    ],
    [
      " B",
      "ra"
    ],
    [
      " Bra",
      "hm"
    ],
    [
      " bir",
      "th"
    ],
    [
      "ro",
      "p"
    ],
    [
      "og",
      "raph"
    ],
    [
      " e",
      "mpire"
    ],
    [
      "p",
      "tion"
    ],
    [
      " t",
      "ex"
    ],
    [
      " sub",
      "sequent"
    ],
    [
      " pol",
      "ic"
    ],
    [
      "is",
      "s"
    ],
    [
      " roc",
      "k"
    ],
    [
      "m",
      "b"
    ],
    [
      " comp",
      "le"
    ],
    [
      " t",
      "a"
    ],
    [
      "at",
      "ure"
    ],
    [
      " al",
      "ong"
    ],
    [
      " res",
      "p"
    ],
    [
      "d",
      "ed"
    ],
    [
      " de",
      "f"
    ],
    [
      " m",
      "ak"
    ],
    [
      " t",
      "em"
    ],
    [
      " sign",
      "ificant"
    ],
    [
      "b",
      "ers"
    ],
    [
      " e",
      "very"
    ],
    [
      "ay",
      "s"
    ],
    [
      " s",
      "ch"
    ],
    [
      " Buddh",
      "ist"
    ],
    [
      " 1",
      "0"
    ],
    [
      " v",
      "ast"
    ],
    [
      " lead",
      "ing"
    ],
    [
      " m",
      "en"
    ],
    [
      " st",
      "r"
    ],
    [
      " penins",
      "ular"
    ],
    [
      "ard",
      "s"
    ],
    [
      "am",
      "p"
    ],
    [
      " gr",
      "oup"
    ],
    [
      " R",
      "aj"
    ],
    [
      "c",
      "ial"
    ],
    [
      "ces",
      "s"
    ],
    [
      " a",
      "ff"
    ],
    [
      " b",
      "l"
    ],
    [
      " f",
      "urther"
    ],
    [
      " cons",
      "id"
    ],
    [
      " s",
      "a"
    ],
    [
      "tern",
      "al"
    ],
    [
      "wor",
      "k"
    ],
    [
      "id",
      "ed"
    ],
    [
      " indust",
      "ry"
    ],
    [
      " leg",
      "is"
    ],
    [
      " legis",
      "l"
    ],
    [
      " 19",
      "3"
    ],
    [
      " sp",
      "read"
    ],
    [
      " o",
      "b"
    ],
    [
      " Th",
      "is"
    ],
    [
      " contin",
      "u"
    ],
    [
      " ca",
      "us"
    ],
    [
      " n",
      "ow"
    ],
    [
      " sur",
      "v"
    ],
    [
      "c",
      "an"
    ],
    [
      " di",
      "st"
    ],
    [
      " A",
      "ccording"
    ],
    [
      " influen",
      "ced"
    ],
    [
      " w",
      "in"
    ],
    [
      " end",
      "ang"
    ],
    [
      " endang",
      "ered"
    ],
    [
      "a",
      "h"
    ],
    [
      " f",
      "ive"
    ],
    [
      " he",
      "ld"
    ],
    [
      " un",
      "til"
    ],
    [
      " J",
      "anu"
    ],
    [
      " Janu",
      "ary"
    ],
    [
      " 196",
      "5"
    ],
    [
      " c",
      "ivil"
    ],
    [
      " coal",
      "ition"
    ],
    [
      " m",
      "em"
    ],
    [
      " s",
      "ing"
    ],
    [
      " form",
      "ed"
    ],
    [
      "d",
      "ra"
    ],
    [
      " St",
      "ates"
    ],
    [
      " execut",
      "ive"
    ],
    [
      "ou",
      "se"
    ],
    [
      " th",
      "ree"
    ],
    [
      " cour",
      "t"
    ],
    [
      " cour",
      "ts"
    ],
    [
      "m",
      "in"
    ],
    [
      " G",
      "DP"
    ],
    [
      " g",
      "lo"
    ],
    [
      " est",
      "im"
    ],
    [
      "al",
      "es"
    ],
    [
      " im",
      "port"
    ],
    [
      " f",
      "amil"
    ],
    [
      " famil",
      "ies"
    ],
    [
      " off",
      "icial"
    ],
    [
      " develop",
      "ed"
    ],
    [
      "o",
      "ol"
    ],
    [
      " tradition",
      "al"
    ],
    [
      " sculpt",
      "ure"
    ],
    [
      " tradition",
      "s"
    ],
    [
      " d",
      "ances"
    ],
    [
      " wor",
      "n"
    ],
    [
      " g",
      "ar"
    ],
    [
      " d",
      "emoc"
    ],
    [
      "b",
      "ian"
    ],
    [
      " Se",
      "a"
    ],
    [
      " b",
      "or"
    ],
    [
      " B",
      "h"
    ],
    [
      " n",
      "ear"
    ],
    [
      "ic",
      "o"
    ],
    [
      "a",
      "il"
    ],
    [
      "on",
      "es"
    ],
    [
      " Af",
      "ric"
    ],
    [
      " Afric",
      "a"
    ],
    [
      " 5",
      "5"
    ],
    [
      " The",
      "ir"
    ],
    [
      " di",
      "verse"
    ],
    [
      "et",
      "t"
    ],
    [
      " gra",
      "du"
    ],
    [
      " V",
      "alley"
    ],
    [
      " C",
      "ivil"
    ],
    [
      " 12",
      "00"
    ],
    [
      " record",
      "ed"
    ],
    [
      " D",
      "ra"
    ],
    [
      " Dra",
      "vi"
    ],
    [
      " Dravi",
      "dian"
    ],
    [
      "an",
      "ted"
    ],
    [
      " with",
      "in"
    ],
    [
      " cons",
      "ol"
    ],
    [
      " consol",
      "id"
    ],
    [
      " l",
      "o"
    ],
    [
      " Ma",
      "ur"
    ],
    [
      " G",
      "up"
    ],
    [
      " ",
      "er"
    ],
    [
      " er",
      "a"
    ],
    [
      " c",
      "reat"
    ],
    [
      " arch",
      "it"
    ],
    [
      " archit",
      "ect"
    ],
    [
      " w",
      "rit"
    ],
    [
      "t",
      "ou"
    ],
    [
      "tou",
      "ch"
    ],
    [
      "touch",
      "ab"
    ],
    [
      " sc",
      "ri"
    ],
    [
      "ast",
      "ri"
    ],
    [
      " establ",
      "ished"
    ],
    [
      "mit",
      "t"
    ],
    [
      "r",
      "an"
    ],
    [
      " res",
      "ult"
    ],
    [
      " result",
      "ing"
    ],
    [
      "v",
      "al"
    ],
    [
      "ar",
      "a"
    ],
    [
      "urn",
      "ed"
    ],
    [
      " righ",
      "ts"
    ],
    [
      " int",
      "ro"
    ],
    [
      " p",
      "ublic"
    ],
    [
      " to",
      "ok"
    ],
    [
      " influ",
      "ence"
    ],
    [
      "vi",
      "ol"
    ],
    [
      " part",
      "ition"
    ],
    [
      "r",
      "atic"
    ],
    [
      " m",
      "ult"
    ],
    [
      " 195",
      "1"
    ],
    [
      " cap",
      "it"
    ],
    [
      " 1",
      "6"
    ],
    [
      " re",
      "duced"
    ],
    [
      "e",
      "qu"
    ],
    [
      "t",
      "ure"
    ],
    [
      " dis",
      "put"
    ],
    [
      " Kashm",
      "ir"
    ],
    [
      " pol",
      "l"
    ],
    [
      "o",
      "ts"
    ],
    [
      " w",
      "ild"
    ],
    [
      "li",
      "fe"
    ],
    [
      " tradition",
      "ally"
    ],
    [
      "por",
      "ted"
    ],
    [
      " d",
      "er"
    ],
    [
      " G",
      "ree"
    ],
    [
      " ext",
      "ens"
    ],
    [
      " Bhar",
      "at"
    ],
    [
      "li",
      "ed"
    ],
    [
      "ain",
      "ed"
    ],
    [
      " cur",
      "ren"
    ],
    [
      " 1",
      "3"
    ],
    [
      "ri",
      "al"
    ],
    [
      " ",
      "Y"
    ],
    [
      " ext",
      "ant"
    ],
    [
      " H",
      "owever"
    ],
    [
      " k",
      "nown"
    ],
    [
      " ab",
      "out"
    ],
    [
      " feat",
      "ures"
    ],
    [
      "di",
      "s"
    ],
    [
      " old",
      "est"
    ],
    [
      "oc",
      "i"
    ],
    [
      " compos",
      "ed"
    ],
    [
      " t",
      "rib"
    ],
    [
      "cro",
      "ss"
    ],
    [
      " pl",
      "ace"
    ],
    [
      " w",
      "hen"
    ],
    [
      " agricult",
      "ure"
    ],
    [
      " in",
      "vol"
    ],
    [
      "av",
      "ing"
    ],
    [
      " f",
      "am"
    ],
    [
      "at",
      "ical"
    ],
    [
      " Ma",
      "h"
    ],
    [
      " c",
      "alled"
    ],
    [
      "if",
      "ied"
    ],
    [
      " differ",
      "ent"
    ],
    [
      "ure",
      "d"
    ],
    [
      " conduc",
      "ted"
    ],
    [
      "iv",
      "ing"
    ],
    [
      " l",
      "ay"
    ],
    [
      " hist",
      "ory"
    ],
    [
      " g",
      "e"
    ],
    [
      "in",
      "ing"
    ],
    [
      " h",
      "is"
    ],
    [
      "m",
      "iss"
    ],
    [
      "el",
      "f"
    ],
    [
      " ta",
      "x"
    ],
    [
      " great",
      "er"
    ],
    [
      " re",
      "ne"
    ],
    [
      " rene",
      "w"
    ],
    [
      "o",
      "tion"
    ],
    [
      " m",
      "an"
    ],
    [
      " f",
      "low"
    ],
    [
      "er",
      "ing"
    ],
    [
      "ous",
      "ly"
    ],
    [
      "er",
      "v"
    ],
    [
      "t",
      "i"
    ],
    [
      " W",
      "est"
    ],
    [
      " grow",
      "ing"
    ],
    [
      " agricult",
      "ural"
    ],
    [
      " sh",
      "ow"
    ],
    [
      " develop",
      "ment"
    ],
    [
      " sm",
      "all"
    ],
    [
      " num",
      "bers"
    ],
    [
      "he",
      "re"
    ],
    [
      " s",
      "o"
    ],
    [
      "ar",
      "ies"
    ],
    [
      " As",
      "ian"
    ],
    [
      " Al",
      "though"
    ],
    [
      " el",
      "ites"
    ],
    [
      " in",
      "di"
    ],
    [
      " indi",
      "gen"
    ],
    [
      " indigen",
      "ous"
    ],
    [
      " ag",
      "ain"
    ],
    [
      " p",
      "ract"
    ],
    [
      "u",
      "es"
    ],
    [
      " commer",
      "cial"
    ],
    [
      " pro",
      "cess"
    ],
    [
      " E",
      "uropean"
    ],
    [
      "ab",
      "ly"
    ],
    [
      " sup",
      "p"
    ],
    [
      "e",
      "ly"
    ],
    [
      " ref",
      "orm"
    ],
    [
      " c",
      "an"
    ],
    [
      " R",
      "e"
    ],
    [
      " s",
      "um"
    ],
    [
      "al",
      "th"
    ],
    [
      " direct",
      "ly"
    ],
    [
      "g",
      "u"
    ],
    [
      " dec",
      "ades"
    ],
    [
      " pro",
      "duc"
    ],
    [
      " W",
      "ar"
    ],
    [
      "op",
      "eration"
    ],
    [
      "0",
      "s"
    ],
    [
      " en",
      "ac"
    ],
    [
      " enac",
      "ted"
    ],
    [
      " Al",
      "l"
    ],
    [
      " sec",
      "ular"
    ],
    [
      " pl",
      "ate"
    ],
    [
      " app",
      "ro"
    ],
    [
      " appro",
      "x"
    ],
    [
      " approx",
      "im"
    ],
    [
      " approxim",
      "ately"
    ],
    [
      " cr",
      "ust"
    ],
    [
      " up",
      "per"
    ],
    [
      " continu",
      "ed"
    ],
    [
      " Plate",
      "au"
    ],
    [
      " D",
      "es"
    ],
    [
      " c",
      "he"
    ],
    [
      " G",
      "u"
    ],
    [
      " Gu",
      "j"
    ],
    [
      " D",
      "ec"
    ],
    [
      " G",
      "h"
    ],
    [
      " Gh",
      "ats"
    ],
    [
      " Con",
      "stit"
    ],
    [
      "as",
      "h"
    ],
    [
      " e",
      "qu"
    ],
    [
      "re",
      "me"
    ],
    [
      "l",
      "ine"
    ],
    [
      "4",
      "2"
    ],
    [
      "ak",
      "sh"
    ],
    [
      " territ",
      "ories"
    ],
    [
      " m",
      "on"
    ],
    [
      "ol",
      "e"
    ],
    [
      "rop",
      "ical"
    ],
    [
      " re",
      "t"
    ],
    [
      " n",
      "at"
    ],
    [
      "al",
      "i"
    ],
    [
      " ex",
      "ch"
    ],
    [
      "vent",
      "ion"
    ],
    [
      " P",
      "ar"
    ],
    [
      " lead",
      "er"
    ],
    [
      " S",
      "ing"
    ],
    [
      " Sing",
      "h"
    ],
    [
      "ol",
      "d"
    ],
    [
      " b",
      "ody"
    ],
    [
      "li",
      "ance"
    ],
    [
      " j",
      "ust"
    ],
    [
      " mem",
      "ber"
    ],
    [
      " sing",
      "le"
    ],
    [
      " ex",
      "ternal"
    ],
    [
      " sup",
      "port"
    ],
    [
      " D",
      "e"
    ],
    [
      " A",
      "t"
    ],
    [
      "u",
      "e"
    ],
    [
      " 202",
      "6"
    ],
    [
      " As",
      "s"
    ],
    [
      " ex",
      "c"
    ],
    [
      "er",
      "c"
    ],
    [
      " fore",
      "ign"
    ],
    [
      " he",
      "ad"
    ],
    [
      " f",
      "und"
    ],
    [
      " fund",
      "ament"
    ],
    [
      " fundament",
      "al"
    ],
    [
      " Un",
      "ion"
    ],
    [
      " ser",
      "v"
    ],
    [
      " ",
      "qu"
    ],
    [
      " N",
      "uclear"
    ],
    [
      "tern",
      "ational"
    ],
    [
      "er",
      "g"
    ],
    [
      "erg",
      "y"
    ],
    [
      " glo",
      "bal"
    ],
    [
      " expor",
      "ts"
    ],
    [
      " 1",
      "4"
    ],
    [
      " be",
      "fore"
    ],
    [
      " 2",
      "1"
    ],
    [
      " estim",
      "ated"
    ],
    [
      " ",
      "ve"
    ],
    [
      " p",
      "har"
    ],
    [
      " phar",
      "m"
    ],
    [
      " pharm",
      "ace"
    ],
    [
      " pharmace",
      "ut"
    ],
    [
      " pharmaceut",
      "ical"
    ],
    [
      "reas",
      "ing"
    ],
    [
      " cook",
      "ing"
    ],
    [
      " import",
      "ant"
    ],
    [
      "hed",
      "ul"
    ],
    [
      "an",
      "i"
    ],
    [
      " sch",
      "ool"
    ],
    [
      " be",
      "low"
    ],
    [
      "c",
      "ast"
    ],
    [
      " A",
      "r"
    ],
    [
      " mathematic",
      "s"
    ],
    [
      "dra",
      "m"
    ],
    [
      "dram",
      "as"
    ],
    [
      " s",
      "ari"
    ],
    [
      " w",
      "a"
    ],
    [
      " wa",
      "ist"
    ],
    [
      " common",
      "ly"
    ],
    [
      " w",
      "ear"
    ],
    [
      " cook",
      "ed"
    ],
    [
      " me",
      "at"
    ],
    [
      " are",
      "a"
    ],
    [
      " popul",
      "ous"
    ],
    [
      " independ",
      "ence"
    ],
    [
      "ra",
      "cy"
    ],
    [
      "ce",
      "an"
    ],
    [
      " Ara",
      "bian"
    ],
    [
      " B",
      "ay"
    ],
    [
      " B",
      "ang"
    ],
    [
      " Bang",
      "l"
    ],
    [
      " Bangl",
      "ades"
    ],
    [
      " Banglades",
      "h"
    ],
    [
      " M",
      "yan"
    ],
    [
      " Myan",
      "mar"
    ],
    [
      " S",
      "ri"
    ],
    [
      " L",
      "ank"
    ],
    [
      " M",
      "al"
    ],
    [
      " N",
      "ico"
    ],
    [
      " Nico",
      "bar"
    ],
    [
      " Isl",
      "ands"
    ],
    [
      " sh",
      "are"
    ],
    [
      "im",
      "e"
    ],
    [
      " Ind",
      "ones"
    ],
    [
      " Indones",
      "ia"
    ],
    [
      " p",
      "red"
    ],
    [
      " pred",
      "omin"
    ],
    [
      " is",
      "ol"
    ],
    [
      " mar",
      "gin"
    ],
    [
      " margin",
      "s"
    ],
    [
      " bas",
      "in"
    ],
    [
      " gradu",
      "ally"
    ],
    [
      " Civil",
      "isation"
    ],
    [
      "a",
      "ic"
    ],
    [
      "E",
      "uropean"
    ],
    [
      " north",
      "west"
    ],
    [
      " h",
      "y"
    ],
    [
      "ning",
      "s"
    ],
    [
      " sup",
      "pl"
    ],
    [
      " 4",
      "00"
    ],
    [
      "is",
      "en"
    ],
    [
      "l",
      "a"
    ],
    [
      " he",
      "redi"
    ],
    [
      " g",
      "ave"
    ],
    [
      " lo",
      "ose"
    ],
    [
      " Maur",
      "ya"
    ],
    [
      " Gup",
      "ta"
    ],
    [
      "iv",
      "ity"
    ],
    [
      " architect",
      "ure"
    ],
    [
      " stat",
      "us"
    ],
    [
      "touchab",
      "ility"
    ],
    [
      " or",
      "gan"
    ],
    [
      " be",
      "lief"
    ],
    [
      " M",
      "id"
    ],
    [
      " Mid",
      "dle"
    ],
    [
      "p",
      "ts"
    ],
    [
      " cult",
      "ures"
    ],
    [
      "an",
      "ism"
    ],
    [
      " arm",
      "ies"
    ],
    [
      " pl",
      "ains"
    ],
    [
      " c",
      "os"
    ],
    [
      " me",
      "di"
    ],
    [
      " V",
      "i"
    ],
    [
      "an",
      "ag"
    ],
    [
      " Sikh",
      "ism"
    ],
    [
      "j",
      "ect"
    ],
    [
      " in",
      "stitution"
    ],
    [
      " relig",
      "ion"
    ],
    [
      " exp",
      "ans"
    ],
    [
      " r",
      "ich"
    ],
    [
      " exp",
      "and"
    ],
    [
      "on",
      "ial"
    ],
    [
      " s",
      "over"
    ],
    [
      " sover",
      "e"
    ],
    [
      " sovere",
      "ign"
    ],
    [
      " sovereign",
      "ty"
    ],
    [
      " 18",
      "5"
    ],
    [
      " s",
      "low"
    ],
    [
      " intro",
      "duced"
    ],
    [
      "o",
      "ted"
    ],
    [
      " pri",
      "mary"
    ],
    [
      " f",
      "act"
    ],
    [
      " l",
      "oss"
    ],
    [
      " m",
      "ig"
    ],
    [
      " mult",
      "i"
    ],
    [
      " soci",
      "ety"
    ],
    [
      " 3",
      "6"
    ],
    [
      " 202",
      "3"
    ],
    [
      " n",
      "omin"
    ],
    [
      " capit",
      "a"
    ],
    [
      "6",
      "4"
    ],
    [
      " h",
      "ub"
    ],
    [
      " p",
      "over"
    ],
    [
      " pover",
      "ty"
    ],
    [
      " in",
      "equ"
    ],
    [
      " inequ",
      "ality"
    ],
    [
      " disput",
      "es"
    ],
    [
      "on",
      "om"
    ],
    [
      " le",
      "vel"
    ],
    [
      " wild",
      "life"
    ],
    [
      " sup",
      "ported"
    ],
    [
      " prot",
      "ected"
    ],
    [
      " h",
      "ab"
    ],
    [
      " hab",
      "it"
    ],
    [
      "me",
      "di"
    ],
    [
      "medi",
      "ately"
    ],
    [
      " ref",
      "er"
    ],
    [
      "re",
      "t"
    ],
    [
      " Gree",
      "k"
    ],
    [
      "t",
      "he"
    ],
    [
      "r",
      "at"
    ],
    [
      "p",
      "ic"
    ],
    [
      " n",
      "ame"
    ],
    [
      "sh",
      "a"
    ],
    [
      " origin",
      "ally"
    ],
    [
      " N",
      "or"
    ],
    [
      " Nor",
      "th"
    ],
    [
      " curren",
      "cy"
    ],
    [
      " 13",
      "th"
    ],
    [
      " Hindu",
      "st"
    ],
    [
      "c",
      "om"
    ],
    [
      "p",
      "ass"
    ],
    [
      "pass",
      "ing"
    ],
    [
      "res",
      "ent"
    ],
    [
      "es",
      "c"
    ],
    [
      " re",
      "ac"
    ],
    [
      " reac",
      "hed"
    ],
    [
      " l",
      "ik"
    ],
    [
      " in",
      "it"
    ],
    [
      " 3",
      "0"
    ],
    [
      " M",
      "e"
    ],
    [
      "om",
      "est"
    ],
    [
      "omest",
      "ic"
    ],
    [
      "in",
      "c"
    ],
    [
      " animal",
      "s"
    ],
    [
      "ur",
      "red"
    ],
    [
      " 2",
      "5"
    ],
    [
      " Mo",
      "hen"
    ],
    [
      " Mohen",
      "j"
    ],
    [
      " Mohenj",
      "o"
    ],
    [
      "d",
      "ar"
    ],
    [
      "dar",
      "o"
    ],
    [
      "av",
      "i"
    ],
    [
      "er",
      "i"
    ],
    [
      "al",
      "a"
    ],
    [
      " char",
      "ac"
    ],
    [
      " charac",
      "ter"
    ],
    [
      " se",
      "als"
    ],
    [
      " writ",
      "ten"
    ],
    [
      " scri",
      "pt"
    ],
    [
      " ar",
      "ts"
    ],
    [
      " to",
      "wn"
    ],
    [
      "or",
      "al"
    ],
    [
      " to",
      "day"
    ],
    [
      " ass",
      "oci"
    ],
    [
      "A",
      "ry"
    ],
    [
      "Ary",
      "an"
    ],
    [
      " a",
      "cross"
    ],
    [
      " set",
      "ting"
    ],
    [
      " ",
      "ir"
    ],
    [
      " d",
      "ri"
    ],
    [
      " b",
      "ro"
    ],
    [
      " bro",
      "ad"
    ],
    [
      " be",
      "ing"
    ],
    [
      " par",
      "ts"
    ],
    [
      " w",
      "ould"
    ],
    [
      " r",
      "ange"
    ],
    [
      " urban",
      "isation"
    ],
    [
      " t",
      "ak"
    ],
    [
      " v",
      "arn"
    ],
    [
      " t",
      "e"
    ],
    [
      "ing",
      "s"
    ],
    [
      " th",
      "ose"
    ],
    [
      " Buddh",
      "a"
    ],
    [
      "ress",
      "ed"
    ],
    [
      " c",
      "ould"
    ],
    [
      " the",
      "se"
    ],
    [
      " b",
      "ack"
    ],
    [
      " As",
      "h"
    ],
    [
      " Ash",
      "ok"
    ],
    [
      " Ashok",
      "a"
    ],
    [
      " b",
      "ri"
    ],
    [
      " tex",
      "ts"
    ],
    [
      " sp",
      "eak"
    ],
    [
      " K",
      "al"
    ],
    [
      "en",
      "se"
    ],
    [
      " ad",
      "op"
    ],
    [
      " forest",
      "s"
    ],
    [
      "B",
      "y"
    ],
    [
      " administ",
      "ration"
    ],
    [
      " dev",
      "otion"
    ],
    [
      " r",
      "ather"
    ],
    [
      " ass",
      "ert"
    ],
    [
      " V",
      "a"
    ],
    [
      " s",
      "ix"
    ],
    [
      " P",
      "all"
    ],
    [
      " Pall",
      "av"
    ],
    [
      "ac",
      "ed"
    ],
    [
      " g",
      "od"
    ],
    [
      " part",
      "ic"
    ],
    [
      " a",
      "ge"
    ],
    [
      " cult",
      "ural"
    ],
    [
      " m",
      "uch"
    ],
    [
      " c",
      "le"
    ],
    [
      "dition",
      "al"
    ],
    [
      " class",
      "es"
    ],
    [
      " tem",
      "p"
    ],
    [
      " p",
      "at"
    ],
    [
      " T",
      "em"
    ],
    [
      " app",
      "ear"
    ],
    [
      " an",
      "o"
    ],
    [
      " ano",
      "ther"
    ],
    [
      " e",
      "ff"
    ],
    [
      "un",
      "e"
    ],
    [
      "n",
      "am"
    ],
    [
      " m",
      "er"
    ],
    [
      " mer",
      "ch"
    ],
    [
      " s",
      "omet"
    ],
    [
      " somet",
      "im"
    ],
    [
      " sometim",
      "es"
    ],
    [
      "A",
      "fter"
    ],
    [
      " l",
      "aw"
    ],
    [
      " law",
      "s"
    ],
    [
      " s",
      "av"
    ],
    [
      " v",
      "is"
    ],
    [
      "en",
      "ing"
    ],
    [
      " str",
      "ong"
    ],
    [
      " b",
      "u"
    ],
    [
      " c",
      "ame"
    ],
    [
      " p",
      "or"
    ],
    [
      "w",
      "ards"
    ],
    [
      " the",
      "n"
    ],
    [
      "an",
      "ced"
    ],
    [
      " pract",
      "ices"
    ],
    [
      " trib",
      "al"
    ],
    [
      "ond",
      "s"
    ],
    [
      " A",
      "k"
    ],
    [
      "un",
      "g"
    ],
    [
[...]
