{
  "langs": [
    "en",
    "hi",
    "te",
    "ta"
  ],
  "vocab": [
    "\n",
    " ",
    "\"",
    "$",
    "%",
    "&",
    "'",
    "(",
    ")",
    "+",
    ",",
    "-",
    ".",
    "/",
    "0",
    "1",
    "2",
    "3",
    "4",
    "5",
    "6",
    "7",
    "8",
    "9",
    ":",
    ";",
    "=",
    "A",
    "B",
    "C",
    "D",
    "E",
    "F",
    "G",
    "H",
    "I",
    "J",
    "K",
    "L",
    "M",
    "N",
    "O",
    "P",
    "R",
    "S",
    "T",
    "U",
    "V",
    "W",
    "Y",
    "Z",
    "[",
    "]",
    "^",
    "a",
    "b",
    "c",
    "d",
    "e",
    "f",
    "g",
    "h",
    "i",
    "j",
    "k",
    "l",
    "m",
    "n",
    "o",
    "p",
    "q",
    "r",
    "s",
    "t",
    "u",
    "v",
    "w",
    "x",
    "y",
    "z",
    "|",
    "°",
    "Ö",
    "á",
    "â",
    "í",
    "ā",
    "ī",
    "Ś",
    "ū",
    "ə",
    "ɦ",
    "ɪ",
    "ɾ",
    "ʊ",
    "ʱ",
    "ˈ",
    "ː",
    "ί",
    "α",
    "δ",
    "ν",
    "ο",
    "ς",
    "ό",
    "ँ",
    "ं",
    "ः",
    "अ",
    "आ",
    "इ",
    "ई",
    "उ",
    "ऊ",
    "ऋ",
    "ए",
    "ऐ",
    "ऑ",
    "ओ",
    "औ",
    "क",
    "ख",
    "ग",
    "घ",
    "च",
    "छ",
    "ज",
    "झ",
    "ञ",
    "ट",
    "ठ",
    "ड",
    "ढ",
    "ण",
    "त",
    "थ",
    "द",
    "ध",
    "न",
    "प",
    "फ",
    "ब",
    "भ",
    "म",
    "य",
    "र",
    "ल",
    "व",
    "श",
    "ष",
    "स",
    "ह",
    "़",
    "ा",
    "ि",
    "ी",
    "ु",
    "ू",
    "ृ",
    "े",
    "ै",
    "ॉ",
    "ो",
    "ौ",
    "्",
    "।",
    "०",
    "१",
    "२",
    "३",
    "४",
    "५",
    "६",
    "७",
    "८",
    "९",
    "॰",
    "ஃ",
    "அ",
    "ஆ",
    "இ",
    "ஈ",
    "உ",
    "ஊ",
    "எ",
    "ஏ",
    "ஐ",
    "ஒ",
    "ஓ",
    "க",
    "ங",
    "ச",
    "ஜ",
    "ஞ",
    "ட",
    "ண",
    "த",
    "ந",
    "ன",
    "ப",
    "ம",
    "ய",
    "ர",
    "ற",
    "ல",
    "ள",
    "ழ",
    "வ",
    "ஷ",
    "ஸ",
    "ஹ",
    "ா",
    "ி",
    "ீ",
    "ு",
    "ூ",
    "ெ",
    "ே",
    "ை",
    "ொ",
    "ோ",
    "ௌ",
    "்",
    "ం",
    "ః",
    "అ",
    "ఆ",
    "ఇ",
    "ఈ",
    "ఉ",
    "ఋ",
    "ఎ",
    "ఏ",
    "ఐ",
    "ఒ",
    "ఓ",
    "ఔ",
    "క",
    "ఖ",
    "గ",
    "ఘ",
    "చ",
    "ఛ",
    "జ",
    "ఞ",
    "ట",
    "ఠ",
    "డ",
    "ఢ",
    "ణ",
    "త",
    "థ",
    "ద",
    "ధ",
    "న",
    "ప",
    "ఫ",
    "బ",
    "భ",
    "మ",
    "య",
    "ర",
    "ల",
    "ళ",
    "వ",
    "శ",
    "ష",
    "స",
    "హ",
    "ా",
    "ి",
    "ీ",
    "ు",
    "ూ",
    "ృ",
    "ె",
    "ే",
    "ై",
    "ొ",
    "ో",
    "ౌ",
    "్",
    "ṅ",
    "ṇ",
    "ṣ",
    "ṭ",
    "Ἰ",
    " ",
    "‌",
    "‍",
    "–",
    "—",
    "‘",
    "’",
    "“",
    "”",
    "†",
    "′",
    "₹",
    " t",
    "an",
    "he",
    "in",
    " the",
    "on",
    "er",
    "re",
    " a",
    " o",
    "en",
    "st",
    "al",
    "di",
    "at",
    " c",
    "and",
    "ed",
    " I",
    "ar",
    " w",
    "it",
    " of",
    " in",
    " s",
    " and",
    " In",
    " b",
    "or",
    "ion",
    " p",
    " m",
    "es",
    " f",
    "ic",
    " Indi",
    "is",
    "ing",
    "as",
    "ent",
    " l",
    "om",
    " e",
    "ou",
    " India",
    " to",
    "ly",
    " h",
    " d",
    "ur",
    "ec",
    " re",
    " 1",
    " n",
    " g",
    " T",
    "il",
    "th",
    "ver",
    "ul",
    " A",
    "ri",
    "ol",
    "ra",
    " C",
    "ation",
    "am",
    " B",
    "ro",
    "ve",
    "le",
    " is",
    " S",
    "ut",
    " The",
    "ce",
    "s,",
    " by",
    " Indian",
    "ist",
    "ast",
    "et",
    " 2",
    "ad",
    "im",
    " th",
    "us",
    "ge",
    "ig",
    "ow",
    " 19",
    "id",
    "ith",
    "un",
    " for",
    "s.",
    "ir",
    "'s",
    " r",
    " be",
    "uc",
    " with",
    " con",
    "ment",
    " was",
    "ate",
    "00",
    "ies",
    "tion",
    "op",
    " as",
    " wh",
    "ter",
    " st",
    " mo",
    " P",
    "em",
    " M",
    "rom",
    "ong",
    "ain",
    " it",
    "res",
    "ical",
    " ex",
    "est",
    " di",
    " E",
    "her",
    " an",
    "ang",
    "ld",
    " from",
    " has",
    "se",
    " or",
    "ab",
    "ich",
    "ac",
    "ial",
    "gh",
    " on",
    "um",
    "ill",
    "ay",
    "up",
    "ort",
    "der",
    " N",
    " ar",
    " D",
    " which",
    " H",
    "ud",
    " un",
    " G",
    " are",
    "ive",
    "ity",
    " par",
    "ub",
    "con",
    "ure",
    " 20",
    "ak",
    " (",
    "ant",
    "rit",
    "ult",
    " inc",
    "a,",
    " its",
    "oc",
    "ere",
    "li",
    " com",
    "oun",
    "du",
    "over",
    "ot",
    " al",
    "end",
    " were",
    " v",
    "iv",
    " India's",
    "ated",
    "ary",
    "el",
    "ear",
    " cent",
    " de",
    "arge",
    "ch",
    "od",
    "si",
    "ism",
    " co",
    " wor",
    "ans",
    "mp",
    "ough",
    "y,",
    "es,",
    " int",
    " pro",
    "our",
    "ect",
    " ch",
    "fter",
    " part",
    " sp",
    " cont",
    "outh",
    "ous",
    "overn",
    "In",
    "ally",
    "age",
    " Hin",
    "ame",
    " at",
    " W",
    "if",
    "ag",
    "uring",
    " bec",
    "os",
    "conom",
    "low",
    " U",
    "i,",
    "av",
    "ct",
    " mar",
    " into",
    " form",
    "ish",
    "ution",
    " econom",
    "ance",
    " per",
    "ber",
    "overnment",
    " reg",
    "ern",
    "any",
    "aj",
    "illion",
    "ap",
    "ass",
    " India,",
    " se",
    " Ch",
    " sub",
    "mer",
    " J",
    " k",
    " pl",
    "stit",
    " centur",
    " le",
    " large",
    " cl",
    " ad",
    "ore",
    "ress",
    " R",
    "ry",
    " pop",
    "ts",
    " y",
    "angu",
    "ire",
    "me",
    " 201",
    "ence",
    "cc",
    " langu",
    " rel",
    "og",
    "The",
    "inist",
    " el",
    "ener",
    " government",
    "Indi",
    " popul",
    " world",
    " region",
    " dec",
    " pri",
    "e,",
    "reas",
    "qu",
    " K",
    "lud",
    " Asi",
    " Ind",
    " year",
    " ag",
    " Hindu",
    "ave",
    "reat",
    " art",
    "port",
    "ther",
    " comp",
    " fir",
    " first",
    " sy",
    "ome",
    " tra",
    " sh",
    "es.",
    "ved",
    "red",
    " V",
    "ff",
    "duc",
    " end",
    "all",
    "dition",
    "pp",
    "uch",
    " includ",
    "ection",
    "igh",
    "used",
    " India.",
    "mpire",
    " became",
    "gan",
    " over",
    " res",
    "stitution",
    "row",
    "ok",
    "India",
    " syst",
    " system",
    "we",
    "oth",
    " during",
    "so",
    "dern",
    "estern",
    " ri",
    " had",
    "dh",
    " but",
    "ational",
    "ajor",
    " been",
    "1,",
    " ne",
    "har",
    " have",
    "ted",
    "inister",
    "y.",
    "ric",
    " 5",
    " sup",
    " cons",
    " relig",
    "ral",
    " me",
    "ural",
    "ign",
    " inf",
    " F",
    "ates",
    "ower",
    " also",
    " more",
    " South",
    " most",
    "ound",
    " lat",
    "ord",
    "hi",
    " tw",
    " pe",
    "ide",
    " after",
    "e.",
    " 3",
    " million",
    " increas",
    " 7",
    " that",
    " such",
    " num",
    " gener",
    "ongress",
    " minister",
    "a.",
    "orth",
    "tin",
    " long",
    " 4",
    " he",
    " pol",
    " two",
    " rul",
    " modern",
    "atic",
    " dis",
    "mong",
    " tradition",
    " \"",
    " im",
    " both",
    "enc",
    "imal",
    "pt",
    " ca",
    " 200",
    " prime",
    "istan",
    " years",
    " BC",
    " BCE",
    " cast",
    " soc",
    " Empire",
    " sc",
    "ition",
    " 195",
    " 202",
    " major",
    "ens",
    "sh",
    "ren",
    "etwe",
    "etween",
    "urb",
    "urban",
    " class",
    " under",
    "ust",
    " Congress",
    " ser",
    " off",
    "ep",
    "lic",
    " coun",
    "ince",
    " O",
    "ian",
    " L",
    "isation",
    "o-",
    " language",
    " Bud",
    " Buddh",
    "ose",
    " this",
    " cult",
    "ures",
    "hed",
    "ik",
    " exp",
    " Brit",
    " British",
    "rough",
    "ament",
    " population",
    "ucle",
    "uclear",
    "vel",
    " urban",
    " not",
    "ces",
    " grow",
    " their",
    " number",
    " election",
    " 196",
    "ially",
    " south",
    "eng",
    "out",
    " land",
    "akistan",
    " north",
    "contin",
    "continent",
    "ni",
    " rec",
    " ear",
    " nort",
    "ism,",
    " began",
    "6%",
    "vers",
    "ell",
    "ree",
    "ically",
    " Con",
    " many",
    "ond",
    "ine",
    " between",
    "rib",
    "lo",
    "lowing",
    " fol",
    " 199",
    " dance",
    " It",
    " world's",
    " Pakistan",
    " east",
    " later",
    "ade",
    "merg",
    "ages",
    " norther",
    " northern",
    " caste",
    "ef",
    "ite",
    " economic",
    "anges",
    "on-",
    "lu",
    "0,",
    " rep",
    " tim",
    " ter",
    " app",
    "ting",
    "ies,",
    " fore",
    " Un",
    " ra",
    "ited",
    " up",
    " j",
    "ublic",
    " count",
    " since",
    " An",
    " hum",
    " subcontinent",
    "000",
    "omin",
    " western",
    "gin",
    "aw",
    "vi",
    " there",
    "ugh",
    "ace",
    " 18",
    "olog",
    " influ",
    " increased",
    " lit",
    " rate",
    "ilit",
    "mon",
    "ci",
    " spec",
    " ext",
    " peop",
    " sec",
    " ab",
    " CE",
    " classical",
    " power",
    "ular",
    "velop",
    "ard",
    "ket",
    "ered",
    "vent",
    "-l",
    " 194",
    "7,",
    "sl",
    " Th",
    " than",
    " occ",
    " lif",
    " emerg",
    " river",
    "pl",
    "ise",
    "ised",
    "abl",
    " Mugh",
    " Mughal",
    " Com",
    "ech",
    " parli",
    " parliament",
    "S$",
    " liter",
    "orm",
    " mid",
    " nuclear",
    " state",
    "hm",
    "versity",
    "ected",
    "ately",
    " hist",
    " histor",
    " people",
    "ari",
    "ever",
    "own",
    " peri",
    " period",
    " new",
    "ss",
    "ph",
    "rol",
    "able",
    "as,",
    "amil",
    " develop",
    " Al",
    " war",
    "esp",
    "ies.",
    " mat",
    " cour",
    " among",
    "ice",
    " general",
    " largest",
    " mus",
    " Beng",
    " Bengal",
    " Chin",
    "ation,",
    " bas",
    "o,",
    "illen",
    "illenni",
    "illennium",
    " Sans",
    " Sansk",
    " Sanskrit",
    "urop",
    " social",
    "ations",
    " Ma",
    " est",
    "lim",
    "ultan",
    " Pun",
    " Punj",
    " Punjab",
    " religion",
    "ative",
    " East",
    "vement",
    " non-",
    "eral",
    " through",
    " US$",
    " though",
    " milit",
    "per",
    " ref",
    "-d",
    "cient",
    "ron",
    "ood",
    "hen",
    "ten",
    " including",
    " set",
    "ple",
    " them",
    " caused",
    " Pl",
    "dic",
    " lead",
    "ess",
    "5.",
    "tern",
    " constitution",
    "0.",
    "hem",
    " music",
    "-large",
    "-largest",
    "heast",
    " life",
    " Indus",
    " 9",
    " gra",
    "ivil",
    "ird",
    " millennium",
    " By",
    " 12",
    " Indo-",
    " pre",
    "ex",
    "ta",
    " religi",
    "uslim",
    " Cent",
    " Asia",
    "rew",
    " Sik",
    " Comp",
    " gr",
    "ly,",
    "duced",
    " other",
    "ied",
    " billion",
    "ty",
    " military",
    "ild",
    "ording",
    "owever",
    "owever,",
    " fe",
    " sty",
    " def",
    " emp",
    "ared",
    " main",
    " some",
    "ould",
    "ers",
    "ack",
    "roc",
    "t,",
    " forest",
    " far",
    " tr",
    " 6",
    " all",
    " led",
    " sign",
    "ident",
    " who",
    " Ne",
    " cr",
    " After",
    " dire",
    " Wor",
    " World",
    " served",
    " rural",
    "read",
    " Himal",
    " Himalay",
    " one",
    "1.",
    " 198",
    " mathem",
    " country",
    "ank",
    " Isl",
    " no",
    "5,",
    " made",
    " high",
    " emerged",
    " third",
    "ean",
    " Jain",
    " polit",
    " political",
    "ing,",
    " stat",
    " wom",
    " women",
    "dle",
    " religious",
    " coast",
    " Muslim",
    " Central",
    "mit",
    " plain",
    " Del",
    "ultanate",
    " culture",
    " Sikh",
    " us",
    " Company",
    " col",
    " economy",
    " tech",
    " acc",
    "istic",
    "4%",
    "put",
    "odi",
    " En",
    "gl",
    "),",
    " used",
    "dust",
    " century,",
    " wide",
    " coal",
    " human",
    "vid",
    "hr",
    " cit",
    " we",
    " found",
    " ass",
    " agric",
    " agricult",
    " out",
    "ange",
    "arn",
    " central",
    " control",
    "cri",
    " en",
    " great",
    " trans",
    "very",
    "omet",
    " Sh",
    " loc",
    "anc",
    "til",
    "ost",
    "anu",
    " sur",
    "ments",
    " following",
    " Gand",
    "ritor",
    " Plate",
    " include",
    " influenc",
    " St",
    " court",
    " growth",
    " contrib",
    " cook",
    " 2011",
    "emoc",
    "west",
    "ades",
    " Its",
    "are",
    " occup",
    "verse",
    "led",
    "vol",
    "ving",
    "alle",
    " arch",
    "uropean",
    " diff",
    " early",
    "ked",
    "ya",
    " export",
    "ity,",
    " arm",
    "wor",
    "work",
    " cre",
    " leg",
    " righ",
    "nolog",
    " movement",
    "-s",
    " fed",
    " parliamentary",
    " grew",
    "3.",
    " cap",
    "ually",
    " literac",
    "20",
    " bi",
    " support",
    " Engl",
    " English",
    "ives",
    " Constitution",
    " ori",
    " origin",
    "19",
    " century",
    " ent",
    " second",
    " diversity",
    " animal",
    " feat",
    "ight",
    " fig",
    " Ganges",
    "oin",
    "ach",
    " bir",
    "raph",
    "ne",
    " dev",
    "als",
    "ins",
    " they",
    "iz",
    "ific",
    " local",
    " esp",
    " espec",
    " especially",
    "ven",
    " 17",
    " pain",
    " painting",
    "arat",
    " direct",
    "af",
    "str",
    " indust",
    " Gandhi",
    " li",
    " territor",
    "au",
    " ancient",
    "ction",
    " rem",
    " remain",
    " dra",
    "und",
    " majority",
    " her",
    " 197",
    "JP",
    " Nehr",
    " Nehru",
    "6,",
    " party",
    " last",
    " United",
    ").",
    "%.",
    " cens",
    " areas",
    "icial",
    " Hindi",
    " marri",
    " scul",
    " sculpt",
    " ind",
    " 1947,",
    "outheast",
    "yan",
    "mar",
    " And",
    " Andam",
    " Andaman",
    "ands",
    "ers,",
    "ings",
    " languages",
    " During",
    "ure,",
    " decl",
    "ined",
    " king",
    "dom",
    "ished",
    " sou",
    " souther",
    " southern",
    " inter",
    " Delhi",
    " created",
    " compos",
    " centuries",
    "ft",
    "urn",
    "8.",
    " prom",
    " Indians",
    " technolog",
    " ed",
    " educ",
    " national",
    "act",
    " federal",
    " republic",
    " 1.",
    "2,",
    " become",
    " air",
    "ccording",
    "urther",
    " Per",
    " Persi",
    " eastern",
    " well",
    " popular",
    " earli",
    "etic",
    "pro",
    "ants",
    "ped",
    " These",
    " Mo",
    "ra,",
    "hi,",
    " styl",
    "wn",
    "day",
    "ating",
    "hes",
    "alled",
    " based",
    "ix",
    "sequ",
    "sequent",
    "amm",
    " roc",
    " adm",
    " rat",
    " Tamil",
    " pen",
    " penins",
    " regional",
    " whose",
    " sm",
    "ificant",
    " Buddhist",
    " sultanate",
    "though",
    "ract",
    " market",
    "oup",
    " commer",
    " pres",
    "ors",
    " longer",
    " sever",
    "leg",
    " National",
    " There",
    "cent",
    "hat",
    " won",
    " contin",
    " lower",
    "ains",
    " Western",
    " low",
    "i)",
    " union",
    " often",
    " endem",
    "0%",
    "bal",
    " car",
    " Act",
    " BJP",
    "er,",
    "ody",
    "4.",
    "ember",
    "9.",
    " exec",
    " execut",
    "ived",
    "DP",
    "ances",
    "fore",
    " rates",
    " common",
    " mathematic",
    " indep",
    " independ",
    "rac",
    " Ara",
    "bian",
    " Se",
    " west",
    "bar",
    " Af",
    "-g",
    ",000",
    " Sanskrit,",
    " record",
    "dian",
    "anted",
    "redi",
    " rise",
    " fl",
    " art,",
    "ility",
    "lief",
    " kingdom",
    " Southeast",
    " Islam",
    " establ",
    " left",
    " rule",
    " education",
    "mary",
    " domin",
    "ale",
    "oss",
    "ration",
    "ual",
    " soci",
    " ann",
    " literacy",
    "6.",
    " fast",
    " middle",
    " increasing",
    "ure.",
    " Kas",
    " Kashm",
    " mid-",
    " Among",
    " gen",
    "ising",
    "adi",
    " four",
    " prot",
    " Persian",
    " term",
    " Bhar",
    " Bharat",
    " vari",
    " cur",
    " widely",
    "ed,",
    " earliest",
    " 8",
    "nown",
    "inc",
    " z",
    "tle",
    " around",
    " char",
    " ste",
    "als,",
    " vill",
    " 15",
    " old",
    "eak",
    " trib",
    "ross",
    " times",
    " emplo",
    " employ",
    "ata",
    " however,",
    " CE,",
    " time",
    " differ",
    " eth",
    " religions",
    " conduc",
    " Bra",
    " Brahm",
    " birth",
    "rop",
    "ograph",
    " empire",
    "ption",
    " tex",
    " subsequent",
    " polic",
    "iss",
    " rock",
    "ians",
    "mb",
    " comple",
    " administ",
    " ta",
    " along",
    " resp",
    "ai",
    "ded",
    "ively",
    " mak",
    " tem",
    " significant",
    " every",
    " sch",
    " vast",
    " leading",
    " men",
    " indi",
    "gen",
    " str",
    " peninsular",
    " group",
    " Raj",
    " aff",
    " bl",
    " further",
    " consid",
    " system,",
    "ternal",
    " legis",
    " legisl",
    "eration",
    " 193",
    "0s,",
    " states",
    " liber",
    " China",
    "wan",
    " spread",
    " ob",
    " This",
    " continu",
    " caus",
    " now",
    " surv",
    "mas",
    "can",
    " dist",
    "3,",
    " According",
    "ists",
    "1%",
    " influenced",
    " win",
    " species,",
    "ble",
    " 2.",
    " endang",
    " endangered",
    "ah",
    " five",
    " held",
    " until",
    " Janu",
    " January",
    " civil",
    " coalition",
    " election,",
    " member",
    " sing",
    " formed",
    " executive",
    "ouse",
    "ions",
    " three",
    "min",
    " GDP",
    " glo",
    "de",
    " estim",
    " import",
    " famil",
    " official",
    "ars",
    "ool",
    " traditional",
    ". ",
    " worn",
    " gar",
    " democ",
    " bor",
    "ders",
    " Bh",
    " near",
    "ico",
    "ail",
    "ones",
    " Afric",
    " Africa",
    " ago",
    " ago.",
    " Their",
    " diverse",
    "ett",
    " gradu",
    " Valle",
    " Valley",
    " Civil",
    " 1200",
    " BCE,",
    " recorded",
    " Hinduism",
    " Dra",
    " Dravi",
    " Dravidian",
    " within",
    " Hinduism,",
    " Buddhism",
    " consol",
    " consolid",
    " lo",
    " Maur",
    " Gup",
    " er",
    " creat",
    " archit",
    " architect",
    " writ",
    "tou",
    "touch",
    "ability",
    " kingdoms",
    " scri",
    "astri",
    " established",
    "mitt",
    "ran",
    " result",
    " resulting",
    "etwork",
    "val",
    "ara",
    " Punjab,",
    "urned",
    " rights",
    " changes",
    " intro",
    " public",
    " took",
    " influence",
    "viol",
    " rule.",
    " partition",
    "ions,",
    " Pakistan.",
    " 1950,",
    "ratic",
    " mult",
    "i-",
    " societ",
    " capit",
    " reduced",
    "equ",
    "apon",
    " disput",
    " Kashmir",
    "ion,",
    " poll",
    " wild",
    "lif",
    " traditionally",
    " der",
    " Gree",
    " Greek",
    " prov",
    " extens",
    "pic",
    " languag",
    "lied",
    "ained",
    " curren",
    "rial",
    " Y",
    " thought",
    " extant",
    "0,000",
    " However,",
    " known",
    " about",
    " cities",
    "eri",
    " features",
    "dis",
    "ann",
    " work",
    " oldest",
    "oci",
    " composed",
    " Indo-A",
    " ac",
    " place",
    " when",
    " regions",
    " invol",
    "aving",
    " fam",
    "atical",
    "ory",
    " called",
    "por",
    "ified",
    " different",
    "ured",
    " conducted",
    "iving",
    " lay",
    " ge",
    " Asia,",
    " (c",
    "–2",
    "ining",
    " his",
    "miss",
    "elf",
    " As",
    " tax",
    " greater",
    " rene",
    " renew",
    "otion",
    " man",
    "ert",
    " flow",
    "ering",
    "erv",
    " West",
    " agricultural",
    " show",
    " development",
    "ty,",
    " small",
    "here",
    "ines,",
    " so",
    "aries",
    " 10",
    " Asian",
    "eated",
    " Although",
    " elit",
    " indigen",
    " technology",
    "ward",
    " again",
    "amp",
    " pract",
    "-f",
    " commerc",
    " commercial",
    " proces",
    " European",
    "ably",
    " supp",
    "ely",
    " reform",
    " can",
    " Re",
    "7.",
    " sum",
    "alth",
    "8,",
    " directly",
    " saf",
    "gu",
    " decades",
    " produc",
    "vided",
    " industry",
    " War",
    "-r",
    " enac",
    " enacted",
    "ism.",
    " All",
    "India's",
    " secular",
    " plate",
    " appro",
    " approx",
    " approxim",
    " approximately",
    " south-",
    " crust",
    " upper",
    " Himalayas",
    " continued",
    " Plateau",
    "-b",
    " Des",
    " che",
    " Gu",
    " Guj",
    " Dec",
    " Ghat",
    "s;",
    " Constit",
    "uted",
    "ash",
    " equ",
    "reme",
    "han",
    "4,",
    "42",
    "aksh",
    "3%",
    " mon",
    " play",
    "ole",
    "ropical",
    "ry,",
    " ret",
    " species",
    " endemic",
    "7%",
    "9%",
    " nat",
    "asi",
    " exch",
    "vention",
    " Par",
    " 50",
    " minister.",
    " Sing",
    " Singh",
    "old",
    " body",
    "liance",
    " just",
    " single",
    " external",
    " De",
    " At",
    "ue",
    "ers.",
    " Ass",
    " exc",
    "erc",
    " foreign",
    "ident,",
    " head",
    " fund",
    " fundament",
    " fundamental",
    " Stat",
    " Union",
    " serv",
    " qu",
    " Nuclear",
    "ine.",
    "ternational",
    "gy",
    " third-largest",
    " global",
    " contribution",
    " before",
    " estimated",
    " ve",
    " phar",
    " pharm",
    " pharmace",
    " pharmaceut",
    " pharmaceutical",
    "reasing",
    " cooking",
    " census",
    " important",
    " areas.",
    "ba",
    " families",
    " developed",
    "ched",
    "ani",
    " school",
    " below",
    "cast",
    " sculpture",
    " Ar",
    " sit",
    " dances",
    " dance-d",
    " dance-dra",
    " dance-dramas",
    " wa",
    " waist",
    " commonly",
    " wear",
    " sport",
    " cooked",
    " meat",
    " Asia.",
    " populous",
    " independence",
    "cean",
    " Arabian",
    "west,",
    " Bay",
    " China,",
    " Bang",
    " Bangl",
    " Banglades",
    " Bangladesh",
    " Myan",
    " Myanmar",
    " Sri",
    " Lank",
    " Mal",
    "div",
    " Nico",
    " Nicobar",
    " share",
    " Indones",
    " Indonesi",
    " pred",
    " predomin",
    " isol",
    " margin",
    " basin",
    " ago,",
    " gradually",
    " Civilisation",
    " BCE.",
    "aic",
    "European",
    " language,",
    " hy",
    "nings",
    " suppl",
    " regions.",
    " 400",
    "isen",
    "la",
    " heredi",
    " heredit",
    " gave",
    " loose",
    "-k",
    " Maurya",
    " Gupta",
    "ivity",
    " status",
    "touchability",
    " organ",
    " belief",
    " Mid",
    " Middle",
    "pts",
    " cultures",
    " armies",
    " cos",
    " medi",
    " Vi",
    "anag",
    " culture.",
    "ject",
    " institution",
    " expans",
    " rich",
    " expand",
    "onial",
    " sover",
    " sovere",
    " sovereign",
    " 185",
    " slow",
    " introduced",
    "oted",
    " 192",
    " primary",
    " fact",
    "-m",
    " loss",
    "ced",
    " mig",
    " system.",
    " time,",
    " nomin",
    " capita",
    " hub",
    " pover",
    " inequ",
    " inequal",
    " disputes",
    " century.",
    "onom",
    " mal",
    " level",
    " wildlif",
    " vi",
    " supported",
    " protected",
    " hab",
    " habit",
    " habitat",
    "medi",
    "mediately",
    " refer",
    "ret",
    ");",
    "indh",
    "the",
    "hā",
    "rat",
    " name",
    " originally",
    " North",
    " currenc",
    " 13",
    " 13th",
    " era",
    " Empire.",
    " Hindust",
    "pass",
    "passing",
    "resent",
    "esc",
    " reac",
    " reached",
    " lik",
    " init",
    " forms",
    " Me",
    "omest",
    "omestic",
    "urred",
    "re.",
    " 25",
    " Mohen",
    " Mohenj",
    " Mohenjo-",
    " Mohenjo-d",
    " Mohenjo-dar",
    " Mohenjo-daro,",
    "avi",
    " charac",
    " character",
    " written",
    " script",
    " figures",
    " town",
    "oral",
    " economy.",
    " today",
    " associ",
    "—w",
    " Indo-Ary",
    " Indo-Aryan",
    " across",
    " setting",
    " ir",
    " dri",
    " them.",
    " bro",
    " broad",
    " being",
    " parts",
    " would",
    "i.",
    " range",
    " urbanisation",
    " tak",
    " varn",
    " te",
    " those",
    "ressed",
    "ices",
    " could",
    " these",
    "icl",
    " back",
    " Ash",
    " Ashok",
    " Ashoka",
    "8–2",
    " bri",
    " subcontinent,",
    "ts,",
    " speak",
    " Kal",
    "ense",
    " adop",
    "mission",
    "By",
    " centuries,",
    " devotion",
    " rather",
    " assert",
    "ature",
    "ective",
    " Va",
    " six",
    " Pall",
    " Pallav",
    "aced",
    " god",
    " partic",
    " age",
    " cultural",
    " much",
    " cle",
    " growing",
    "ditional",
    "ples",
    " pat",
    " Tem",
    " appear",
    " anot",
    " another",
    " eff",
    " effect",
    "and,",
    "une",
    "nam",
    " mer",
    " merch",
    " somet",
    " sometim",
    " sometimes",
    "After",
    " law",
    " laws",
    " sav",
    " vis",
    "ening",
    " indigenous",
    " strong",
    " bu",
    " came",
    " then",
    "anced",
    " tribal",
    " Ak",
    "ung",
    " reven",
    " revenu",
    " revenues",
    " agriculture",
    " pa",
    "reg",
    " sil",
    " enter",
    "ger",
    " maint",
    " painting,",
    "rent",
    "itions",
    " coll",
    " recog",
    " recogn",
    " fra",
    " process",
    " increasingly",
    " compan",
    " adv",
    " stren",
    " streng",
    " strength",
    " att",
    " cruc",
    " crucial",
    " good",
    " Many",
    " consider",
    " having",
    " Dal",
    " rail",
    " railw",
    " railway",
    " Europ",
    "bell",
    "bellion",
    " pr",
    "ook",
    " unit",
    " lim",
    " safe",
    "guard",
    "ush",
    " marked",
    "back",
    " dep",
    "struc",
    "ture",
    "pay",
    " consum",
    " provided",
    " crit",
    "operation",
    " vic",
    " vict",
    " decade",
    "ises",
    " liberal",
    "form",
    " pers",
    "genc",
    " sep",
    " Eur",
    "ib",
    " makes",
    " Thar",
    "is.",
    " remaining",
    "pur",
    " Gujarat",
    "kh",
    " Deccan",
    " contains",
    "itud",
    " Himalayan",
    " drain",
    "line",
    " kil",
    " kilomet",
    " kilometres",
    " mi)",
    "400",
    " bel",
    " belong",
    "300",
    "land",
    " consists",
    "ats",
    " latter",
    " clim",
    " summer",
    "ds",
    " sim",
    " moist",
    " tropical",
    " 0.",
    " employed",
    " contain",
    " mamm",
    " 7.",
    "2%",
    " displ",
    "uous",
    "rig",
    "ine,",
    "ali",
    " exchange",
    " extin",
    "ographic",
    "8%",
    "ke",
    " threat",
    "ened",
    "pen",
    " recent",
    " respon",
    " Pro",
    "mend",
    " added",
    " eight",
    " Bi",
    "ally,",
    " Jan",
    " Janata",
    " right",
    " office",
    " year.",
    " elections",
    " 1951,",
    " chos",
    " chosen",
    " leader,",
    " 1965,",
    " Indira",
    " She",
    "ency,",
    " opp",
    " oppos",
    " ministers.",
    " Fron",
    " 1991,",
    " min",
    " governments",
    " follow",
    " Democ",
    "DA",
    "PA",
    " government,",
    "2.",
    "ute",
    " Constitu",
    " Constituent",
    " Assem",
    " Assemb",
    " Assembly",
    " port",
    " constitutional",
    " elected",
    "anch",
    " village",
    " distin",
    "ctions",
    " parliament.",
    " becom",
    " becoming",
    " 1950s,",
    " Non-",
    " went",
    "er.",
    " test",
    " weapon",
    " signed",
    "ither",
    " Treat",
    "crimin",
    "no",
    " use",
    " ener",
    " energy",
    " nation",
    " world.",
    " aver",
    " average",
    " fall",
    " trade",
    " sect",
    " sector",
    " hig",
    "orter",
    " 2001",
    " 2011,",
    " tot",
    " total",
    " cal",
    "ales",
    " 26%",
    "–20",
    "–201",
    "reen",
    " gas",
    " resident",
    " report",
    " (19",
    " censu",
    " census,",
    " 1,000",
    " fem",
    "abad",
    " language\"",
    " comprom",
    " compromise",
    " formal",
    "uled",
    "\".",
    "ya,",
    "after",
    " express",
    " impro",
    "%,",
    "HO",
    "reath",
    "ott",
    "ables,",
    " very",
    " marriages",
    "anged",
    "orce",
    " natal",
    " band",
    " figure",
    " style",
    " c. ",
    " manus",
    " manuscri",
    " folk",
    " mathematics",
    " mathematical",
    " transmit",
    " transmitted",
    " contributions",
    " conce",
    " exam",
    " example",
    " styles",
    " classical,",
    " For",
    " sari",
    "alw",
    " kame",
    " kamee",
    " kameez",
    "yp",
    " cu",
    " chur",
    " churid",
    " veg",
    " veget",
    "ricket",
    " Rep",
    " Republic",
    "h-largest",
    " and,",
    " democrac",
    " democracy.",
    " Ocean",
    " south,",
    " Sea",
    "ares",
    " borders",
    " Nep",
    " Nepal",
    " east.",
    " marit",
    "ime",
    " Myanmar,",
    " Thail",
    " Indonesia.",
    " humans",
    " 55,",
    " 55,000",
    " occupation,",
    " isolation",
    " hun",
    " hunter",
    " hunter-g",
    " hunter-gat",
    " hunter-gather",
    " hunter-gatherers,",
    " highly",
    "ettled",
    " margins",
    " evol",
    " archaic",
    " Indo-European",
    " diffused",
    " northwest",
    " northwest.",
    " hym",
    " hymn",
    " hymns",
    "isting",
    " supplanted",
    " Jainism",
    " arisen",
    "laim",
    "laiming",
    " Ear",
    " Early",
    " loose-k",
    " loose-kn",
    " loose-knit",
    " flour",
    " creativity",
    " architecture,",
    " untouchability",
    " exported",
    " Islam,",
    " Chri",
    " Christ",
    " Christian",
    " Christianity,",
    "aism,",
    " Z",
    " Zor",
    " Zoro",
    " Zoroastri",
    " Zoroastrian",
    " Zoroastrianism",
    "nd",
    "ently",
    " overran",
    " Sultanate",
    " drew",
    " network",
    " medie",
    " medieval",
    " Vij",
    " Vijay",
    " Vijayanag",
    " Vijayanagara",
    "hered",
    " relative",
    " peace",
    " expanding",
    " turned",
    " colonial",
    "ty.",
    " ide",
    " ro",
    " nationalist",
    " non",
    " nonviol",
    " nonviolent",
    " factor",
    " ending",
    " independent",
    "-major",
    "-majority",
    " dominion",
    " large-s",
    " large-sc",
    " large-scale",
    " migration",
    " accom",
    " partition.",
    " govern",
    " democratic",
    " multi-",
    "eth",
    "nic",
    " 36",
    " 361",
    " 2023.",
    " nominal",
    " income",
    "64",
    " annually",
    " US$2,",
    " 16.",
    "-grow",
    "-growing",
    " inform",
    " information",
    " clas",
    " class.",
    " poverty",
    " rate,",
    " cost",
    " neigh",
    " neighb",
    " neighbour",
    " unres",
    " unresol",
    " unresolved",
    "econom",
    "economic",
    " fac",
    " gender",
    " inequality,",
    " child",
    " pollution",
    " meg",
    " megadi",
    " megadiverse",
    " biodi",
    " biodiversity",
    " hot",
    " hots",
    " hotsp",
    " hotspot",
    "ary,",
    " immediately",
    " Cl",
    " Class",
    " Classical",
    " Lat",
    " historical",
    " are:",
    " (Ἰ",
    " (Ἰν",
    " (Ἰνδ",
    " Ancient",
    " Ach",
    " Acha",
    " Achaem",
    " Achaemen",
    " Old",
    " Sindh",
    "u,",
    " Asians",
    " (B",
    "aː",
    " epic",
    " languages.",
    "avar",
    " applied",
    " gained",
    " mean",
    " meaning",
    " enc",
    "-day",
    " Pakistan)",
    "ased",
    "och",
    "ata,",
    " anat",
    " anatom",
    " like",
    " vary",
    " only",
    " diversity.",
    "vidence",
    " Bal",
    " Pakistan,",
    " (inc",
    " (includ",
    " (including",
    " bar",
    " animals",
    "eb",
    " cat",
    " cattle",
    " occurred",
    "00–",
    "app",
    "ala,",
    "akh",
    " characteristic",
    " included",
    " stand",
    " standar",
    " standardis",
    " standardised",
    " pot",
    " styles,",
    " statu",
    " Network",
    " towns",
    "-p",
    "astoral",
    " associated",
    " what",
    "-sp",
    " region.",
    " nex",
    " next",
    " sw",
    "orest",
    " fire",
    " imple",
    " implement",
    " settle",
    " settlement",
    " may",
    " involved",
    " north,",
    " creating",
    " fami",
    " family",
    " mainly",
    " south.",
    "1st",
    "dif",
    "dified",
    " chap",
    "tell",
    " regist",
    " 300",
    " fort",
    " fortified",
    " cities,",
    " ethical",
    " systems",
    " non-viol",
    " non-violence",
    "ixed",
    " hereditary",
    " living",
    "ically,",
    " Buddha",
    " begin",
    " beginnings",
    " geograph",
    "on,",
    " 26",
    " brief",
    " briefly",
    " hubs",
    " exce",
    " notable",
    " ins",
    "cription",
    " produced",
    "ream",
    " Fol",
    " Following",
    " life,",
    " adopted",
    " Buddhism,",
    " subsequently",
    " policy",
    " dh",
    "erous",
    " edi",
    " edict",
    " edicts",
    " welf",
    " welfare",
    " kill",
    " dest",
    " forests,",
    "mental",
    " historians",
    " emb",
    " complex",
    " administration",
    " Plain",
    " mod",
    " model",
    "sel",
    " refl",
    " flowering",
    "ature,",
    "ence.",
    " that,",
    " ruled",
    " Chol",
    " plains,",
    " respective",
    " Ka",
    " Kaver",
    " valle",
    "andy",
    " power.",
    " Sim",
    " Simultan",
    " Simultane",
    " Simultaneous",
    " Simultaneously,",
    " Jainism,",
    " fav",
    "tional",
    " gods",
    " particular",
    "ti",
    " movement.",
    " extensively",
    " able",
    " lands",
    " cleared",
    " make",
    " way",
    " economy,",
    " ruling",
    " 6th",
    " 7th",
    " They",
    "yal",
    " temples",
    " patron",
    " citiz",
    " numbers",
    " Temple",
    " various",
    " siz",
    " Malay",
    "sia,",
    "ants,",
    " initi",
    "ning",
    " texts",
    " 10th",
    "aval",
    " united",
    " repeated",
    " repeatedly",
    " north-",
    "western",
    " event",
    " eventually",
    " Islamic",
    "rup",
    "tive",
    " elites,",
    " largely",
    " own",
    " cust",
    " custom",
    "uls",
    " raid",
    " devast",
    " scen",
    " men,",
    " artis",
    " artisans",
    " build",
    " por",
    " portion",
    " 16",
    " warri",
    "ors.",
    " did",
    "ste",
    "stead",
    " bal",
    " administr",
    "lus",
    "sc",
    "wing",
    " bond",
    " bonds",
    " Akbar",
    "ms",
    " emper",
    " emperor",
    " mand",
    " lar",
    " larger",
    " markets.",
    " 17th",
    " literary",
    " textil",
    " New",
    "herent",
    " Marat",
    " Rajput",
    " Rajputs,",
    " Sikhs,",
    " Ex",
    " commerce",
    " elites",
    " imper",
    " imperial",
    "ority",
    " late",
    " 18th",
    "ilitated",
    " enabl",
    " aut",
    " affa",
    " affair",
    "ines",
    " companies",
    "—s",
    "oli",
    " presence",
    " coastal",
    " resour",
    " advanced",
    " attract",
    " company",
    "idel",
    " access",
    " manu",
    " manuf",
    " manufact",
    " goods",
    " mater",
    " material",
    " ons",
    " onset",
    " period.",
    " severely",
    "iled",
    "ously",
    " appoin",
    "eneral",
    " ess",
    " essent",
    " essential",
    " dem",
    " population,",
    " railways,",
    "duction",
    " Europe.",
    " Dis",
    "vas",
    "vasive",
    " British-",
    " British-st",
    " British-sty",
    " British-style",
    " rebellion",
    " unitary",
    " limited",
    " safeguard",
    " against",
    " hal",
    " half",
    " 19th",
    " farmer",
    " depend",
    " dependent",
    "espite",
    "ks",
    " industrial",
    " generated",
    " Indians.",
    "ropp",
    " food",
    " consumption",
    " relief",
    "ressive",
    " stri",
    "dent",
    " self",
    " non-c",
    " non-co-",
    "ma",
    " victor",
    " victories",
    " elections.",
    "ip",
    " II",
    " II,",
    " push",
    " advent",
    " secular,",
    " liberalisation",
    " transform",
    " transformed",
    " persist",
    " viol",
    " violence",
    " Na",
    " separat",
    " Jamm",
    " Jammu",
    " Nort",
    " Northeast",
    " territorial",
    " accoun",
    " bul",
    " bulk",
    "ying",
    "onic",
    " Plate.",
    " geolog",
    " super",
    " supercontinent",
    " Gond",
    " Gondwan",
    " Gondwana,",
    "east",
    " spreading",
    " later,",
    " crust,",
    " obstruc",
    " she",
    "ally.",
    " layer",
    "ets",
    "es)",
    "head",
    " Himalayas.",
    " stif",
    " stiff",
    " Tib",
    " Tibet",
    "ick",
    " Himalayas,",
    " rap",
    " rapid",
    " sedi",
    " sediment",
    "stitut",
    "stitutes",
    " Indo-G",
    " Indo-Gang",
    " Indo-Gangetic",
    " original",
    " abo",
    " above",
    " extend",
    " extends",
    "erly",
    " To",
    " lies",
    " Deser",
    " Desert,",
    " survives",
    " ranges",
    " Jhar",
    " Jharkh",
    " Plateau,",
    " flank",
    " Eastern",
    " country's",
    " fash",
    "ator",
    " 30",
    " latitud",
    " subst",
    " substant",
    " substantially",
    " Brahmap",
    " Brahmaput",
    " Ko",
    " Kosi",
    " extreme",
    " extremely",
    " gradi",
    " gradient",
    " flo",
    " flood",
    " rivers,",
    " prevent",
    " Nar",
    "ada",
    " Sea.",
    " coastline",
    " meas",
    "51",
    " leng",
    " length",
    "ance,",
    ",42",
    "94",
    " Laksh",
    " Lakshad",
    " Lakshadwe",
    " Lakshadweep",
    " chain",
    " shore",
    " marsh",
    " marshy",
    " shared",
    "ls",
    " Island",
    " Islands,",
    " vol",
    " volcan",
    " 28",
    " territories.",
    " strongly",
    " monso",
    " monsoon",
    " winds",
    " simil",
    " similar",
    " role",
    " June",
    " Oct",
    " Octo",
    " October",
    " climatic",
    " wet",
    "atures",
    " °",
    "ra.",
    " proj",
    " present",
    " country,",
    " countri",
    " host",
    "ological",
    " mammals,",
    " rept",
    " reptil",
    " 6%",
    " amp",
    " amphi",
    " amphibian",
    " 12.",
    " fish",
    " plant",
    " species.",
    "aps",
    " 34",
    " display",
    " dense",
    " Ghats,",
    " area.",
    " forest,",
    " 40%",
    " 70%",
    " decid",
    " deciduous",
    " thor",
    " thorn",
    " medic",
    "iant",
    "osa,",
    " seals",
    "ought",
    "ment.",
    " desc",
    "ision",
    " Eurasi",
    " forms.",
    " Still",
    " pass",
    " contra",
    "5.8%",
    "key",
    " threatened",
    "edd",
    "-des",
    "iger",
    " extinct",
    "gest",
    "tre",
    " open",
    "lands",
    "zed",
    " black",
    " blackb",
    " blackbuc",
    " blackbuck",
    " cheet",
    " cheetah",
    " response",
    " amend",
    " amendments",
    "osp",
    "osphere",
    " Ram",
    "sar",
    "\")",
    " centre",
    " Jaw",
    " Jawa",
    " Jawahar",
    " Jawaharl",
    " Jawaharlal",
    " remained",
    " comf",
    " comfort",
    " comfortable",
    " died",
    " Bah",
    " Shastri",
    " soon",
    " 1971,",
    " declared",
    "ending",
    " Emerg",
    " Emergency,",
    " voted",
    " lasted",
    " years;",
    " returned",
    " assass",
    " assassin",
    " assassinated",
    " suc",
    " Rajiv",
    "9,",
    " Front",
    " coalition,",
    " alliance",
    " V.",
    " P.",
    " Chand",
    " Lankan",
    " organisation",
    " intervention",
    " five-",
    " five-y",
    " five-year",
    " term.",
    " election.",
    " Bihar",
    " Vaj",
    " Vajpay",
    " Vajpaye",
    " short",
    " due",
    " El",
    "ections",
    " 1999.",
    " Democratic",
    " Alliance",
    " non-C",
    " non-Congress",
    "te",
    " NDA",
    " defeated",
    " defeated.",
    " (U",
    " Pres",
    " UPA",
    " support.",
    " 2009",
    " numbers,",
    " Modi",
    " abs",
    " unc",
    " uncom",
    " uncommon",
    "ities",
    " Government",
    " frame",
    " framework",
    " exerc",
    " state,",
    " reser",
    " legislature",
    " hous",
    " houses",
    " Sab",
    " Sabh",
    " Sabha,",
    " deleg",
    " delegates",
    " years,",
    " represent",
    "atives",
    " defin",
    " States,",
    "ayat",
    " committ",
    " committe",
    " (A",
    " (Ar",
    " (Art",
    "icle",
    "icles",
    "(2",
    "(2)",
    " Common",
    " Commonwe",
    " Commonwealth",
    " president,",
    " seats",
    " house",
    "cil",
    " decis",
    " compr",
    " comprising",
    " supreme",
    " courts,",
    " courts.",
    " jur",
    " juris",
    " jurisdic",
    " jurisdiction",
    " involving",
    " down",
    "vene",
    " any",
    " action",
    " territories",
    " Ter",
    " Delhi,",
    " States",
    "organ",
    " ling",
    " 1950.",
    " played",
    "Al",
    " cor",
    " relations",
    "urs",
    " 1965",
    " close",
    " So",
    " Sovi",
    " Soviet",
    " Union.",
    " arms",
    " produ",
    " produce",
    " weapons",
    " additional",
    "round",
    "-B",
    " Non-P",
    " Non-Prol",
    " Non-Prolif",
    " Non-Proliferation",
    " Treaty,",
    " discrimin",
    "eter",
    " doc",
    "tr",
    "ic,",
    " 2008,",
    " civilian",
    " agree",
    " rece",
    " International",
    " Agenc",
    " rest",
    " ten",
    " economies",
    " 2010.",
    " 2026,",
    " domestic",
    " (P",
    " annual",
    " historically",
    " policies",
    "idesp",
    "idespread",
    "side",
    " 1991",
    " emph",
    " emphas",
    " Or",
    " Organ",
    " Organiz",
    " Organization",
    " lab",
    " service",
    " GDP,",
    " US$1",
    " US$100",
    " 2022,",
    " highe",
    " highest",
    " contributed",
    " nin",
    " ninth",
    " exporter",
    " pet",
    " exports",
    " 42",
    " second-largest",
    " 2013",
    " calend",
    " 7.5",
    " 7.5%",
    " several",
    " Some",
    "31",
    " classes",
    "80",
    " 2.8",
    " exports.",
    " includes",
    "500",
    " contribut",
    "4.4",
    " top",
    " biot",
    " biotech",
    " ₹",
    "Indian",
    "24",
    " elect",
    "rical",
    " gig",
    " gigaw",
    " gigawat",
    " renewable",
    " cause",
    " green",
    " greenh",
    " greenhouse",
    "ons",
    " Inc",
    " Increasing",
    " residents",
    " brough",
    " brought",
    " decreasing",
    " 21.",
    " (199",
    "ality",
    " 11",
    " live",
    " whe",
    " whereas",
    " 2018",
    "1.1",
    " sex",
    " rati",
    " according",
    "40",
    " females",
    " males.",
    " fo",
    " foetic",
    " foeticid",
    " foeticide,",
    " stud",
    " do",
    "ped.",
    " dy",
    " 2001,",
    " Mum",
    " Mumba",
    " Mumbai,",
    " bre",
    " break",
    "down",
    " speakers",
    "ese,",
    " sole",
    "fficial",
    " (i",
    " international",
    " numeral",
    "ly.",
    " languages,",
    " others",
    " Ur",
    " Urdu",
    " sched",
    " scheduled",
    "ri,",
    "am,",
    "riya,",
    " Sant",
    " practic",
    " history,",
    "aith",
    "hip",
    "everal",
    " Sarn",
    " Ni",
    " percent",
    " percentage",
    " poin",
    " points",
    " Keral",
    " Kerala",
    " literacy,",
    " schools",
    " uni",
    " colleg",
    " colleges",
    " affir",
    " affirm",
    "den",
    " tub",
    " tuberc",
    " tubercul",
    " tuberculos",
    " tuberculosis",
    " dise",
    " diseas",
    "ath",
    " breath",
    " breathing",
    " WHO",
    "ety",
    "ival",
    "tt",
    "in,",
    " bott",
    " bottom",
    " therefore",
    "ogam",
    " marry",
    " formally",
    " related",
    " paren",
    " parents",
    " div",
    " divorce",
    " less",
    " married",
    "sha",
    " influences",
    " usually",
    " carved",
    " seal",
    " excav",
    " excavated",
    " best",
    "irt",
    " thereafter",
    " prob",
    " probably",
    "ood,",
    " distinct",
    " give",
    " Shiv",
    " Shiva",
    "ati.",
    " either",
    "ati,",
    " cut",
    " sites",
    " Aj",
    " Ajant",
    " artistic",
    " saw",
    " dominance",
    " Cav",
    " Ac",
    "one",
    " bron",
    " bronz",
    "ie",
    " Nat",
    " paintings",
    " ple",
    " inno",
    " innov",
    " everyday",
    "utt",
    "lit",
    " Ve",
    " Vedic",
    "yth",
    "ians.",
    " orally",
    " manuscript",
    " CE.",
    " mathematicians",
    "rigon",
    "rigonomet",
    " traditions",
    " Hindustani",
    " Carn",
    " Carnatic",
    " music.",
    "ga",
    " tal",
    " fil",
    " cin",
    " traditions.",
    "adem",
    " danc",
    " form,",
    "uk",
    " promin",
    " Chh",
    " Chhau",
    " Yaksh",
    " Yakshag",
    " Yakshagan",
    " fest",
    " example,",
    " 20th",
    "centur",
    "century",
    "cover",
    "ards",
    " cloth",
    " should",
    "-body",
    " (c. ",
    " (c. 1",
    " shalw",
    " tun",
    " tunic",
    " kur",
    " kurta",
    "ypically",
    " nar",
    " narrow",
    " churidar",
    " churidars.",
    " occas",
    " sports",
    " jac",
    " jacket",
    " gro",
    " groom",
    " cere",
    " cereal",
    " savour",
    " savoury",
    " steam",
    " steamed",
    " bread",
    " dishes",
    " meat,",
    " garlic",
    " garlic,",
    " vegetar",
    " cuis",
    " feature",
    " techni",
    " techniqu",
    " partially",
    " tand",
    " tando",
    " tandoor",
    " kh",
    " Che",
    " Chess",
    " Champ",
    " Cup",
    " Cups,",
    "Government",
    " web",
    "India,",
    " offic",
    " officially",
    " sevent",
    " seventh-largest",
    " area,",
    " Bound",
    " Bounded",
    " southwest,",
    " southeast",
    " southeast,",
    " shares",
    " west;",
    " Bhut",
    " Bhutan",
    " north;",
    " Ocean,",
    " Lanka",
    " Maldiv",
    " Maldives.",
    " Islands",
    " maritime",
    " border",
    " Thailand",
    "Mo",
    "Modern",
    " arri",
    " arrived",
    " predominant",
    " predominantly",
    " diverse.",
    " Settled",
    " 9,000",
    " evolving",
    " daw",
    " dawnings",
    " pre-",
    " pre-ex",
    " pre-existing",
    " arisen,",
    " proc",
    " proclaiming",
    " orders",
    " unl",
    " unlin",
    " unlinked",
    " heredity.",
    " consolidations",
    " Empires.",
    " era,",
    " flourish",
    " flourishing",
    " writing,",
    " declined",
    " declined,",
    " organised",
    " belief.",
    " scripts",
    " 1st",
    " Jud",
    " Judaism,",
    " coasts.",
    " 2nd",
    " intermitt",
    " intermittently",
    " plains.",
    " cosm",
    " cosmop",
    " cosmopol",
    " cosmopolit",
    " cosmopolitan",
    " networks",
    " Islam.",
    " long-l",
    " long-last",
    " long-lasting",
    " composite",
    " Sikhism",
    " emerged,",
    " reject",
    " rejecting",
    " institutional",
    " institutionalised",
    " religion.",
    " ushered",
    " expansion",
    " peace,",
    " architectural",
    " legac",
    " legacy.",
    " Gra",
    " Gradu",
    " Gradually",
    " consolidated",
    " sovereignty.",
    " Crow",
    " Crown",
    " 1858.",
    " promised",
    " granted",
    " slowly,",
    " technological",
    " introduced,",
    " ideas",
    " root",
    " root.",
    " non-European",
    " movements.",
    " Noted",
    " resist",
    " resistance",
    " 1920,",
    " partitioned",
    " dominions,",
    " Hindu-majority",
    " Muslim-majority",
    " unp",
    " unpre",
    " unpreced",
    " unprecedent",
    " unprecedented",
    " accomp",
    " accompan",
    " accompanied",
    " governed",
    " plural",
    " pluralistic",
    " pluralistic,",
    " multil",
    " multiling",
    " multilingual",
    " multi-eth",
    " multi-ethnic",
    " society.",
    " 1951",
    " 1.4",
    " US$64",
    " US$2,6",
    " US$2,60",
    " US$2,601,",
    " 16.6%",
    " 74%",
    " 74%.",
    " fast-growing",
    " technology,",
    " inequality",
    " inequality.",
    " nuclear-",
    " nuclear-we",
    " nuclear-weapon",
    " rank",
    " ranks",
    " expen",
    " expendi",
    " expendit",
    " expenditure.",
    " neighbours,",
    " mid-20",
    " mid-20th",
    " socio-",
    " socio-economic",
    " chall",
    " challeng",
    " challenges",
    " faces",
    " maln",
    " malnut",
    " malnutrit",
    " malnutrition,",
    " rising",
    " levels",
    " pollution.",
    " hotspots.",
    " wildlife,",
    " vie",
    " view",
    " viewed",
    " tol",
    " toler",
    " tolerance",
    " culture,",
    " habitats.",
    "According",
    " Ox",
    " Oxf",
    " Oxford",
    " Dic",
    " Diction",
    " Dictionary,",
    " proper",
    " noun",
    " \"India",
    " \"India\"",
    " derives",
    " Latin",
    " reference",
    " loosely",
    " loosely-d",
    " loosely-def",
    " loosely-defined",
    " stret",
    " stretch",
    " stretching",
    " China.",
    " Further",
    " ety",
    " etymon",
    " etymons",
    " Hell",
    " Hellen",
    " Hellenistic",
    " (Ἰνδί",
    " (Ἰνδία",
    " (Ἰνδία);",
    " Indos",
    " (Ἰνδό",
    " (Ἰνδός",
    " (Ἰνδός),",
    " Ri",
    " River",
    " Indus;",
    " Achaemenian",
    " (an",
    " province",
    " Achaemenid",
    " Empire);",
    " Sindhu,",
    " \"ri",
    " \"river",
    " \"river,",
    " \"river,\"",
    " specif",
    " specifically",
    " river,",
    " extension",
    " well-s",
    " well-settled",
    " basin.",
    " Greeks",
    " referred",
    " Indo",
    " Indoi,",
    " '",
    " 'the",
    " Indus'",
    " Indus'.",
    " (Bhā",
    " (Bhārat",
    " (Bhārat;",
    " pron",
    " pronoun",
    " pronounced",
    " [",
    " [ˈ",
    " [ˈb",
    " [ˈbʱ",
    " [ˈbʱaː",
    " [ˈbʱaːɾ",
    " [ˈbʱaːɾə",
    " [ˈbʱaːɾət",
    " [ˈbʱaːɾət]",
    " ),",
    " ment",
    " mention",
    " mentioned",
    " po",
    " poet",
    " poetry",
    " variations",
    " ren",
    " render",
    " rendering",
    " Bharatavar",
    " Bharatavarsh",
    " Bharatavarsha,",
    " currency",
    " mid-19",
    " mid-19th",
    " native",
    "Hin",
    "Hindust",
    "Hindustan",
    " ([",
    " ([ɦ",
    " ([ɦɪ",
    " ([ɦɪnd",
    " ([ɦɪndʊ",
    " ([ɦɪndʊˈ",
    " ([ɦɪndʊˈst",
    " ([ɦɪndʊˈstaː",
    " ([ɦɪndʊˈstaːn",
    " ([ɦɪndʊˈstaːn]",
    " )",
    " Hindustan",
    " varied,",
    " referr",
    " referring",
    " encom",
    " encompassing",
    " (p",
    " (present",
    " (present-day",
    " entire",
    " entirety.",
    "Based",
    " coalesc",
    " coalescence",
    " Mit",
    " Mitoch",
    " Mitochond",
    " Mitochondrial",
    " DN",
    " DNA",
    " Chrom",
    " Chromos",
    " Chromosome",
    " data,",
    " line",
    " lineages",
    " anatomically",
    " Hom",
    " Homo",
    " sap",
    " sapi",
    " sapiens",
    " 80,000",
    " 50,000",
    " likeli",
    " likelih",
    " likelihood",
    " initially",
    " varying",
    " diverse,",
    " genetic",
    " foss",
    " fossil",
    " fossils",
    " date",
    " 30,000",
    " Evidence",
    " neol",
    " neolith",
    " neolithic",
    " basin,",
    " Mehr",
    " Mehrg",
    " Mehrgar",
    " Mehrgarh",
    " Baloch",
    " Balochistan",
    " Balochistan,",
    " dates",
    " 7000",
    " Domestic",
    " Domestication",
    " grain",
    " grain-",
    " grain-pro",
    " grain-produc",
    " grain-producing",
    " plants",
    " barle",
    " barley",
    " barley)",
    " humped",
    " zeb",
    " zebu",
    " cattle)",
    " here.",
    " evolved",
    " Civilisation,",
    " flourished",
    " 2500–",
    " 2500–19",
    " 2500–1900",
    " Centred",
    " Har",
    " Harapp",
    " Harappa,",
    " Dh",
    " Dhol",
    " Dholavi",
    " Dholavira,",
    " Gan",
    " Ganw",
    " Ganweri",
    " Ganweriw",
    " Ganweriwala,",
    " Rakh",
    " Rakhig",
    " Rakhigar",
    " Rakhigarhi,",
    " weight",
    " weights,",
    " steat",
    " steatite",
    " seals,",
    " script,",
    " plann",
    " planning,",
    " works,",
    " arts",
    " cra",
    " craf",
    " crafts",
    " potter",
    " pottery",
    " terrac",
    " terracot",
    " terracotta",
    " statuett",
    " statuettes.",
    " Networks",
    " villages",
    " agro",
    " agro-p",
    " agro-pastoral",
    "Between",
    " 1500",
    " evidence",
    " Rig",
    " Ved",
    " Veda",
    " Veda—",
    " Veda—the",
    " scripture",
    " Hinduism—w",
    " Hinduism—wh",
    " Hinduism—which",
    " Indo-Aryan-sp",
    " Indo-Aryan-speak",
    " Indo-Aryan-speaking",
    " tribes",
    " migr",
    " migrating",
    " Afgh",
    " Afghan",
    " Afghanistan",
    " sett",
    " settl",
    " settling",
    " millennium,",
    " swat",
    " swathes",
    " system's",
    " adj",
    " adjoin",
    " adjoining",
    " deforest",
    " deforested,",
    " fires,",
    " employing",
    " iron",
    " implements,",
    " prep",
    " prepared",
    " agriculture.",
    " driving",
    " pree",
    " preex",
    " preexisting",
    " ens",
    " ensl",
    " enslaving",
    " family-",
    " family-di",
    " family-divid",
    " family-divide,",
    " spok",
    " spoken",
    " west,",
    " refined",
    " gram",
    " gramm",
    " grammatical",
    " emer",
    " emerge",
    " mid-1st",
    " codified",
    " Aṣ",
    " Aṣṭ",
    " Aṣṭā",
    " Aṣṭādh",
    " Aṣṭādhy",
    " Aṣṭādhyā",
    " Aṣṭādhyāy",
    " Aṣṭādhyāyī",
    " ('",
    " ('E",
    " ('Eight",
    " chapter",
    " chapters",
    " chapters'",
    " chapters')",
    " Pā",
    " Pāṇ",
    " Pāṇin",
    " Pāṇini.",
    " epics,",
    " Mahā",
    " Mahāb",
    " Mahābhā",
    " Mahābhār",
    " Mahābhārata",
    " Rā",
    " Rām",
    " Rāmā",
    " Rāmāya",
    " Rāmāyaṇ",
    " Rāmāyaṇa,",
    " oral",
    " story",
    " storytell",
    " storytelling",
    " registers",
    " Epic",
    " rough",
    " roughly",
    " contem",
    " contempor",
    " contemporary",
    " Sanskrit.",
    " taken",
    " plain.",
    " differenti",
    " differentiation",
    " caste,",
    " varna,",
    " emerged.",
    " mid-m",
    " mid-millennium",
    " arisen:",
    " teach",
    " teachings",
    " Mah",
    " Mahavi",
    " Mahavira",
    " Buddha.",
    " Both",
    " stressed",
    " abj",
    " abjured",
    " sac",
    " sacri",
    " sacrif",
    " sacrifices",
    " Brahman",
    " Brahmanism,",
    " fixed",
    " varna.",
    " ethically,",
    " socially",
    " mor",
    " morally",
    " religions.",
    " Chron",
    " Chronicl",
    " Chronicling",
    " history",
    " backd",
    " backdrop",
    " emergence",
    " geographically",
    " extensive",
    " foun",
    " founder",
    " founder's",
    " grands",
    " grandson,",
    " (ca.",
    " 268–2",
    " 268–23",
    " 268–232",
    " BCE),",
    " controlled",
    " arter",
    " arteries",
    " except",
    " deep",
    " empire's",
    " inscription",
    " inscriptions,",
    " texts,",
    " declining",
    " mainst",
    " mainstream",
    " speaking",
    " conqu",
    " conquest",
    " Kaling",
    " Kalinga,",
    " forces",
    " imm",
    " immense",
    " adopting",
    " dhamm",
    " dhamma",
    " commission",
    " commissioning",
    " numerous",
    " pill",
    " pillar",
    " throughout",
    " promot",
    " promote",
    " conduct,",
    " non-violence,",
    " welfare.",
    " forb",
    " forbade",
    " killing",
    " destr",
    " destruc",
    " destruction",
    " seen",
    " env",
    " envir",
    " environ",
    " environmental",
    " embodi",
    " embodiment",
    " etho",
    " ethos.",
    " 4th",
    " 5th",
    " taxation",
    " Plain;",
    " kingdoms.",
    " Under",
    " Gupt",
    " Guptas,",
    " renewed",
    " devotion,",
    " manage",
    " management",
    " rit",
    " ritual",
    " ritual,",
    " itsel",
    " itself",
    " itself.",
    " renewal",
    " reflected",
    " literature,",
    " sci",
    " science.",
    " Sang",
    " Sangam",
    " literature",
    " reve",
    " reveals",
    " peninsul",
    " peninsula",
    " Cher",
    " Cheras",
    " Cholas,",
    " respectively,",
    " Kaveri",
    " valley,",
    " Pandy",
    " Pandyas",
    " farther",
    " Vaig",
    " Vaigai",
    " valley.",
    " sixth",
    " Pallavas",
    " grown",
    " favou",
    " favoured",
    " conserv",
    " conservative",
    " transac",
    " transactional",
    " transactionalism,",
    " repl",
    " replaced",
    " kingly",
    " plac",
    " places,",
    " Bhak",
    " Bhakti",
    " Pallavas,",
    " particular,",
    " traded",
    " Rom",
    " Roman",
    " age,",
    " 600",
    " defined",
    " No",
    " ruler",
    " create",
    " consist",
    " consistently",
    " bey",
    " beyond",
    " core",
    " pastoral",
    " peopl",
    " peoples,",
    " accomm",
    " accommod",
    " accommodated",
    " society,",
    " non-t",
    " non-tra",
    " non-traditional",
    " classes.",
    " consequent",
    " consequently",
    " differenc",
    " differences.",
    " devotional",
    " Tamil.",
    " imit",
    " imitated",
    " resur",
    " resurg",
    " resurgence",
    " subcontinent.",
    " royal",
    " royalty,",
    " big",
    " small,",
    " patronised",
    " citizens",
    " capital",
    " well.",
    " sizes",
    " everyw",
    " everywhere",
    " underw",
    " underwent",
    " urbanisation.",
    " 8th",
    " 9th",
    " effects",
    " fel",
    " felt",
    " modern-day",
    " Thailand,",
    " La",
    " Lao",
    " Laos,",
    " Br",
    " Brune",
    " Brunei,",
    " Cam",
    " Camb",
    " Cambodi",
    " Cambodia,",
    " Viet",
    " Vietnam",
    " Vietnam,",
    " Ph",
    " Phil",
    " Phili",
    " Philipp",
    " Philippines,",
    " Malaysia,",
    " merchants,",
    " schol",
    " scholar",
    " scholars,",
    " transmission",
    " transmission;",
    " initiative",
    " well,",
    " soj",
    " sojour",
    " sojourning",
    " sem",
    " semin",
    " seminaries",
    " transl",
    " translating",
    " nom",
    " noma",
    " nomadic",
    " clan",
    " clans,",
    " using",
    " swif",
    " swift",
    " swift-",
    " swift-h",
    " swift-hor",
    " swift-horse",
    " caval",
    " cavalry",
    " raising",
    " ethnic",
    " ethnicity,",
    " Asia's",
    " north-western",
    " establish",
    " establishment",
    " 120",
    " 1206.",
    " foray",
    " forays",
    " disrup",
    " disruptive",
    " non-M",
    " non-Muslim",
    " subject",
    " customs.",
    " repuls",
    " repulsing",
    " Mong",
    " Mongol",
    " raiders",
    " saved",
    " devastation",
    " visited",
    " scene",
    " fle",
    " flee",
    " fleeing",
    " sol",
    " soldi",
    " soldiers,",
    " lear",
    " learn",
    " learned",
    " my",
    " myst",
    " mystic",
    " mystics,",
    " trader",
    " traders,",
    " artist",
    " artists,",
    " thereb",
    " thereby",
    " syn",
    " sync",
    " syncret",
    " syncretic",
    " Indo-I",
    " Indo-Isl",
    " Indo-Islam",
    " Indo-Islamic",
    " north.",
    " sultanate's",
    " raiding",
    " weak",
    " weakening",
    " pav",
    " paved",
    " Emb",
    " Embrac",
    " Embracing",
    " Sha",
    " Shaiv",
    " Shaivite",
    " building",
    " upon",
    " sultanate,",
    " society",
    " afterward",
    " afterwards.",
    " 16th",
    " rulers,",
    " fell",
    " superi",
    " superior",
    " mob",
    " mobility",
    " firep",
    " firepower",
    " generation",
    " warriors.",
    " stamp",
    " societies",
    " Instead",
    " Instead,",
    " balanced",
    " pac",
    " pacified",
    " administrative",
    " practices",
    " inclus",
    " inclusive",
    " systematic",
    " systematic,",
    " centralised",
    " centralised,",
    " unif",
    " uniform",
    " Esc",
    " Esche",
    " Eschewing",
    " ident",
    " identity,",
    " Akbar,",
    " Mughals",
    " far-f",
    " far-fl",
    " far-flung",
    " real",
    " realms",
    " loyal",
    " loyalty",
    " loyalty—",
    " loyalty—ex",
    " loyalty—exp",
    " loyalty—expressed",
    " Persianised",
    " culture—",
    " culture—t",
    " culture—to",
    " near-",
    " near-div",
    " near-divine",
    " status.",
    " state's",
    " policies,",
    " deriving",
    " mandating",
    " taxes",
    " paid",
    " well-",
    " well-reg",
    " well-regul",
    " well-regulated",
    " silver",
    " currency,",
    " peas",
    " peasants",
    " maintained",
    " expansion,",
    " patronage",
    " forms,",
    " textiles,",
    " architecture.",
    " Newly",
    " coherent",
    " groups",
    " Marath",
    " Marathas,",
    " governing",
    " amb",
    " ambitions",
    " rule,",
    " which,",
    " collab",
    " collabor",
    " collaboration",
    " adversity",
    " adversity,",
    " recognition",
    " experi",
    " experience.",
    " Exp",
    " Expand",
    " Expanding",
    " coasts",
    " incre",
    " incremental",
    " frag",
    " fragment",
    " fragmentation",
    " au",
    " auth",
    " authority",
    " facilitated",
    " decent",
    " decentral",
    " decentralisation",
    " decentralisation,",
    " enabling",
    " provinc",
    " provincial",
    " localised",
    " autonom",
    " autonomy",
    " consolidate",
    " affairs.",
    " lines",
    " enterp",
    " enterpr",
    " enterprise",
    " sovereignty",
    " blurred",
    " blurred,",
    " charter",
    " chartered",
    " companies—",
    " companies—n",
    " companies—not",
    " companies—notably",
    " Company—s",
    " Company—soli",
    " Company—solidified",
    " outp",
    " outpost",
    " outposts.",
    " Company's",
    " seas,",
    " resourc",
    " resources,",
    " training",
    " attractive",
    " elite",
    " elite;",
    " factors",
    " allowing",
    " gain",
    " 176",
    " 1765",
    " sidel",
    " sideline",
    " companies.",
    " ric",
    " riches",
    " size",
    " army",
    " enabled",
    " annex",
    " annexe",
    " subdu",
    " subdue",
    " 1820",
    " 1820s.",
    " exporting",
    " manufactured",
    " had,",
    " instead",
    " supply",
    " supplying",
    " raw",
    " materials.",
    " curta",
    " curtailed",
    " effectively",
    " administration,",
    " consci",
    " consciously",
    " non-economic",
    " aren",
    " arenas,",
    " education,",
    " reform,",
    " appoint",
    " appointment",
    " 184",
    " 1848",
    " Lord",
    " Dalh",
    " Dalhou",
    " Dalhousi",
    " Dalhousie",
    " Govern",
    " Governor",
    " General",
    " stage",
    " state:",
    " consolidation",
    " demar",
    " demarc",
    " demarcation",
    " sovereignty,",
    " surve",
    " surveill",
    " surveillance",
    " citizen",
    " citizens.",
    " Tech",
    " Technolog",
    " Technological",
    " changes—",
    " changes—am",
    " changes—among",
    " them,",
    " canals,",
    " teleg",
    " telegraph",
    " telegraph—w",
    " telegraph—were",
    " introduction",
    " Disa",
    " Disaff",
    " Disaffection",
    " Rebellion",
    " 1857.",
    " Fed",
    " resent",
    " resentments",
    " perce",
    " perception",
    " perceptions,",
    " invasive",
    " reforms,",
    " har",
    " harsh",
    " taxes,",
    " summary",
    " treat",
    " treatment",
    " wealth",
    " wealthy",
    " landown",
    " landowners",
    " princ",
    " princes,",
    " rocked",
    " shook",
    " foundations",
    " suppressed",
    " 1858,",
    " disb",
    " disband",
    " disbanded,",
    " administer",
    " Proc",
    " Proclaiming",
    " gradual",
    " rulers",
    " prin",
    " princes",
    " landed",
    " gent",
    " gentry",
    " feud",
    " feudal",
    " fut",
    " future",
    " unre",
    " unrest",
    " unrest.",
    " following,",
    " founding",
    " 188",
    " 1885.",
    " rush",
    " commercialisation",
    " setback",
    " setbacks,",
    " farmers",
    " whim",
    " whims",
    " faraw",
    " faraway",
    " increase",
    " famines,",
    " despite",
    " ris",
    " risks",
    " infra",
    " infrastruc",
    " infrastructure",
    " borne",
    " taxpay",
    " taxpayers,",
    " little",
    " employment",
    " cropp",
    " cropping,",
    " newly",
    " canalled",
    " production",
    " internal",
    " consumption.",
    " critical",
    " famine",
    " relief,",
    " notably",
    " moving",
    " goods,",
    " hel",
    " helped",
    " nas",
    " nascent",
    " Indian-",
    " Indian-own",
    " Indian-owned",
    " industry.",
    " I,",
    " 1.3",
    " served,",
    " Gandhian",
    " began.",
    " reforms",
    " repressive",
    " legislation,",
    " strident",
    " call",
    " calls",
    " self-r",
    " self-rul",
    " self-rule,",
    " non-co-operation",
    " Mahat",
    " Mahatma",
    " Gandhi.",
    " 1930s,",
    " legislative",
    " reform;",
    " bes",
    " beset",
    " crises",
    " crises:",
    " particip",
    " participation",
    " Congress's",
    " fin",
    " final",
    " non-co-op",
    " non-co-oper",
    " non-co-operation,",
    " ups",
    " upsur",
    " upsurge",
    " nationalism.",
    " capped",
    " temp",
    " tempered",
    " states:",
    " 1950",
    " republic.",
    " Econom",
    " Economic",
    " ham",
    " hamstr",
    " hamstrung",
    " persistent",
    " poverty,",
    " urban;",
    " religious-",
    " caste-",
    " caste-re",
    " caste-rel",
    " caste-related",
    " violence;",
    " Mao",
    " Maoist",
    " Maoist-",
    " Maoist-ins",
    " Maoist-insp",
    " Maoist-inspire",
    " Maoist-inspired",
    " Nax",
    " Naxal",
    " Naxalite",
    " insur",
    " insurgenc",
    " insurgencies",
    " insurgencies;",
    " separatism",
    " accounts",
    " lying",
    " atop",
    " tect",
    " tectonic",
    " plate,",
    " Indo-Aust",
    " Indo-Austral",
    " Indo-Australian",
    " defining",
    " geologic",
    " processes",
    " 70",
    " Plate,",
    " north-east",
    " north-eastward",
    " drift",
    " seaf",
    " seaflo",
    " seafloor",
    " south-west,",
    " south-east",
    " south-east.",
    " Teth",
    " Tethyan",
    " ocean",
    " oceanic",
    " northeast",
    " northeast,",
    " subduc",
    " subduct",
    " Euras",
    " Eurasian",
    " continent",
    " continental",
    " obstructed",
    " sheared",
    " hor",
    " horiz",
    " horizon",
    " horizont",
    " horizontally.",
    " mant",
    " mantle",
    " sl",
    " slid",
    " under,",
    " piled",
    " sheets",
    " (or",
    " napp",
    " nappes)",
    " ahead",
    " subduction",
    " zon",
    " zone.",
    " oro",
    " orogen",
    " orogeny,",
    " moun",
    " mount",
    " mountain",
    " building,",
    " stiffer",
    " Tibet,",
    " causing",
    " crustal",
    " thick",
    " thickening",
    " Tibetan",
    " Plateau.",
    " Im",
    " Immediately",
    " emerging",
    " cres",
    " crescent",
    " crescent-",
    " crescent-sh",
    " crescent-shap",
    " crescent-shaped",
    " trough",
    " rapidly",
    " fill",
    " filled",
    " river-b",
    " river-bor",
    " river-borne",
    " constitutes",
    " Plain.",
    " appearance",
    " Araval",
    " Aravalli",
    " range,",
    " Rid",
    " Ridge",
    " southwest",
    " southwesterly",
    " direction",
    " direction.",
    " chec",
    " checked",
    " Arav",
    " Aravall",
    " Aravallis.",
    " geologically",
    " stable",
    " Sat",
    " Satpur",
    " Satpura",
    " Vindh",
    " Vindhya",
    " paralle",
    " parallel",
    " chains",
    " run",
    " coal-r",
    " coal-rich",
    " Chot",
    " Chota",
    " Nag",
    " Nagpur",
    " Jharkhand",
    " landmas",
    " landmass,",
    " flanked",
    " Ghats;",
    " plateau",
    " formation",
    " formations,",
    " old.",
    " Constituted",
    " fashion,",
    " equator",
    " 6°",
    " 44",
    " 44′",
    " 35",
    " 35°",
    " 30′",
    " latitude",
    " 68",
    " 68°",
    " 7′",
    " 97",
    " 97°",
    " 25′",
    " longitud",
    " longitude.",
    "Major",
    " Himalayan-",
    " Himalayan-or",
    " Himalayan-orig",
    " Himalayan-origin",
    " rivers",
    " Brahmaputra,",
    " Bengal.",
    " Imp",
    " Import",
    " Important",
    " tribut",
    " tributaries",
    " Yam",
    " Yamun",
    " Yamuna",
    " Kosi.",
    " Kosi's",
    " gradient,",
    " long-",
    " long-ter",
    " long-term",
    " silt",
    " depos",
    " deposition",
    " deposition,",
    " leads",
    " severe",
    " floods",
    " course",
    " chang",
    " changes.",
    " Major",
    " steep",
    " steeper",
    " gradients",
    " wat",
    " waters",
    " flooding,",
    " God",
    " Godavar",
    " Godavari,",
    " Mahan",
    " Mahanadi",
    " Mahanadi,",
    " Kaveri,",
    " Kr",
    " Krish",
    " Krishn",
    " Krishna,",
    " Bengal;",
    " Narm",
    " Narmada",
    " Tap",
    " Tapt",
    " Tapti,",
    " measures",
    " 7,",
    " 7,51",
    " 7,517",
    " (4,",
    " (4,7",
    " (4,700",
    " length;",
    " distance,",
    " 5,42",
    " 5,423",
    " (3,",
    " (3,400",
    " 2,",
    " 2,0",
    " 2,094",
    " (1,",
    " (1,300",
    " Andaman,",
    " Nicobar,",
    " island",
    " chains.",
    " naval",
    " hyd",
    " hydro",
    " hydrog",
    " hydrograph",
    " hydrographic",
    " charts,",
    " mainland",
    " following:",
    " 43%",
    " sandy",
    " beac",
    " beaches",
    " beaches;",
    " 11%",
    " rocky",
    " shores,",
    " cli",
    " cliff",
    " cliffs;",
    " 46%",
    " mud",
    " mudf",
    " mudfl",
    " mudflats",
    " shores.",
    " Co",
    " Coast",
    " Coastal",
    " Rann",
    " Kut",
    " Kutch",
    " allu",
    " alluv",
    " alluvial",
    " Sund",
    " Sundar",
    " Sundarb",
    " Sundarbans",
    " del",
    " delta",
    " India;",
    " Bangladesh.",
    " archip",
    " archipel",
    " archipelag",
    " archipelagos",
    " archipelagos:",
    " coral",
    " atol",
    " atolls",
    " south-western",
    " coast;",
    " volcanic",
    " climate",
    " drive",
    " economically",
    " cultur",
    " culturally",
    " piv",
    " pivot",
    " pivotal",
    " winter",
    " monsoons.",
    " cold",
    " kat",
    " katab",
    " katabatic",
    " blowing",
    " in,",
    " ke",
    " keep",
    " keeping",
    " warmer",
    " locations",
    " latitudes.",
    " Desert",
    " plays",
    " attracting",
    " moisture",
    " moisture-l",
    " moisture-lad",
    " moisture-laden",
    " south-west",
    " October,",
    " provide",
    " rain",
    " rainf",
    " rainfall",
    " rainfall.",
    "Four",
    " groupings",
    " predominate",
    " India:",
    " wet,",
    " dry,",
    " subt",
    " subtropical",
    " humid",
    " humid,",
    " mont",
    " montan",
    " montane.",
    " Temper",
    " Temperatures",
    " risen",
    " 0.7",
    " °C",
    " (1.",
    " (1.3",
    " °F",
    " °F)",
    " 190",
    " 1901",
    " 2018.",
    " Clim",
    " Climate",
    " change",
    " cause.",
    " retreat",
    " gl",
    " glac",
    " glaci",
    " glaciers",
    " adverse",
    " adversely",
    " affected",
    " Brahmaputra.",
    " current",
    " projection",
    " projections,",
    " severity",
    " drough",
    " droughts",
    " will",
    " markedly",
    " countries",
    " biological",
    " indigenou",
    " indigenous,",
    " endemic,",
    " 8.",
    " 8.6%",
    " 13.",
    " 13.7%",
    " bird",
    " 7.9%",
    " reptile",
    " 12.2%",
    " 6.",
    " 6.0%",
    " Ful",
    " Fully",
    " endemic.",
    " overl",
    " overlaps",
    " hotspots,",
    " endemism.",
    " occupy",
    " 3%",
    " Moder",
    " Moderately",
    " canop",
    " canopy",
    " dens",
    " density",
    " 70%,",
    " occupies",
    " 9.",
    " 9.3",
    " 9.39%",
    " predominates",
    " temper",
    " temperate",
    " conif",
    " coniferous",
    " sal",
    " dry",
    " teak",
    " natural",
    " zones",
    " plain,",
    " irrig",
    " irrigation,",
    " visi",
    " visible",
    " visible.",
    " subcontinent's",
    " tre",
    " trees",
    " astr",
    " astring",
    " astringent",
    " Az",
    " Azadi",
    " Azadira",
    " Azadirach",
    " Azadirachta",
    " indic",
    " indica,",
    " neem",
    " neem,",
    " herbal",
    " medicine,",
    " lu",
    " lux",
    " luxur",
    " luxuriant",
    " Fic",
    " Ficus",
    " religiosa,",
    " peep",
    " peepul",
    " peepul,",
    " displayed",
    " Pali",
    " canon",
    " sought",
    " enl",
    " enligh",
    " enlighten",
    " enlightenment.",
    "Many",
    " descend",
    " descended",
    " separ",
    " separated",
    " 100",
    " collision",
    " Eurasia",
    " mass",
    " volcanism",
    " extinction",
    " mammals",
    " entered",
    " zo",
    " zoo",
    " zooge",
    " zoogeographic",
    " passes",
    " flanking",
    " lowered",
    " endemism",
    " stands",
    " 12.6%",
    " 12.6%,",
    " contrast",
    " contrasting",
    " 45.8%",
    " reptiles",
    " 55.8%",
    " amphibians.",
    " endemics",
    " vul",
    " vuln",
    " vulner",
    " vulnerable",
    " hood",
    " hooded",
    " leaf",
    " monkey",
    " Bedd",
    " Beddome",
    " Beddome's",
    " toad",
    " Ghats.",
    " 172",
    " IU",
    " IUC",
    " IUCN",
    " IUCN-des",
    " IUCN-design",
    " IUCN-designated",
    " 2.9%",
    " tiger",
    " dol",
    " dolph",
    " dolphin",
    " dolphin.",
    " Crit",
    " Critically",
    " ghar",
    " gharial",
    " gharial,",
    " croc",
    " crocodi",
    " crocodili",
    " crocodilian",
    " crocodilian;",
    " bust",
    " bustard",
    " bustard;",
    " white",
    " white-r",
    " white-rum",
    " white-rumped",
    " vult",
    " vulture,",
    " nearly",
    " ingest",
    " ingested",
    " carr",
    " carrion",
    " dic",
    " diclo",
    " diclof",
    " diclofen",
    " diclofenac",
    " diclofenac-",
    " diclofenac-tre",
    " diclofenac-treated",
    " cattle.",
    " Bef",
    " Before",
    " settlement,",
    " forests",
    " ming",
    " mingled",
    " interv",
    " intervals",
    " grass",
    " grasslands",
    " grazed",
    " herds",
    " prey",
    " preyed",
    " Asiatic",
    " cheetah;",
    " blackbuck,",
    " extinct.",
    " pervasive",
    " ec",
    " ecolog",
    " ecologically",
    " devastating",
    " encro",
    " encroach",
    " encroachment",
    " critically",
    " wildlife.",
    " response,",
    " parks",
    " areas,",
    " 1935,",
    " expanded",
    " substantially.",
    " 1972,",
    " Wild",
    " Wildlif",
    " Wildlife",
    " Prot",
    " Protection",
    " Project",
    " Tiger",
    " wil",
    " wildern",
    " wilderness",
    " wilderness;",
    " Forest",
    " Cons",
    " Conserv",
    " Conservation",
    " 1980",
    " 1988.",
    " hosts",
    " hund",
    " hundred",
    " wildlife",
    " san",
    " sanct",
    " sanctu",
    " sanctuaries",
    " eighte",
    " eighteen",
    " biosphere",
    " reserv",
    " reserves,",
    " Biosphere",
    " Res",
    " Reserv",
    " Reserves",
    " Reserves;",
    " eigh",
    " eighty",
    " eighty-",
    " eighty-n",
    " eighty-nine",
    " wetlands",
    " registered",
    " Ramsar",
    " Convention",
    " Convention.",
    " multi-p",
    " multi-par",
    " multi-party",
    " recognised",
    " parties",
    " (g",
    " (gener",
    " (generally,",
    " \"the",
    " Congress\")",
    " Bharati",
    " Bharatiya",
    " Party",
    " (BJP",
    " (BJP);",
    " parties.",
    " considered",
    " ideological",
    " culture;",
    " right-",
    " right-wing",
    " far-",
    " far-ri",
    " far-righ",
    " far-right",
    " far-right.",
    " Au",
    " Aug",
    " August",
    " 15,",
    " Domin",
    " Dominion",
    " 26,",
    " republic;",
    " caret",
    " caretak",
    " caretaker",
    " 1957,",
    " 1962,",
    " Cong",
    " Congres",
    " Congress,",
    " Nehru,",
    " margins.",
    " May",
    " 1964,",
    " Lal",
    " Bahad",
    " Bahadur",
    " unan",
    " unanim",
    " unanimously",
    " thus",
    " India–",
    " India–P",
    " India–Pakistan",
    " 1966,",
    " signing",
    " Tash",
    " Tashk",
    " Tashkent",
    " Pe",
    " Peace",
    " Decl",
    " Declar",
    " Declaration",
    " Declaration.",
    " chose",
    " 1967",
    " landsl",
    " landslide",
    " Pakistan's",
    " defe",
    " defeat",
    " Li",
    " Liber",
    " Liberation",
    " War.",
    " 1975,",
    " emergency,",
    " sus",
    " susp",
    " suspending",
    " libert",
    " liberties.",
    " discon",
    " discont",
    " discontent",
    " 1977",
    " 1977;",
    " Party,",
    " opposed",
    " in.",
    " Mor",
    " Morar",
    " Morarj",
    " Morarji",
    " Desai",
    " Char",
    " Charan",
    " 1980.",
    " oper",
    " operation",
    " militants",
    " occupying",
    " Gold",
    " Golden",
    " Am",
    " Amrit",
    " Amritsar",
    " Amritsar,",
    " bodyguard",
    " 31,",
    " 1984.",
    " succe",
    " succeed",
    " succeeded",
    " Gandhi,",
    " victory",
    " 1989,",
    " Dal,",
    " Lef",
    " Left",
    " Front,",
    " Chandra",
    " Shek",
    " Shekhar",
    " round",
    " polling",
    " leader",
    " separatist",
    " see",
    " seek",
    " seeking",
    " aven",
    " avenge",
    " war.",
    " elections,",
    " party;",
    " Naras",
    " Narasim",
    " Narasimh",
    " Narasimha",
    " Ra",
    " Rao,",
    " minority",
    " ful",
    " full",
    " 1996,",
    " winning",
    " followed,",
    " relied",
    " support,",
    " H.",
    " D.",
    " Deve",
    " Gow",
    " Gowd",
    " Gowda",
    " I.",
    " K.",
    " Gujral",
    " serving",
    " 1998",
    " Atal",
    " Bihari",
    " Vajpayee",
    " minister;",
    " short-",
    " short-li",
    " short-lived",
    " lack",
    " mandate",
    " mandate.",
    " Elections",
    " BJP,",
    " (N",
    " (NDA",
    " (NDA),",
    " Vajpayee,",
    " complete",
    " 2004",
    " Prog",
    " Progressive",
    " (UPA",
    " (UPA).",
    " Man",
    " Manm",
    " Manmo",
    " Manmohan",
    " Singh,",
    " Sikh,",
    " prop",
    " propos",
    " proposed",
    " President",
    " Son",
    " Soni",
    " Sonia",
    " re-",
    " re-el",
    " re-elected",
    " 1962.",
    " 2014",
    " Naren",
    " Narend",
    " Narendra",
    " 1984",
    " absol",
    " absolute",
    " majority.",
    " 2019",
    " los",
    " losing",
    " 2024",
    " partn",
    " partners.",
    " lon",
    " longest",
    " longest-s",
    " longest-ser",
    " longest-serving",
    " backsl",
    " backslid",
    " backsliding",
    " 2026",
    " V-",
    " V-D",
    " V-Dem",
    " Democrac",
    " Democracy",
    " Report",
    " Report.",
    " draf",
    " drafted",
    " spe",
    " speed",
    " absence",
    " irreg",
    " irregular",
    " irregularities",
    " 1946",
    " 1949.",
    " 1935",
    " framework.",
    " Long",
    " passages",
    " included.",
    " describ",
    " describes",
    " struc",
    " structure",
    " conspic",
    " conspicuous",
    " exclus",
    " exclusively",
    " exercised",
    " defence",
    " defence,",
    " affairs,",
    " ports,",
    " currency.",
    " President,",
    " reserve",
    " powers",
    " taking",
    " state.",
    " houses:",
    " Lok",
    " Rajya",
    " members",
    " nominated",
    " representatives",
    " states.",
    " 1935.",
    " definition",
    " directiv",
    " directives,",
    " go",
    " goals",
    " ende",
    " endeav",
    " endeavor",
    " endeavor,",
    " Ire",
    " Ireland",
    " Ireland.",
    " recom",
    " recommend",
    " recommended",
    " panch",
    " panchayat",
    " committees.",
    " Untouchability",
    " il",
    " illeg",
    " illegal",
    " (Article",
    " 17)",
    " distinctions",
    " derec",
    " derecog",
    " derecogni",
    " derecognized",
    " (Articles",
    " 15(2)",
    " 16(2)",
    " 16(2)).",
    " promul",
    " promulg",
    " promulgation",
    " Commonwealth.",
    " exercises",
    " App",
    " Appoin",
    " Appointed",
    " vice",
    " vice-p",
    " vice-pres",
    " vice-president,",
    " Coun",
    " Council",
    " Minister",
    " Ministers",
    " Ministers—w",
    " Ministers—with",
    " cab",
    " cabin",
    " cabinet",
    " committee",
    " committee—",
    " committee—head",
    " committee—headed",
    " Any",
    " hold",
    " holding",
    " portf",
    " portfoli",
    " portfolio",
    " must",
    " subord",
    " subordin",
    " subordinate",
    " legislature;",
    " council",
    " responsi",
    " responsible",
    " servants",
    " act",
    " perm",
    " perman",
    " permanent",
    " executives",
    " decisions",
    " implemented",
    " three-",
    " three-ti",
    " three-tier",
    " ju",
    " judi",
    " judici",
    " judiciary",
    " court,",
    " headed",
    " Chi",
    " Chief",
    " Just",
    " Justice",
    " trial",
    " cas",
    " cases",
    " appell",
    " appellate",
    " strike",
    " contravene",
    " inval",
    " invalid",
    " invalidate",
    " deem",
    " deems",
    " uncon",
    " unconstitution",
    " unconstitutional",
    " unconstitutional.",
    " states,",
    " Kashmir,",
    " Pud",
    " Puduc",
    " Puducher",
    " Puducherry",
    " Cap",
    " Capit",
    " Capital",
    " Territor",
    " Territory",
    " legislatures",
    " Westmin",
    " Westminst",
    " Westminster",
    " appointed",
    " administrat",
    " administrators.",
    " 1956,",
    " Reorgan",
    " Reorganisation",
    " Act,",
    " reorgan",
    " reorganised",
    " lingu",
    " linguistic",
    " basis.",
    " quar",
    " quarter",
    " bodi",
    " bodies",
    " city,",
    " town,",
    " distric",
    " district,",
    " bloc",
    " block",
    " levels.",
    " Nations",
    " decol",
    " decolon",
    " decolonisation",
    " Non-Al",
    " Non-Align",
    " Non-Aligned",
    " Movement",
    " Movement.",
    " cordi",
    " cordial",
    " 1962",
    " 1962;",
    " decisively",
    " 1967,",
    " fend",
    " Chines",
    " Chinese",
    " excurs",
    " excursions",
    " Sikk",
    " Sikkim",
    " Sikkim.",
    " une",
    " uneas",
    " uneasy",
    " neighbour,",
    " Three",
    " wars",
    " fought",
    " disputed",
    " territory",
    " Kashmir.",
    " war,",
    " purs",
    " pursue",
    " ties",
    " 1960s,",
    " suppli",
    " supplier.",
    "Ch",
    "Chin",
    "China",
    "China's",
    " 59",
    " 596",
    " threats",
    " intervene",
    " weapons.",
    " 1974",
    " carri",
    " carried",
    " underg",
    " underground",
    " testing",
    " 1998.",
    " neither",
    " Compre",
    " Comprehen",
    " Comprehens",
    " Comprehensive",
    " Nuclear-",
    " Nuclear-T",
    " Nuclear-Test",
    " Nuclear-Test-B",
    " Nuclear-Test-Ban",
    " Treaty",
    " nor",
    " considering",
    " flaw",
    " flawed",
    " discriminator",
    " discriminatory.",
    " maintains",
    " \"no",
    " use\"",
    " developing",
    " tri",
    " triad",
    " capability",
    " \"M",
    " \"Min",
    " \"Minim",
    " \"Minimum",
    " Credi",
    " Credible",
    " Deter",
    " Deterren",
    " Deterrence",
    " Deterrence\"",
    " doctr",
    " doctrine.",
    "Since",
    " Cold",
    " War,",
    " economic,",
    " strate",
    " strateg",
    " strategic,",
    " cooperation",
    " agreement",
    " States.",
    " poss",
    " possess",
    " possessed",
    " received",
    " wai",
    " waivers",
    " Atom",
    " Atomic",
    " Ener",
    " Energy",
    " Agency",
    " Sup",
    " Supp",
    " Suppli",
    " Suppliers",
    " Gr",
    " Group",
    " Group,",
    " earlier",
    " restric",
    " restriction",
    " restrictions",
    " commerce;",
    " co-",
    " co-operation",
    " agreements",
    " Rus",
    " Russia,",
    " Fr",
    " France,",
    " King",
    " Kingdom",
    " Kingdom,",
    " Can",
    " Canad",
    " Canada.",
    " gross",
    " output",
    " (G",
    " (GDP",
    " (GDP)",
    " placed",
    " Meas",
    " Measured",
    " pur",
    " purch",
    " purchas",
    " purchasing",
    " parity",
    " (PP",
    " (PPP",
    " (PPP),",
    " fastest",
    " fastest-growing",
    " exceed",
    " exceeding",
    " 5%",
    " 1990",
    " Dem",
    " Demographic",
    " Demographics",
    " stra",
    " strain",
    " maintain",
    " maintaining",
    " regionally",
    " measured",
    " glob",
    " globally.",
    " low-",
    " low-inc",
    " low-income",
    " dai",
    " daily",
    " income.",
    "Un",
    "Until",
    " followed",
    " protection",
    " protectionist",
    " socialist",
    " economics.",
    " Widespread",
    " regul",
    " regulation",
    " walled",
    " outside",
    " acute",
    " balance",
    " pay",
    " payments",
    " cris",
    " crisis",
    " forced",
    " liberalise",
    " economy;",
    " then,",
    " moved",
    " toward",
    " towards",
    " free",
    " free-",
    " free-mar",
    " free-market",
    " emphasising",
    " inve",
    " invest",
    " investment",
    " inflow",
    " inflows.",
    " Tra",
    " Trade",
    " 1995.",
    " 52",
    " 522",
    " 522-m",
    " 522-million",
    " 522-million-",
    " 522-million-work",
    " 522-million-worker",
    " labour",
    " force",
    " largest,",
    " 2017.",
    " 55.",
    " 55.6%",
    " 26.",
    " 26.3%",
    " 18.",
    " 18.1",
    " 18.1%.",
    " remitt",
    " remittances",
    " world,",
    " 32",
    " working",
    " countries.",
    " 2006,",
    " stood",
    " 24%",
    " 24%,",
    " 1985.",
    " 1.6%",
    " 1.6%;",
    " 2021,",
    " ninth-largest",
    " impor",
    " importer",
    " sixte",
    " sixteent",
    " sixteenth-largest",
    " exporter.",
    " Between",
    " petroc",
    " petrochem",
    " petrochemical",
    " eng",
    " engine",
    " engineering",
    " 14%",
    " 42%.",
    " textile",
    " calendar",
    "Aver",
    "Averag",
    "Averaging",
    " 2007,",
    " dou",
    " doub",
    " doubled",
    " hour",
    " hourly",
    " wage",
    " 21st",
    " 431",
    " 1985",
    " 1985;",
    " projected",
    " 580",
    " 203",
    " 2030.",
    " 2024,",
    " consumer",
    " largest.",
    " steadi",
    " steadily",
    " US$3",
    " US$30",
    " US$308",
    " began,",
    " US$1,",
    " US$1,3",
    " US$1,380",
    " 2010,",
    " US$2,7",
    " US$2,731",
    " 2024.",
    " expected",
    " US$3,",
    " US$3,2",
    " US$3,264",
    " 2026.",
    " autom",
    " automot",
    " automotive",
    " industry,",
    " second-f",
    " second-fast",
    " second-fastest",
    " growing,",
    " sales",
    " 2009–201",
    " 2009–2010,",
    " 36%",
    " 2008–2",
    " 2008–200",
    " 2008–2009.",
    " veh",
    " vehicle",
    " surpassing",
    " Jap",
    " Japan",
    " Japan.",
    " IT",
    " prof",
    " profess",
    " profession",
    " professionals,",
    " equall",
    " equalling",
    " merchan",
    " merchandi",
    " merchandise",
    " 3,000",
    " 10,",
    " 10,500",
    " manufacturing",
    " units;",
    " producer,",
    " producer",
    " generic",
    " medicines,",
    " supplies",
    " 50–",
    " 50–6",
    " 50–60%",
    " vac",
    " vacc",
    " vaccines",
    " demand,",
    " contributing",
    " US$2",
    " US$24.4",
    " US$24.44",
    " US$42",
    " billion.",
    " destin",
    " destinations",
    " 15.",
    " 15.1%",
    " 2012",
    " 2012–201",
    " 2012–2013,",
    " ₹20",
    " ₹204.4",
    " (Indian",
    " rup",
    " rupe",
    " rupees)",
    " ₹2",
    " ₹23",
    " ₹235.",
    " ₹235.24",
    " (US$",
    " (US$3.",
    " (US$3.94",
    " rates).",
    " capac",
    " capacity",
    " generate",
    " electrical",
    " gigawatts,",
    " gigawatts",
    " renewable.",
    " usage",
    " emiss",
    " emissions,",
    " growing.",
    " emit",
    " emits",
    " 7%",
    " emission",
    " emissions.",
    " equates",
    " 2.5",
    " tons",
    " carb",
    " carbon",
    " dio",
    " diox",
    " dioxide",
    " person",
    " year,",
    " average.",
    " electric",
    " electricity",
    " clean",
    " liqu",
    " liquef",
    " liquefied",
    " petrol",
    " petrole",
    " petroleum",
    " prior",
    " priorities",
    "With",
    " 1,42",
    " 1,428,",
    " 1,428,6",
    " 1,428,62",
    " 1,428,627,",
    " 1,428,627,6",
    " 1,428,627,66",
    " 1,428,627,663",
    " 2023,",
    " country.",
    " 1,",
    " 1,2",
    " 1,21",
    " 1,210,",
    " 1,210,19",
    " 1,210,193,",
    " 1,210,193,42",
    " 1,210,193,422",
    " reported",
    " provision",
    " provisional",
    " report.",
    " median",
    " 28.",
    " 28.7",
    " 2020.",
    " Medic",
    " Medical",
    " advances",
    " product",
    " productivity",
    " \"G",
    " \"Green",
    " Revol",
    " Revolution",
    " Revolution\"",
    " rapidly,",
    " decen",
    " decenn",
    " decennial",
    " decreasing:",
    " 17.",
    " 17.6",
    " 17.64%",
    " compared",
    " 21.5",
    " 21.54%",
    " previ",
    " previous",
    " (1991",
    " (1991–2",
    " (1991–200",
    " (1991–2001",
    " (1991–2001).",
    " post",
    " post-",
    " post-c",
    " post-col",
    " post-colonial",
    " counted",
    " people.",
    " expect",
    " expectanc",
    " expectancy",
    " 49.",
    " 49.7",
    " 1970",
    " 1970–",
    " 1970–19",
    " 1970–197",
    " 1970–1975",
    " 72.",
    " 72.0",
    " under-f",
    " under-five",
    " mort",
    " mortality",
    " 113",
    " births",
    " 1994",
    " 41.1",
    " births.",
    " ratio,",
    " 940",
    " Fem",
    " Female",
    " infant",
    " infantic",
    " infanticide",
    " lately",
    " female",
    " lop",
    " lop-s",
    " lop-sid",
    " lop-sided",
    " ratios",
    " ratios;",
    " miss",
    " missing",
    " quad",
    " quadrup",
    " quadrupled",
    " 63",
    " 1964",
    " 1964–201",
    " 1964–2014,",
    " faster",
    " same",
    " study,",
    " 21",
    " gir",
    " girls",
    " unw",
    " unwanted",
    " receive",
    " adequ",
    " adequate",
    " care.",
    " Despite",
    " ban",
    " sex-",
    " sex-sel",
    " sex-selective",
    " practice",
    " stop",
    " stopped.",
    "Mig",
    "Migration",
    " dynam",
    " dynamic",
    " history.",
    " 31.",
    " 31.2%",
    " 2001.",
    " lived",
    " 27.",
    " 27.8",
    " 27.81%",
    " 31.1",
    " 31.16%",
    " census.",
    " slowing",
    " overall",
    " shar",
    " sharp",
    " decline",
    " 1991.",
    " 53",
    " million-",
    " million-pl",
    " million-plus",
    " aggl",
    " agglom",
    " agglomer",
    " agglomerations",
    " Kol",
    " Kolk",
    " Kolkata,",
    " Chen",
    " Chenn",
    " Chenna",
    " Chennai,",
    " Bengalur",
    " Bengaluru,",
    " Hy",
    " Hyder",
    " Hyderabad",
    " Ahm",
    " Ahmed",
    " Ahmedabad",
    " Ahmedabad,",
    " order",
    " population.",
    "Langu",
    "Languages",
    " families.",
    " Cens",
    " Census",
    " gives",
    " breakdown",
    " breakdown:",
    "There",
    " Tai",
    " Tai–",
    " Tai–K",
    " Tai–Kada",
    " Tai–Kadai,",
    " Andamanese,",
    " minor",
    " isolat",
    " isolates.",
    " Sept",
    " September",
    " 1949",
    " deb",
    " debate",
    " opposing",
    " camp",
    " camps.",
    " protag",
    " protagon",
    " protagonists",
    " wanted",
    " Dev",
    " Devanag",
    " Devanagari",
    " \"n",
    " \"national",
    " pref",
    " prefer",
    " preferred",
    " Constitution.",
    " (i)",
    " \"o",
    " \"official",
    " government;",
    " (ii)",
    " associate",
    " Hindi's",
    " lex",
    " lexic",
    " lexicon",
    " developed;",
    " (ii",
    " (iii)",
    " Hindu–",
    " Hindu–A",
    " Hindu–Ara",
    " Hindu–Arab",
    " Hindu–Arabic",
    " numerals",
    " numerals.",
    " resol",
    " resolution",
    " articles",
    " 343",
    " 343–",
    " 343–3",
    " 343–351",
    " constitution,",
    " bit",
    " bitter",
    " opposition",
    " where",
    " continue",
    " \"ass",
    " \"associ",
    " \"associate",
    " indef",
    " indefin",
    " indefinite",
    " indefinitely.",
    " Eigh",
    " Eighth",
    " Sched",
    " Schedul",
    " Schedule",
    " recognises",
    " 22",
    " English,",
    " obl",
    " oblig",
    " obligated",
    " develop.",
    " \"s",
    " \"sched",
    " \"scheduled",
    " languages\".",
    " list",
    " others—s",
    " others—such",
    " Urdu,",
    " region-sp",
    " region-spec",
    " region-specific",
    " region-specific—",
    " region-specific—b",
    " region-specific—bec",
    " region-specific—beca",
    " region-specific—becaus",
    " region-specific—because",
    " val",
    " value",
    " herit",
    " heritage",
    " heritage.",
    " 14",
    " languages:",
    " Assam",
    " Assamese,",
    " Bengali,",
    " Gujarati,",
    " Hindi,",
    " Kann",
    " Kannad",
    " Kannada,",
    " Kashmi",
    " Kashmiri,",
    " Malayal",
    " Malayalam,",
    " Marathi,",
    " Oriya,",
    " Punjabi,",
    " Tamil,",
    " Tel",
    " Telu",
    " Telugu",
    " Urdu.",
    " others:",
    " Sindhi",
    " (196",
    " (1967",
    " (1967),",
    " Nepali,",
    " Mani",
    " Manipur",
    " Manipuri,",
    " Kon",
    " Konk",
    " Konkani",
    " (1992",
    " (1992),",
    " Maith",
    " Maithil",
    " Maithili,",
    " Dog",
    " Dogri,",
    " Santali",
    " Bod",
    " Bodo",
    " (2",
    " (200",
    " (2004",
    " (2004).",
    "Rel",
    "Relig",
    "Religion",
    " characterised",
    " beliefs",
    " practices.",
    " Through",
    " Throughout",
    " birthpl",
    " birthplace",
    " religions:",
    " Sikhism.",
    " Hindus,",
    " Jains,",
    " Muslims",
    " (after",
    " Indonesia",
    " Buddhists.",
    " adher",
    " adhering",
    " (Pars",
    " (Parsis",
    " Iran",
    " Iranis",
    " Iranis)",
    " Bahá",
    " Bahá'",
    " Bahá'í",
    " Faith",
    " Faith.",
    " Pream",
    " Preamble",
    " declares",
    " fre",
    " freed",
    " freedom",
    " (\".",
    " (\"..",
    " (\"...",
    " liberty",
    " thought,",
    " expression,",
    " belief,",
    " faith",
    " faith,",
    " wors",
    " worship",
    " worship.",
    " worship.\")",
    " 79.",
    " 79.8%",
    " follows",
    " 14.",
    " 14.2%",
    " 2.3%",
    " 1.7%",
    " Sikhism,",
    " 0.7%",
    " 0.4%",
    " Jainism.",
    " Several",
    " Don",
    " Dony",
    " Donyi-",
    " Donyi-P",
    " Donyi-Pol",
    " Donyi-Polo,",
    " San",
    " Sanam",
    " Sanamah",
    " Sanamahism,",
    " Sarnaism,",
    " Niam",
    " Niamt",
    " Niamtre.",
    " 74.",
    " 74.0",
    " 74.04%",
    " 74.04%:",
    " 65.",
    " 65.4",
    " 65.46%",
    " 82.",
    " 82.1",
    " 82.14%",
    " rural-",
    " rural-urban",
    " gap",
    " gap,",
    " 21.2",
    " dropp",
    " dropped",
    " 16.1",
    " 2011.",
    " improvement",
    " twice",
    " 93.",
    " 93.9",
    " 93.91%",
    " lowest",
    " lowest,",
    " 63.",
    " 63.8",
    " 63.82",
    " 63.82%.",
    " 1981",
    " 41%",
    " 41%,",
    " 53%",
    " 29",
    " 29%.",
    " 18%,",
    " 27%",
    " 9%.",
    " 1921,",
    " 7%,",
    " 12%",
    " 2%.",
    " 189",
    " 1891,",
    " 5%,",
    " 9%",
    " 1%.",
    " Latik",
    " Latika",
    " Cha",
    " Chaud",
    " Chaudh",
    " Chaudhary,",
    " 191",
    " 1911",
    " villag",
    " villages.",
    " Statist",
    " Statistically,",
    " priv",
    " private",
    " spending",
    " spending.",
    " Pri",
    " Primary",
    " taugh",
    " taught",
    " growth.",
    " second-largest.",
    " 900",
    " univers",
    " universit",
    " universities,",
    " 40,000",
    " 1.5",
    " schools.",
    " higher",
    " reserved",
    " affirmative",
    " disad",
    " disadv",
    " disadvant",
    " disadvantag",
    " disadvantaged",
    " disadvantaged.",
    " improved",
    " cited",
    " contributors",
    " development.",
    " bears",
    " dispro",
    " dispropor",
    " disproportion",
    " disproportionately",
    " bur",
    " burden",
    " rates,",
    " He",
    " Health",
    " (W",
    " (WHO",
    " (WHO)",
    " statistic",
    " statistics",
    " 2022",
    " estimating",
    " infections",
    " annually,",
    " accounting",
    " total.",
    " carry",
    " infection",
    " infection.",
    " chron",
    " chronic",
    " obstructive",
    " pul",
    " pulmon",
    " pulmonary",
    " disease",
    " death",
    " hear",
    " heart",
    " disease.",
    " polluted",
    " 140",
    " limit",
    " limit.",
    " quality",
    " reports",
    " city",
    " meets",
    " WHO's",
    " safety",
    " gu",
    " guidel",
    " guidelin",
    " guidelines.",
    " equival",
    " equivalent",
    " smok",
    " smoking",
    " cig",
    " cigare",
    " cigarett",
    " cigarettes",
    " day",
    " day.",
    " 2017,",
    " killed",
    " 1.24",
    "Although",
    " religions,",
    " uniqu",
    " uniquely",
    " Indian,",
    " Hindu,",
    "்த",
    "்க",
    "ிய",
    " ப",
    "ம்",
    "ப்",
    "து",
    " இ",
    "్ర",
    " ம",
    " ప",
    "ன்",
    "ార",
    "ல்",
    "ాల",
    "ந்த",
    " స",
    " க",
    " క",
    "்ட",
    "లో",
    "్య",
    "க்க",
    " మ",
    "ப்ப",
    " వ",
    "న్",
    "ும்",
    "ది",
    "த்த",
    "ిం",
    "దే",
    " வ",
    "లు",
    "ள்",
    "దేశ",
    " அ",
    "స్",
    "ర్",
    " த",
    "ని",
    "ரு",
    "భార",
    "ற்",
    "భారత",
    " ర",
    "ட்ட",
    " ప్ర",
    "ான",
    " అ",
    "ின்",
    "ిక",
    "ాలు",
    "ைய",
    "న్న",
    "ில்",
    "గా",
    "ది.",
    " ச",
    " ఉ",
    "ற்ற",
    "ాయ",
    "క్",
    " ந",
    "ాత",
    " భారత",
    "ாக",
    "దేశం",
    "ர்",
    "కు",
    "ను",
    " உ",
    "్ట",
    " జ",
    "து.",
    " చ",
    "్వ",
    "ங்க",
    "ిన",
    "ండ",
    "ந்திய",
    "ీయ",
    " ஆ",
    " ఇ",
    "ించ",
    "ண்ட",
    "తి",
    "స్త",
    "ுக",
    "ాన",
    "ంత",
    " இந்திய",
    "ద్",
    "్ల",
    "ிக",
    " ఆ",
    "ి.",
    "ள்ள",
    "ంగ",
    " மற்ற",
    "ులు",
    " త",
    " மற்றும்",
    "రి",
    " రా",
    "ிர",
    " ద",
    "ாவ",
    "రు",
    " क",
    "ంట",
    "க்",
    "ము",
    " மு",
    " బ",
    " న",
    "ில",
    "ింది.",
    "க்கு",
    "వి",
    "ంలో",
    "்ச",
    "ుత",
    "ிற",
    " భ",
    "ானது",
    "ైన",
    " स",
    "ాయి.",
    " கா",
    " గ",
    "டு",
    " సం",
    "ப்பட்ட",
    " ఎ",
    "ూడ",
    " ஒ",
    "ంది.",
    " எ",
    " म",
    "క్ష",
    "டி",
    "ంగా",
    " ఉన్న",
    "த்",
    " శ",
    "ருந்த",
    "ారు",
    "ధిక",
    "ங்கள",
    " ह",
    "టి",
    "ன்ற",
    " వి",
    " கு",
    "ిత",
    " సా",
    " பெ",
    "్చ",
    "ுள்ள",
    "పు",
    "ार",
    "కి",
    " தொ",
    "దేశంలో",
    "ன.",
    "ష్ట",
    " కూడ",
    "மை",
    " హ",
    "ார",
    "ల్",
    " प",
    "வை",
    "ం,",
    " ఈ",
    " கொ",
    "త్",
    "ுத",
    "చ్చ",
    "ంచ",
    " இந்தியாவ",
    "స్థ",
    "ர்க",
    "्र",
    " దేశ",
    "ట్ట",
    "ுகள",
    " ప్రా",
    "ப்பட",
    " ఒ",
    " భా",
    "லை",
    "ాన్",
    "ற்க",
    "ార్",
    " के",
    " రాజ",
    " உள்ள",
    " మొ",
    " பொ",
    "లి",
    "తర",
    "ுவ",
    "ాబ",
    " போ",
    " ని",
    "ரச",
    "ారు.",
    "ें",
    "ష్ట్ర",
    "ண்",
    "యా",
    " கொண்ட",
    "ల్ల",
    "దు",
    "ிக்க",
    "్రీ",
    "ும்.",
    "ద్ధ",
    " भ",
    "ுக்கு",
    "ాతీయ",
    " రై",
    " இது",
    " స్",
    "ுள்ளது.",
    "మైన",
    "నే",
    "ித்த",
    "్రి",
    " में",
    "ால்",
    " పే",
    "ாட்ட",
    "వా",
    "ాలు,",
    " அத",
    "్యవ",
    "ாட",
    "ఖ్య",
    "డి",
    "ப்பு",
    " है",
    "రా",
    " ஆக",
    " ల",
    " ஒரு",
    "నా",
    " స్థ",
    "ுட",
    " ఉంది.",
    " சம",
    "ండి",
    "्य",
    " అధిక",
    "ாத",
    "ింద",
    " இந்தியா",
    "తో",
    " లో",
    " ஆண்ட",
    "ర్వ",
    " செ",
    " अ",
    "పా",
    "ச்",
    "్‌",
    " ఏ",
    " பிர",
    " రాష్ట్ర",
    "ைக்",
    "ంద",
    "ற்ப",
    " ఒక",
    "ारत",
    "మా",
    "ாக்க",
    " ము",
    " தொட",
    " ఉన్నాయి.",
    "ాని",
    "ிருந்த",
    "ులు,",
    "ந்து",
    " न",
    "ధ్య",
    "கள",
    "టు",
    "ంది",
    "றை",
    " కా",
    " வி",
    " పార",
    " ब",
    "மாக",
    "ణా",
    "డు",
    " இருந்த",
    "్రా",
    "ர்.",
    "ిన్న",
    "ச்ச",
    " వచ్చ",
    " ज",
    "ెండ",
    "ஆம்",
    "ీ,",
    "டுத்த",
    "్యవస్థ",
    " హింద",
    " கால",
    " పా",
    "மைய",
    " మత",
    "र्",
    " வே",
    "భా",
    "ుల",
    "ருவ",
    "్రమ",
    "ங்கள்",
    "డ్",
    "ంత్ర",
    " பெர",
    " व",
    "ధాన",
    " அமை",
    "ానికి",
    "த்தின்",
    "ంబ",
    " కూడా",
    " பக",
    " శా",
    "ிகள",
    " కో",
    " भारत",
    "పంచ",
    "ிப்ப",
    " స్వ",
    "ால",
    " దేశం",
    "ாள",
    " దేశాల",
    " దక్ష",
    "ின",
    " द",
    " భారతదేశం",
    " இத",
    " చె",
    "గు",
    " நில",
    " ఎన్న",
    "ல்ல",
    "ారం",
    "மான",
    "త్య",
    "ों",
    "జాతీయ",
    " இந்தியாவின்",
    " ప్రపంచ",
    "ாய",
    "ద్ద",
    " ప్రాంత",
    " அரச",
    "ి,",
    " இர",
    "క్కు",
    "या",
    "సి",
    " வெ",
    "న్ని",
    " அதிக",
    "ుక",
    " దక్షి",
    " பொரு",
    "ాల్",
    "ேர",
    "िक",
    "ున్న",
    " உல",
    " రాజ్య",
    "ట్",
    "ிறது.",
    " చే",
    "று",
    "త్వ",
    " మార్",
    "வு",
    " औ",
    "స్క",
    " ஆகிய",
    " ప్రధాన",
    "ர்கள",
    "తం",
    "ప్",
    " பகுத",
    " పేరు",
    "க்கிய",
    " భారతీయ",
    " और",
    "சிய",
    "ప్ర",
    " పార్ట",
    " பா",
    "దాయ",
    " மே",
    " మొద",
    "இல்",
    " ప్రజ",
    " र",
    " కే",
    "ிட",
    " వ్యవస్థ",
    "ாகும்.",
    "క్కువ",
    " హిందూ",
    "ற்கு",
    "ర్య",
    "மானது",
    " కాల",
    "्त",
    "ன்ன",
    " పరి",
    " మధ్య",
    " உருவ",
    "ించింది.",
    " தெ",
    " అయ",
    "ப்படுக",
    " కు",
    "ान",
    " ఇతర",
    " மிக",
    " క్రీ",
    "ைப்",
    " భాష",
    "ின்ற",
    " రైలు",
    " మార్గ",
    "ட்ச",
    "భారతీయ",
    " की",
    "த்தில்",
    "మీ",
    "్యం",
    " உலக",
    "ష్",
    "டைய",
    " వచ్చింది.",
    "ும",
    "రణ",
    " त",
    "భారతదేశ",
    " கோ",
    " దేశంలో",
    "ர்கள்",
    "లు,",
    " ప్రభ",
    "ியாக",
    " ప్రభుత",
    "ும்,",
    " ప్రభుత్వ",
    " प्र",
    " மா",
    " భారతదేశంలో",
    " సాం",
    " வர",
    "ాత్ర",
    " குற",
    "తా",
    " முத",
    " అధికార",
    " का",
    " సి",
    " து",
    "ించిన",
    "டை",
    " సభ",
    "தி",
    " పార్టీ",
    "భారతదేశం",
    "வைய",
    " है।",
    " స్థాన",
    " நாட",
    " అతి",
    "ెద్ద",
    " ஐ",
    "గి",
    "ழ்",
    " ఉత్",
    " से",
    "ుకు",
    "னர்.",
    "లం",
    "விய",
    " ద్వ",
    "ம்ப",
    " పు",
    " ను",
    "ும்ப",
    " య",
    "ाज",
    " பர",
    " జరి",
    " ఆర్",
    "ுக்",
    " భారతదేశ",
    " ஊ",
    "ప్ప",
    " கூ",
    "దా",
    "ीय",
    " ఉంట",
    "ிகள்",
    "రువ",
    "லா",
    "రువాత",
    " மொ",
    " అయిన",
    "िया",
    " రెండ",
    "்கள",
    " పట్ట",
    "த்தை",
    "స్కృ",
    " ஏ",
    "క్క",
    " நீ",
    "ుంది.",
    " ग",
    "్రె",
    "ன்ப",
    " జనా",
    " இரு",
    "ర్ణ",
    " செய",
    " కేంద",
    "పాల",
    " आ",
    " நட",
    " కలి",
    "த்து",
    " పాల",
    " ఎక్కువ",
    " அல்ல",
    "స్త్ర",
    "டிய",
    "था",
    "గిన",
    " கொண்டுள்ளது.",
    " అనే",
    " వా",
    "ரிய",
    " దక్షిణ",
    "ாட்டு",
    " పాకి",
    "ता",
    "ாதார",
    "స్తాన్",
    "గ్",
    "்கள்",
    "గర",
    " பு",
    " బహ",
    " மக்க",
    "స్తుత",
    "्ष",
    "లలో",
    " உள்ளது.",
    "ాబ్",
    " பார",
    "ాలను",
    "சு",
    "ీన",
    "ుకో",
    " उ",
    "ண்ண",
    "కా",
    " என்ற",
    " వంట",
    "ணை",
    "ం.",
    "ాలలో",
    " அல்லது",
    "ाल",
    "బడ",
    "ிழ",
    "టిక",
    "ீத",
    "రో",
    "ியில்",
    "ారి",
    "ందిన",
    "ना",
    "ளாதார",
    "లా",
    "ுகள்",
    " ఏర్",
    " சமய",
    "ధి",
    " ఎన్నో",
    "ாண்ட",
    " ल",
    "త్ర",
    "றைய",
    " కాంగ",
    " ஆண்டு",
    " కాంగ్రె",
    " வள",
    "సు",
    " அதிகர",
    "ప్రదాయ",
    " पर",
    " సాధ",
    "ான்",
    "ిళ",
    "ம்,",
    " సంగ",
    " இந்த",
    " క్రీడ",
    " इ",
    "ித",
    " పెద్ద",
    " కేంద్ర",
    " படி",
    " ముఖ్య",
    " ஓ",
    "ాలో",
    "ிரு",
    " వే",
    " श",
    "లకు",
    "க்கப்பட்ட",
    "జ్య",
    " பிற",
    "లను",
    " ఉత్తర",
    "ளவ",
    " सं",
    "ిమ",
    " போது",
    " మహ",
    "ர்ந்த",
    "ా,",
    "ంగ్ల",
    " பொருளாதார",
    " సరి",
    " वि",
    " உய",
    " సరిహ",
    "ிருந்து",
    " గల",
    " ఇది",
    " குறிப்ப",
    " సిం",
    "ர்ச்ச",
    " को",
    " కాలంలో",
    " ప్రస్తుత",
    "ங்களில்",
    " కొ",
    " பல",
    " చిన్న",
    "வற்ற",
    "డిప",
    "्व",
    "ுடன்",
    "కొ",
    "ే.",
    "ிட்ட",
    "ండు",
    " பொது",
    " తరువాత",
    "ியது.",
    " हैं",
    " ఏర్ప",
    "కాల",
    " அமைப்ப",
    " శాస్త్ర",
    " பெரும்ப",
    "ిల్ల",
    "வாக",
    "క్రమ",
    " ए",
    "இந்திய",
    " పర",
    "ப்படுகிறது.",
    "ౌక",
    " కార",
    " வந்த",
    "కీయ",
    "ல்வ",
    "त्र",
    "పతి",
    " இரண்ட",
    "త్యధిక",
    "லி",
    " జాతీయ",
    " ప్రతి",
    "ாண",
    "न्",
    "్మ",
    "ுக்க",
    " సిని",
    "ானவை",
    " ట",
    "ின்றன.",
    " రవా",
    " ने",
    " இட",
    " రవాణా",
    " సంగీ",
    " இந்தியாவில்",
    "ట్ల",
    " அதிகரித்த",
    "ంతో",
    "்கு",
    " कर",
    " సమా",
    " வழ",
    " సామ",
    "ద్ర",
    "ைகள",
    " ఉప",
    "ியல்",
    "ిత్ర",
    "िय",
    " கட்ட",
    "ణి",
    " రహ",
    "கள்",
    " రహద",
    "ரி",
    " సరిహద్",
    "ित",
    "மையான",
    " సరిహద్దు",
    " సింధ",
    "ையில்",
    " బహు",
    " ஊ.",
    " వివి",
    "ைத்",
    " వివిధ",
    " सा",
    "సింది.",
    "கு",
    "గం",
    "ணிய",
    "దం",
    " தே",
    " బ్రి",
    "ड़",
    " ఇండి",
    " குடிய",
    " ఇండియా",
    " பெரிய",
    "ంధ",
    " வட",
    "తంత్ర",
    " இல",
    " ఆధ",
    "ने",
    "ద్ధి",
    "டிவ",
    "ు.",
    " வா",
    "ప్పటిక",
    "நில",
    "యో",
    " य",
    "ம்பரிய",
    " రెండు",
    "డ్డ",
    "ஞ்ச",
    "ావ",
    " மூ",
    "ాల్లో",
    "क्ष",
    " பெற்ற",
    " పట్టణ",
    "சி",
    " సంస్కృ",
    "తిక",
    " குறை",
    " ప్రము",
    " முன்ன",
    " च",
    " ప్రముఖ",
    "ரண",
    " మొదల",
    " பாரம்பரிய",
    "ఢిల్ల",
    "ాన్ని",
    " அற",
    "ाद",
    " జన",
    "ையும்",
    " –",
    " உருவாக்க",
    " రాజకీయ",
    " நூ",
    " అత్యధిక",
    "కాలు",
    " முதல்",
    "ेश",
    "ల్ప",
    " ஆகும்.",
    "ెలు",
    " என்று",
    " నె",
    " தொக",
    "నాలు",
    "ास",
    "ீன",
    " మూడ",
    " దేశంలోని",
    "ர்ந்து",
    "ాబా",
    " தன",
    "ెంగ",
    "ति",
    "ிவ",
    "ల్వ",
    "னை",
    " నడిప",
    " மொழ",
    "ం:",
    "ாவின்",
    "ీ;",
    "्ट",
    " —",
    " நிற",
    " మొదటి",
    " விள",
    "ీర్ణ",
    " உலகின்",
    " ప్రజా",
    " राज",
    "ியான",
    "స్వా",
    "స్వామ",
    "ண்ப",
    " ప్రాంతాలు",
    " இவ",
    " ఒకటి",
    "िस",
    "ாம",
    "గా,",
    "ముద్ర",
    " ஆய",
    " అనేక",
    " முறை",
    " చైన",
    " நிறுவ",
    " నే",
    "ाष",
    " భూ",
    "ப்பட்டது.",
    "సియా",
    "ிலிருந்து",
    "ీప",
    "ங்களை",
    "ిక్",
    " इस",
    " జాత",
    " தலை",
    " దా",
    " எண்ண",
    "ాలతో",
    "ாங்க",
    " శత",
    " सम",
    " శతాబ్",
    " அடி",
    " నుండి",
    " மக்கள்",
    "ుకోవ",
    "ுள்ளன.",
    "టీ",
    " भारतीय",
    "த்திற",
    " గా",
    " స్వాత",
    " காரண",
    " స్వాతంత్ర",
    "ாகக்",
    " జరిగిన",
    " हैं।",
    " ஆகியவை",
    " పో",
    " అను",
    " நூற்ற",
    " అభ",
    " நூற்றாண்ட",
    " అభి",
    " तथा",
    " என",
    "దర",
    " தொழ",
    "స్య",
    "ళ్ల",
    "்ப",
    " మొత్",
    "ंग",
    "்த்த",
    " మొత్తం",
    "ார்.",
    " పేర్",
    "గే",
    "ரா",
    " एक",
    " పండు",
    "ர்வ",
    " ఎక్కువగా",
    " மிகப்",
    "ాయి",
    " கிழ",
    "నుక",
    " अन",
    " ஆண்டுகள",
    "ర్ష",
    "ేన",
    " வடிவ",
    " పూ",
    " ஒன்ற",
    "రం",
    " हु",
    "ிருந்தது.",
    "షు",
    " நக",
    " ప్రాచ",
    "వత్",
    " வை",
    " १",
    " సమ",
    " கூட்ட",
    " సార",
    "ுடைய",
    " ఖ",
    " உள்ளன.",
    "లతో",
    " जा",
    "గలు",
    " பய",
    " ఐ",
    " கோடி",
    "్యా",
    " கட",
    " भी",
    " సర్వ",
    " தோ",
    " కూడిన",
    "ளி",
    " తన",
    "ిక,",
    "ூக",
    " हो",
    "మంత",
    " பேர",
    " భారత్",
    " சே",
    " నిర్వ",
    " இய",
    "न्द",
    " నిర్వహ",
    "ப்படும்",
    " ఆర్ధిక",
    "ிக்",
    " రాష్ట్రపతి",
    " పద్ధ",
    "से",
    "வர",
    "ాక",
    " ஜ",
    "చే",
    "ார்",
    " చేయ",
    "्या",
    "தாக",
    "ిస్త",
    " இதன்",
    " కోర్",
    " சி",
    "ెబ",
    "हा",
    "துக",
    " కాంగ్రెసు",
    "భారతదేశంలో",
    " தொடங்க",
    " జనాభా",
    " சமூக",
    " नि",
    " జాబ",
    " சு",
    " జాబిత",
    " அதன்",
    " ప్రస్తుతం",
    "ையானது",
    "र्व",
    " పరిశ",
    " குறிப்பிட",
    "ించే",
    "பொ",
    "ాలకు",
    "र्म",
    " తమ",
    " இவை",
    " తమిళ",
    " பொருட",
    " సౌక",
    "ப்புற",
    "रा",
    " మార్గాలు",
    " கீ",
    " రైల్వ",
    "ாவது",
    " రైల్వే",
    "ையின்",
    "कार",
    " నడిపించ",
    "ருக",
    " మన",
    " பகுதிகள",
    " రహదార",
    "िल",
    " பேரரச",
    "విస్త",
    " బెంగ",
    "ாப",
    " పై",
    " இக்க",
    "स्",
    " పైగా",
    " பண்ப",
    " ప్రపంచంలో",
    " நடத்த",
    " వై",
    "స్వామ్య",
    "ते",
    "ந்திர",
    "మె",
    " தொழில்",
    "నిక",
    " அண",
    " దేశాలలో",
    " किया",
    "ములో",
    " வளர்ச்ச",
    "ిత్రక",
    " உண",
    " దక్షిణాన",
    " பெரும்பால",
    "धिक",
    " పశ",
    " పశ్చ",
    " இருந்து",
    " పశ్చిమ",
    "த்திற்கு",
    "ాఖ",
    "ाम",
    " ர",
    " పాకిస్తాన్",
    "న్మ",
    " இந்து",
    " ఆఫ",
    "வையாக",
    "ंत्र",
    " ఆఫ్",
    " இராண",
    " ద్వీప",
    " నా",
    " இராணுவ",
    "ికత",
    " वर्",
    "ந்தது.",
    "లు.",
    "ிலான",
    " సంఘ",
    "ము.",
    " பயன்ப",
    "री",
    " సామ్రా",
    " இடைய",
    "ర్తి",
    "ின்றனர்.",
    " రాజ్యాలు",
    "के",
    " இதில்",
    " శతాబ్దం",
    " బ్రిటి",
    "்வ",
    "ంప",
    "ற்பட்ட",
    "ती",
    "ుకోవడ",
    " கல",
    " యు",
    "ాయక",
    "ற்று",
    "టం",
    " तक",
    " இருந்தது.",
    "ెట్",
    " ஆன",
    " ఆధార",
    "ைச்",
    " ఆర్థ",
    "ीन",
    "గంగా",
    " அக",
    " అభివ",
    " முக்கிய",
    " అభివృ",
    "िण",
    "ாட்ச",
    " చెంద",
    " அளவ",
    "ుతున్న",
    "క్షరా",
    "வும்",
    "िम",
    "క్షరాస్య",
    " சட்ட",
    "క్షరాస్యత",
    "ிச",
    " అవ",
    " ध",
    " மாநில",
    "తి,",
    " அழ",
    "హార",
    " వంటి",
    " தொடக்க",
    "ंध",
    "ళ్లను",
    " மு.",
    "ట్లు",
    " ஓர்",
    "కో",
    " स्",
    "வன",
    "వచ్చ",
    "்ய",
    "టిలో",
    " భారతదేశానికి",
    "ப்பட்டன.",
    " राज्य",
    " గో",
    " நடு",
    "ంటే",
    "த்தது.",
    " లే",
    " देश",
    "ித்தான",
    " దీ",
    " வீத",
    " వచ్చిన",
    " பயன்படுத்த",
    "రత",
    "ृत",
    " విశ",
    " பத",
    "ామ",
    " பின்",
    "నులు,",
    " साथ",
    " போன்ற",
    " రూ",
    "யம",
    " వల",
    " பி",
    " పొ",
    "धान",
    " గు",
    "த்திய",
    "రమ",
    " கட்ச",
    "का",
    "వు",
    "ெடு",
    "ికి",
    " என்ப",
    " సంవత్",
    "ாவில்",
    "ूप",
    " సంవత్స",
    " வங்க",
    "పూ",
    " ஆகியவற்ற",
    "ర్గ",
    "क्षिण",
    " వార",
    "வர்கள",
    " వారస",
    " உடைய",
    " వారసత్వ",
    " ஆத",
    " उत",
    "ఢిల్లీ",
    "ிந்திய",
    " సు",
    " ஆசிய",
    "న్నాయి.",
    "ाषा",
    " இற",
    " ఫ",
    " உயிர",
    "స్,",
    " था",
    " கிர",
    "మన",
    " ఆక్రమ",
    "க்கும்",
    "ిప",
    " அனை",
    "स्त",
    " లక్ష",
    "ித்",
    "డుకు",
    "தற்கு",
    "మంత్రి",
    "ोग",
    "ி,",
    "ంగం",
    " சா",
    "ణంగా",
    "வான",
    "ద్య",
    "्तर",
    "ாசிய",
    " సభ్య",
    " இந்தியப்",
    "వే",
    " दक्षिण",
    " ప్రక",
    " விர",
    "లే",
    "லில்",
    "్యాయ",
    " தீ",
    " पू",
    "రాష్ట్ర",
    "வீன",
    "తులు",
    "ப்படுத்த",
    "िन्द",
    " కార్య",
    " மேற்கு",
    "వి.",
    " செய்ய",
    " లోక్",
    " பாதுக",
    "ीं",
    " సంఖ్య",
    "ுகளை",
    " సంక",
    "ுகளின்",
    "ీక",
    " अप",
    " ஆனால்",
    " అని",
    " கண்ட",
    "ంటారు.",
    " பங்க",
    "्षे",
    " ఉంటాయి.",
    " வக",
    "ూచ",
    " மீ",
    "డే",
    "हु",
    " ஆட்ச",
    " ఘ",
    " వహ",
    "ாட்சி",
    " చరి",
    " பெய",
    "्रे",
    " చరిత్ర",
    " புவ",
    " భాగ",
    "ைகள்",
    " जन",
    "ల్లో",
    "ியின்",
    " మాత్ర",
    " உற்ப",
    " మాత్రం",
    " வண",
    "ओं",
    "ంచి",
    " வணிக",
    " సంప్రదాయ",
    " மக்கள",
    " పాకిస్థ",
    " गया",
    " அரசாங்க",
    " పాకిస్థాన్",
    " போட்ட",
    " వాత",
    " जिस",
    " அடிப்பட",
    " వాతావ",
    "த்தைக்",
    " వాతావరణ",
    " வாழ்",
    " వాతావరణం",
    " क्षे",
    " காண",
    "మ్మ",
    "ின.",
    "దన",
    " மொத்த",
    " क्षेत्र",
    " జాబితా",
    " பரவ",
    " పాత్ర",
    "ுக்குப்",
    " పరిశ్రమ",
    " सर",
    " முக",
    "ర్మ",
    " நிறுவன",
    "్‌స",
    " ஐஅ",
    " १९",
    " మూడు",
    " ஐஅ$",
    " నగర",
    "ுட்ப",
    "వె",
    "वा",
    "ீக",
    "ాబాద్",
    " ஆயுத",
    " కుటు",
    "ப்படுகின்றன.",
    " కుటుంబ",
    " साम",
    "ங்களின்",
    " అధికారిక",
    "பொ.",
    " సౌకర్య",
    "द्",
    " சிற",
    " రకాల",
    " பெரும்பாலான",
    " దక్షిణా",
    " கீழ்",
    " సర్వీ",
    "भा",
    " கண",
    " పాక్",
    " தொடர்ந்து",
    " రో",
    " बाद",
    " பிறகு",
    " రహదారులు,",
    " குடியரச",
    " సాంప్రదాయ",
    "ா,",
    " సంగీతం",
    " सरकार",
    " வேறு",
    " చెందిన",
    " வேறுப",
    " సినిమా",
    "ுதிய",
    " यह",
    " బెంగాల",
    " பொ.",
    " పత",
    "ரோ",
    " సాధించ",
    "ढ़",
    "ட்டு",
    " క్య",
    " இக்கால",
    " వెబ",
    "ழு",
    "भारत",
    " జనాభ",
    " பிரித்தான",
    "ాతో",
    " பிரித்தானிய",
    " స్థానంలో",
    " सब",
    " நேர",
    " విస్త",
    "స్థాన",
    " (₹",
    " ప్రజాస్వామ్య",
    " வேக",
    " सबसे",
    " కేంద్రపాల",
    "வும்,",
    " కేంద్రపాలిత",
    " அதிகரித்து",
    "రీ",
    " विश",
    " పాలన",
    " நிலைய",
    " సమాఖ్య",
    "த்தக்க",
    " సై",
    "தாகும்.",
    "्च",
    " కలిగి",
    " இடையில்",
    " ముఖ్యమైన",
    "యాలో",
    "ிர்",
    " కి",
    "ली",
    "மயம",
    "టర్",
    "ப்பின",
    " సముద్ర",
    " தொலை",
    " ఉపఖ",
    "ंद",
    " ఉపఖండ",
    " முறைய",
    "ుకొ",
    "லிய",
    "ారిత్రక",
    "ुख",
    " உள்",
    " వాణి",
    "லாம்",
    " వాణిజ్య",
    " హిమ",
    " அவை",
    "क्त",
    " హిమాల",
    "ணி",
    " హిమాలయ",
    " தெற்க",
    " మహా",
    " २",
    " வங்காள",
    "రే",
    " బంగ్ల",
    "ாய்",
    " బంగ్లా",
    " ரீத",
    "ाज्य",
    " బంగ్లాదేశ",
    "வது",
    " ఆఫ్ఘ",
    " உற",
    " పంచ",
    " हिन्द",
    "ாற்ற",
    " శ్రీ",
    " கூட",
    "ాలు.",
    " సింధు",
    " ஒப்ப",
    " बहु",
    " నాగర",
    "ியானது",
    " నాగరికత",
    " மாற்ற",
    " పుట్ట",
    "ாண்",
    "ां",
    " జన్మ",
    "ங்கள்,",
    " బహుళ",
    " వైవి",
    " ஆற்ற",
    " भाषा",
    " వైవిధ్య",
    " வருக",
    "టే",
    " குழ",
    " సామ్రాజ్య",
    "ாட்டின்",
    " थ",
    "భాగం",
    " மூன்ற",
    "ించి,",
    "பல",
    " ఒకే",
    "नी",
    " కంప",
    " உள்ளட",
    " కంపె",
    " கரு",
    " కంపెన",
    "தம",
    "कर",
    " పరిపాల",
    " அனைத்து",
    " కింద",
    "ிக்கப்பட்ட",
    "టె",
    "ाष्ट",
    " గాంధ",
    " சோ",
    " గాంధీ",
    "லை.",
    " స్వతంత్ర",
    " இவ்வ",
    "ाष्ट्र",
    " దేశంగా",
    "மு",
    " ఆర్థిక",
    " சந்த",
    " వేగంగా",
    " कार",
    " தேசிய",
    " అభివృద్ధి",
    "ే,",
    " காங்க",
    "ినీ",
    " காங்கிர",
    "ले",
    " నాలు",
    "நாட்டு",
    " నాలుగు",
    " தேர",
    "వచ్చు.",
    "ंग्रे",
    "ாப்பு",
    " వీ",
    " వీటిలో",
    "ண். ",
    " జంబ",
    "ண். பொ.",
    "िका",
    " జంబూ",
    " விளைய",
    " ఇవ",
    "ாடு",
    "బడిన",
    " प्रा",
    "ைக்க",
    " మే",
    "ளவு",
    " ప్రదేశ",
    "வாகும்.",
    " है,",
    "..",
    " లేదా",
    " பெரு",
    " మీ",
    " கிழக்க",
    " पा",
    "మారు",
    " மன",
    " హిందూదేశం",
    "ற்போ",
    "నది",
    " फ",
    "ந்",
    "ియ",
    " வழி",
    "కులు",
    "ுகிறது.",
    "వల",
    "द्ध",
    "లిచ",
    " மொழிகள",
    " పొందిన",
    "பு",
    " గుర్",
    "की",
    " அரசியல்",
    " గుర్త",
    " பரவல",
    " ప్రాచీన",
    " கொண்டிருந்தது.",
    "िए",
    " మొట్ట",
    " முகல",
    " మొట్టమ",
    " முகலாய",
    " మొట్టమొ",
    " दो",
    "ீட்ட",
    " మొట్టమొద",
    " கலை",
    " మొట్టమొదటి",
    "ேற்ற",
    " ఏర్పడ్డ",
    "ाण",
    "పూ.",
    " உருவான",
    "ర్,",
    "ாளும",
    " సంస్కృతి",
    "ला",
    "ாளுமன்ற",
    " క్రీ.",
    "ஆக",
    " సాంస్కృ",
    " உட",
    "बंध",
    " సాంస్కృతిక",
    "ுமே",
    " చేసింది.",
    "ீர",
    "తుల",
    " अधिक",
    "ர்த்த",
    "ోళ",
    " வெள",
    "గువ",
    "த்தியில்",
    " శాస్త్రం,",
    "प्त",
    "స్వ",
    " வரை",
    " గణ",
    " பொதுவாக",
    " शास",
    " మొదలైన",
    " உள்நாட்டு",
    " సహ",
    " தேர்த",
    "లతో,",
    " முதன்",
    "ुर",
    "ెట్ట",
    " திரு",
    "ర్చ",
    " பூ",
    " ఇంగ్ల",
    " स्थ",
    " இந்தியத்",
    " వ్యా",
    " தனி",
    " వ్యాప",
    " பல்வ",
    "सा",
    "లంప",
    "டைந்த",
    "ుతో",
    "ல்கள",
    "ితి",
    " धर्म",
    " பௌ",
    " తి",
    "ாப்த",
    " స్వాతంత్ర్య",
    "ண்கள",
    "िन",
    "వరి",
    "ிலும்",
    "తాక",
    " சேர்ந்த",
    "భిన్న",
    "रे",
    "தில்",
    " ప్రధానమంత్రి",
    " உருவானது.",
    " మాత",
    "र्थ",
    "வில்",
    " దేశానికి",
    " குறிப்பிடத்தக்க",
    " కారణంగా",
    "ద్ధం",
    " அணு",
    " रूप",
    " రాజ్యా",
    " செல",
    " ప్రకారం",
    " சில",
    "జి",
    " वर्ष",
    "ஸ்",
    " న్యాయ",
    "ப்படு",
    " నిర్వహణ",
    " வளர்ச்சி",
    " विश्व",
    " ద్వార",
    " நகர்",
    " ద్వారా",
    " ஈ",
    "दी",
    "ుతుంది.",
    "த்திர",
    " రాష్ట్రాల",
    " எண்ணிக்க",
    " పద",
    "்க்க",
    "्प",
    "మైనది.",
    " காட்ட",
    " పద్ధతి",
    " வேள",
    " राष्ट्र",
    "టో",
    " இரண்டு",
    " సంకీర్ణ",
    "டித்த",
    "మించ",
    " घ",
    " இணை",
    "బడ్డ",
    " கட்டு",
    "ారిగా",
    " புதிய",
    "देश",
    " ఉంటుంది.",
    "ுகளில்",
    "భారతదేశపు",
    "ோர்",
    " వ్యవస్థలో",
    " जो",
    " நுட்ப",
    " కోర్టు",
    " பே",
    " సూచ",
    " உள்ளிட்ட",
    "ियों",
    " మా",
    " அட",
    " ఇవి",
    " வெற்ற",
    "దుగా",
    " पूर्व",
    " உறு",
    " దాదా",
    " உறுப்பின",
    " దాదాపు",
    "्म",
    "வையாகும்.",
    "్ళ",
    "ிகளை",
    "ుత్",
    " नाम",
    " துறைய",
    "ోత",
    " மேற்க",
    " ఎన్ని",
    "ுகளானவை",
    " बड़",
    " ఎన్నిక",
    " மனித",
    " కలిసి",
    " நீண்ட",
    "మై",
    " चु",
    " தோன்ற",
    "డిన",
    " தற்போ",
    " పేర్కొ",
    " हुआ",
    "த்தால்",
    " నుంచి",
    " திர",
    " కుల",
    " வடக்கு",
    " हुई",
    " సంప్రదాయాలు",
    " நிலை",
    " రాష్ట్రాలు",
    " பௌத்த",
    "जा",
    " కూడుకు",
    " சை",
    " మై",
    "ர்ப",
    "ையும்,",
    "ష్ణ",
    " अनु",
    " கடற்க",
    " ఉండ",
    " கடற்கர",
    " కాశ",
    "वि",
    "வெ",
    " కాశ్",
    " தாக்க",
    " కాశ్మీ",
    "कि",
    " நகர",
    " ప్రజల",
    " பஞ்ச",
    " ప్రభుత్వం",
    " அறிய",
    " स्व",
    " శాస్త్రీయ",
    " முக்கியமான",
    " తక్కువ",
    " பெரும்பான்",
    "ोड़",
    " పరిశ్రమలు",
    " நாடாளுமன்ற",
    " సినిమ",
    "ையுடைய",
    "मान",
    " రంగ",
    " கல்",
    " డ",
    "றி",
    " కల్ప",
    "सार",
    "ரும்",
    "టా",
    "ாட்டில்",
    " మంది",
    " தன்",
    " जाता",
    "ప్పటికీ,",
    " நான",
    " பகுதிய",
    " భిన్న",
    "००",
    " குறிப்பாக",
    " వర్గ",
    "ியல",
    "ाग",
    " ముంబ",
    " வரலா",
    " (వె",
    "ராக",
    " (వెనుక",
    "ैन",
    "த்துவ",
    " (వెనుకటి",
    " உள்ளடக்கிய",
    " కల",
    " दिया",
    " பொருட்கள",
    " పురు",
    " கொண்டு",
    " పురుష",
    " शासन",
    " பெரும்",
    " ఉన్నారు.",
    "ாலும்",
    "గణ",
    " प्रम",
    "ந்தைய",
    "లిం",
    " பெற்றது.",
    " సంబ",
    " कु",
    " வகு",
    " సంబంధ",
    " இலக்கிய",
    " కార్యక్రమ",
    " உயர்",
    " दे",
    "సా",
    " ஏற்பட்ட",
    " జరు",
    " ஓவிய",
    "में",
    " இருந்தன.",
    " జరుపు",
    " ட",
    " జరుపుకు",
    " मान",
    " இருக்க",
    " భాషలు",
    "ிம",
    " తెలు",
    "ारी",
    " மத",
    " తెలుగు",
    " கிராம",
    " కన్న",
    " उप",
    "ுக்கும்",
    " కన్నడ",
    "ை,",
    "ూరు",
    " उत्तर",
    " முதன்மையான",
    "శాఖ",
    " பாதுகாப்பு",
    " ప్రారం",
    " ई",
    " வென்ற",
    " ప్రారంభ",
    "ில்லிய",
    "ోర్",
    "स्क",
    "ில்லியன்",
    " ఇస్",
    " பொருட்கள்",
    " रह",
    " ఇస్లా",
    " கணக்க",
    " ఇస్లామ",
    " இதுவாகும்.",
    "म्",
    " ఇస్లామాబాద్",
    " இதற்கு",
    " தென்",
    " దక్షిణాసియా",
    "ள்க",
    "ध्य",
    " సర్వీస",
    " வேறுபட்ட",
    " సర్వీసులు",
    " இப்ப",
    " पार",
    "ాలనే",
    " உருவாக",
    " ప్రతిపా",
    " வாக்க",
    "ाली",
    " ప్రతిపాదన",
    " சாத",
    " வில",
    " రైళ్లను",
    " सि",
    "ித்தது.",
    " శాఖ",
    " தென்ன",
    "మతి",
    " बढ़",
    " தென்னிந்திய",
    " నిర్మ",
    " இரா",
    " రోడ్",
    " தெற்கு",
    "ंद्र",
    " కేవ",
    " முசு",
    " முசுலி",
    " కేవలం",
    "रिक",
    "ணைய",
    "మాన",
    " விரிவ",
    "జాలు",
    " यु",
    " இயக்க",
    " చాల",
    " எதி",
    " చాలా",
    "ाने",
    " முடி",
    " పరంగా",
    " மேல",
    " భావిస్త",
    " கல்விய",
    " ड",
    "ர்க்க",
    " సాంప్రదాయిక",
    " போத",
    " సంగీత",
    "नाव",
    "ங்கு",
    "దిన",
    " சொ",
    " కథ",
    "ोल",
    " பழ",
    " బెంగాలీ",
    " கிழக்கு",
    " मह",
    "ెల",
    "வர்கள்",
    " வேளாண்",
    " పతకాలు",
    "्री",
    "ங்களாக",
    " టై",
    "ரின்",
    " క్యాల",
    "ंड",
    " கட்டுப்ப",
    " క్యాలెండ",
    "வியல்",
    " క్యాలెండర్",
    "இந்தியாவின்",
    " थी",
    "SB",
    "ல்ப",
    "SBN",
    " இவ்வா",
    " समय",
    " தம",
    "1-",
    "ொரு",
    "दान",
    " వెబ్‌స",
    " ஏற்ற",
    " వెబ్‌సై",
    " ஏற்றும",
    " लिए",
    " వెబ్‌సైటు",
    "ண்டும்",
    " కోట్ల",
    "ூர்",
    " प्रमुख",
    " జనాభాతో",
    " காங்கிரசு",
    "ాయుత",
    "களின்",
    " దేశం.",
    " बन",
    " పార్ల",
    "ிகளில்",
    " పార్లమె",
    "ப்பின்",
    " పార్లమెంట",
    " केंद्र",
    " பிரதம",
    " సమాఖ్య.",
    " సైనిక",
    " ஐக்கிய",
    " సామర్",
    "ष्",
    " நடன",
    " సామర్థ",
    " உணவ",
    " సామర్థ్యం",
    " अन्य",
    " అణ",
    " குடியரசு",
    " ప్రాంతీయ",
    " பாக்க",
    " శక్",
    " சீன",
    "ँच",
    "సియాలో",
    " துணை",
    " వేల",
    " மர",
    " కిలో",
    " छ",
    " இரண்டாவது",
    " కిలోమీ",
    " కిలోమీటర్",
    " முன்னர்",
    " కిలోమీటర్లకు",
    " राज्यों",
    " இந்திய-",
    " సముద్రత",
    "சுக",
    " సముద్రతీ",
    " தற்போது",
    "हीं",
    " భాగా",
    "ுக்குள்",
    " భాగాన్ని",
    " కూడుకొ",
    "ந்ந",
    "शिया",
    " కూడుకొని",
    " வேத",
    " చారిత్రక",
    " தொடங்கியது.",
    " ఉత్తరాన",
    "ीप",
    " அடிப்படைய",
    " మహాస",
    " செய்த",
    " మహాసముద్ర",
    "श्च",
    "ைகளில்",
    " పశ్చిమాన",
    " తూ",
    " கட்டட",
    " తూర్",
    " வைத்த",
    " भू",
    " తూర్పు",
    "நாய",
    "ాతం",
    "நாயக",
    "यु",
    "లుగా",
    " இன",
    " చైనా,",
    " நப",
    " నేప",
    " मिल",
    " నేపాల్",
    "றிய",
    " నేపాల్,",
    " மைய",
    " భూట",
    " बना",
    " உயிரின",
    " భూటాన్",
    " காட",
    "ుకుంట",
    " संघ",
    " பெற",
    "లంక",
    "దీ",
    " அரசியல",
    "వులు,",
    "जी",
    " அரசியலமை",
    " ఇండ",
    "வர்",
    " ఇండో",
    " நவீன",
    " हिन्दी",
    " పుట్టి",
    "ஞ்சிய",
    " బౌ",
    " மெ",
    " బౌద్ధ",
    " द्व",
    " సిక్",
    "ரப்ப",
    "భాష",
    "ாளர்கள்",
    "ारा",
    "ప్రా",
    " மக",
    " ఏప",
    " நீடித்த",
    " ఏప్రి",
    " हैं,",
    "பக",
    " ఏప్రిల్",
    " చైనా",
    "ரால்",
    " చైనాను",
    "राज्य",
    " புது",
    "ౌర్య",
    "லம்",
    " పాలనలో",
    "ब्",
    " மத்தியில்",
    "పరి",
    " பிரா",
    " పలు",
    " பிராந்திய",
    " రాజ్యాలుగా",
    "श्चिम",
    "ోయ",
    "ர்களால்",
    "ోయింది.",
    "ேய",
    "िस्त",
    " బ్రిటిష్",
    "திய",
    " ఈస్",
    " பாத",
    "िस्तान",
    " ఈస్ట్",
    " சார்ந்த",
    " కంపెనీ",
    "ాధ",
    " தச",
    " ख",
    " చేస",
    " தசாப்த",
    " బ్రిటీ",
    "வி",
    " था।",
    " పరిపాలన",
    " இலட்ச",
    " కిందకు",
    " நாடுகள",
    "ింగ్",
    "सी",
    " மலை",
    "డమ",
    " మహాత",
    " குறைவான",
    " करने",
    " మహాత్",
    " மேற்பட்ட",
    " మహాత్మా",
    "ரிக்க",
    " నాయక",
    "द्य",
    " ஆண்டின்",
    " నాయకత్వ",
    "ராச",
    " స్వాతంత్ర్యం",
    "चीन",
    "సం",
    " நாட்டு",
    " అహ",
    " கணக்கெடு",
    " रहा",
    " తర్వ",
    "ங்கில",
    " తర్వాత",
    " என்பது",
    " 1947",
    "टे",
    " தெற்காசிய",
    "భవ",
    " సంస్క",
    " சூ",
    "हर",
    " సంస్కరణ",
    " காரணமாக",
    "రిస్త",
    " ஆண்டில்",
    " చెందుతున్న",
    " வாக்கில்",
    "ोक",
    "కాహార",
    " அமைப்பு",
    "ంటున్న",
    "ிணை",
    " देशों",
    " పేర్లు",
    " அடிப்படையாகக்",
    " చెప్",
    " ஆனால்,",
    " చెప్పు",
    "िये",
    "சுலா",
    " చెప్పుకో",
    " தில்",
    " వేద",
    " दश",
    "்தான",
    " పేరు,",
    " இணைய",
    "ార్థ",
    " இந்தியாவை",
    " ఉపయో",
    " अम",
    " குட",
    " ఉపయోగి",
    "றாக",
    " ఉపయోగిస్త",
    " अंग्रे",
    "னநாயக",
    "ైల",
    " కృ",
    " பெயர",
    " एशिया",
    " గోదా",
    " நபர்",
    " గోదావ",
    "லிருந்து",
    "రేడు",
    " पाक",
    " வேகமாக",
    "\",",
    "ாவிய",
    "ండ్",
    " पाकिस्तान",
    " பால",
    " కనుక",
    " நான்கு",
    " దీని",
    " நாட்டின்",
    " लग",
    " \"భ",
    " கொண்டுள்ளன.",
    " \"భరత",
    " (அ",
    " संस्क",
    " రాజు",
    "ய்",
    " మీద",
    "ப்பட்டுள்ளது.",
    " మీదగా",
    " हुए",
    "ிப்",
    "తను",
    " பிரபல",
    " విశ్వ",
    " मै",
    "தற்க",
    "తరువాత",
    " எஞ்சிய",
    " సింధూ",
    "काल",
    " సింధూనది",
    " சும",
    " పూర్వ",
    " நகர்ப்புற",
    " రూపా",
    "्यव",
    "ங்களானவை",
    " రూపాంత",
    "க்கி",
    " చెంది",
    " அமைப்பானது",
    " स्वत",
    "ేయ",
    " இருப்ப",
    " వలన",
    " வேளாண்மை",
    " अनुसार",
    "ముఖ్య",
    "ருக்க",
    " అవి",
    "ிர்த்த",
    " या",
    " భారతదేశం.",
    " காலத்திற்கு",
    " ఇం",
    "ூர",
    "ుగ",
    " पह",
    " தங்கள",
    " శి",
    " தங்களது",
    " మాన",
    " कई",
    "ம்ம",
    " ఏర్పడ్డాయి.",
    "ண்கள்",
    " క్ర",
    " जी",
    " சிற்ப",
    "ంలో,",
    " స్థావ",
    "ருக்கு",
    " స్థావర",
    " निर्म",
    "வில்லை.",
    " స్థావరాలు",
    "பற்ற",
    " మె",
    " விளை",
    " विक",
    " ప్రాంతాల్లో",
    "ப்படுவ",
    " విధ",
    " மீண்டும்",
    " होता",
    " చెందాయి.",
    " ஐரோ",
    " క్రీ.పూ.",
    "வற்றின்",
    "ीच",
    " విలు",
    " துறை",
    " విలువ",
    "ையை",
    " వం",
    " नहीं",
    " வெப்ப",
    " తరువాతి",
    " இமயம",
    "బడింది.",
    " कारण",
    " தொடர்ச்ச",
    "ర,",
    "லாம்.",
    " పల్ల",
    " चुनाव",
    " பிரிவ",
    " పాలించ",
    "ுடன",
    " పాలించారు.",
    "ज़",
    "జ్",
    " பா.",
    " కళ",
    " ஜ.",
    " సారస్వ",
    " इसके",
    " க.",
    "తం,",
    "ணியானது",
    "గోళ",
    "र्ण",
    " அம",
    " సాంక",
    "ப்பை",
    " సాంకే",
    "तिक",
    " 2011ஆம்",
    " సాంకేతిక",
    " மதிப்ப",
    " తత్వ",
    " साम्र",
    " சராச",
    " సహస",
    " இடத்த",
    " సహస్ర",
    " साम्राज्य",
    " உள்ளிட்டவை",
    " సహస్రాబ్",
    "ண்களுக்கு",
    " సహస్రాబ్ది",
    " मध्य",
    "மண",
    "కుల",
    " போட்டிகள்",
    " మొగలు",
    " सेना",
    "இந்தியா",
    " అయినా,",
    " அதிகார",
    " ముఖ్యంగా",
    " இந்தியக்",
    " गया।",
    "లబ",
    " அமைந்த",
    "రెండ",
    " அந்த",
    "్రాన్",
    "िश",
    " கொள்க",
    " ఐరో",
    " ஆண்டுகளுக்கு",
    " ఐరోపా",
    "िव",
    "கை",
    " ఇక్క",
    "டுத்து",
    " బ్రిటిషు",
    "िन्",
    "ப்பிய",
    " తిరు",
    "மே",
    " తిరుగు",
    " கவன",
    " करोड़",
    " తిరుగుబ",
    " சைன",
    " తిరుగుబా",
    "ப்த",
    " प्रति",
    " తిరుగుబాటు",
    " கங்க",
    "ంచిన",
    "மையை",
    "र्ष",
    " సమరం",
    " முசுலிம்",
    " சமவெ",
    " జనవరి",
    " ऊ",
    " தா",
    " 26న",
    " தில்லி",
    " గణతంత్ర",
    " சுல",
    " రాజ్యంగా",
    "नों",
    " சுல்தான",
    " జాతులు,",
    " சுல்தானக",
    " విభిన్న",
    "पा",
    " நூற்றாண்டில்",
    "ర్షణ",
    "ளவில்",
    " చవి",
    "ड़ा",
    " கட்டடக்",
    " లౌక",
    " கிழக்கிந்திய",
    " లక్షణ",
    " குடும்ப",
    "क्षा",
    " కాపా",
    "ியை",
    " కాపాడుకు",
    "ாகப்",
    " ही",
    " కాపాడుకుంట",
    " நாடாக",
    " కాపాడుకుంటూ",
    " வரு",
    "विधान",
    " అప్ప",
    " வருமான",
    "సీ",
    "டியாக",
    "मंत्र",
    " మాత్రమ",
    " வரும்",
    "த்தின",
    " మాత్రమే",
    " பல்வே",
    " दशक",
    "ౌర",
    " பல்வேறு",
    "వాదం",
    " அடைய",
    "లో,",
    " लोक",
    " இச",
    " పరీ",
    " உலகள",
    " పరీక్ష",
    " न्या",
    " உலகளாவிய",
    " నిర్వహించింది.",
    " ஆதர",
    " మరో",
    "सं",
    "ாம்",
    " ఒకటిగా",
    " பண்ட",
    " రాజ్యాంగం",
    "ख्या",
    "ிந்து",
    " అధికారం",
    "ாச",
    " లె",
    " पश्चिम",
    " நூற்றாண்டின்",
    "వ్యవస్థ",
    "மானது.",
    "మల",
    " துண",
    "रब",
    "వుతుంది.",
    " காலத்தில்",
    " ఎల",
    "ர்களின்",
    "वं",
    " ఎలక్",
    " சுமார்",
    "னர்",
    " ఎలక్టో",
    "प्र",
    " விவ",
    " ఎలక్టోర",
    " உற்பத்த",
    " ఎలక్టోరల్",
    " गु",
    " காலத்தின்",
    " కాలే",
    " மேல்",
    " సంవత్సర",
    " मु",
    "ீட",
    "మిత",
    "த்தைச்",
    " ఎన్నుకో",
    " मैदान",
    " முன்னேற்ற",
    " ఎన్నుకోబడ",
    " நெ",
    " ఎన్నుకోబడత",
    "ंप",
    " சார",
    " ఎన్నుకోబడతారు.",
    "வே",
    "వాహ",
    "्यवस्",
    "ோக",
    " లోక్‌",
    "ர்,",
    " లోక్‌స",
    " किया।",
    " புர",
    " లోక్‌సభ",
    " அந்ந",
    " పార్టీ,",
    " स्वतंत्र",
    " எத",
    " సభ్యులు",
    "ல்கள்",
    "హా",
    " आध",
    " பட்ட",
    " வலி",
    "కు,",
    " நடை",
    " भूम",
    " నియ",
    " புற",
    " నియమించ",
    " தொகை",
    "त्य",
    "్రివ",
    "ந்தி",
    " మంత్ర",
    " அதிகரித்தது.",
    "ियाँ",
    " స్వీక",
    " கி",
    " శాస",
    " தள",
    " देख",
    " శాసన",
    " தாங்க",
    " సభను",
    " வேலை",
    " प्राचीन",
    " ప్రజలు",
    " பங்கள",
    " ప్రత్య",
    " ஒன்றிய",
    " प्रदेश",
    "ప్రీ",
    " செயல்ப",
    "ప్రీం",
    "ீப",
    " बीच",
    " కోర్ట",
    " தடு",
    " హై",
    " சது",
    " संबंध",
    " రి",
    " கிராமப்புற",
    "చ్చే",
    " தலைமை",
    " द्वारा",
    " ஆண்டுகளில்",
    "వార",
    " தேர்ந்த",
    "ో,",
    " ओ",
    " தேர்ந்தெடு",
    "ెర్",
    " அமெ",
    " రకాలు",
    " அமெரிக்க",
    " पु",
    " జో",
    " பில்லியன்",
    "వారి",
    " கோடி)",
    " भाषाओं",
    " అతిప",
    "201",
    " అతిపెద్ద",
    "ிலேய",
    " नेत",
    "ிலேயே",
    " పక్ష",
    " திற",
    "ళ్ళ",
    " सक",
    " சமை",
    "పాటు",
    " (அண். பொ.",
    "రాజ",
    " सैन",
    " மாம",
    " జనతా",
    " மாமிச",
    " ఐక",
    "ंग्रेस",
    " உலகக்",
    " ఐక్య",
    " பெருங்க",
    " ప్రతిప",
    " प्रधान",
    " அருக",
    " ప్రతిపక్ష",
    " ஆப்ப",
    " ఓ",
    " ஆப்பிர",
    " संविधान",
    " ஆப்பிரிக்க",
    " ప్రభుత్వాన్ని",
    "ரே",
    " ఇటీ",
    "सद",
    " வாழ்வ",
    " కాలంలో,",
    " சிந்து",
    "పై",
    " पार्ट",
    " ஆயிர",
    " பரவிய",
    " సార్వ",
    " செய்யப்பட்ட",
    " సార్వత్ర",
    " चुनावों",
    " பகுதிகளில்",
    " సార్వత్రిక",
    "ுதியாக",
    "योग",
    "న్నీ",
    " இராச்ச",
    "కాగా",
    " இராச்சிய",
    "ாடுகள",
    "धिकार",
    " ఎన్నికల్లో",
    "க்குத",
    " కాంగ్రెస్",
    "ாப்",
    " गण",
    "ింది",
    " பகுதியில்",
    " స్థానాలను",
    " முகலாயப்",
    "ण्",
    " గెలు",
    " பேரரசு",
    " நேரத்தில்",
    " గెలుచ",
    " स्थित",
    " இறைய",
    " గెలుచుకోవడ",
    " ஏற்ப",
    " గెలుచుకోవడం",
    "ृष",
    "ம்ச",
    "ేష",
    " எதிர்",
    " భౌ",
    " அரசு",
    "पू",
    " சுத",
    " కులాలు,",
    " சுதந்திர",
    " बा",
    " ఏక",
    " பெரும",
    " ఈశ",
    " பெருமளவ",
    " थी।",
    " ఈశాన",
    " கல்வியறி",
    " ఈశాన్య",
    " கல்வியறிவு",
    "ंगा",
    " கிட்ட",
    " పర్వ",
    " வளரும்",
    " కూడుకుని",
    " विस्त",
    " வர்க்க",
    " కూడి",
    " அளவுக்கு",
    " థ",
    " வாழ",
    "ील",
    " படி,",
    " పూర్తి",
    " குறிக்க",
    " పూర్తిగా",
    " स्था",
    "ஸ்த",
    "క్కను",
    " துணைக்",
    "ई।",
    " పీ",
    " உணவு",
    " పీఠ",
    "ுகின்றன.",
    " ब्र",
    "ங்களுக்கு",
    " పీఠభ",
    " கடு",
    " పీఠభూ",
    "्यवस्था",
    " வரைய",
    " కను",
    "த்துடன்",
    " కనుమ",
    "தை",
    " शुर",
    " కొన్ని",
    " தக்க",
    " எண்ணிக்கைய",
    " గంగ",
    "द्योग",
    " நீர்",
    "పుత",
    " ஆட்சி",
    "ाला",
    "రి.",
    "மயமாக்க",
    "దేశపు",
    " தவ",
    " बहुत",
    "శీ",
    "லின்",
    " தீபக",
    " నెల",
    "टी",
    " தீபகற்ப",
    " నెలకొ",
    " வகுத்தது.",
    "తల",
    " பிந்தைய",
    " निर्माण",
    " కలు",
    " ஆகியவற்றை",
    " அந்நேர",
    " ఢిల్ల",
    " अभ",
    " அந்நேரத்தில்",
    " ఢిల్లీ,",
    " நோ",
    " జమ్మ",
    "च्च",
    " எந்த",
    " జమ్మూ",
    "வோ",
    "्यों",
    " లకు",
    " இவ்வாறு",
    " முழ",
    "ాలు:",
    " பின்பற்ற",
    "शास",
    "ూప",
    "ிக்கும்",
    "ార్క్",
    " ல",
    " क्र",
    "లేదు",
    "ெடுத்த",
    "ానీ",
    "பெ",
    " नेतृत",
    " தட்ட",
    " ఆధారప",
    " அரசின்",
    " ఆధారపడిన",
    "ाय",
    " ஆர",
    " వ్యవ",
    " ஆதிக்க",
    "దాయంలో",
    " जाती",
    "ப்படியான",
    " కంటే",
    " நிலையில்",
    "ுக்கான",
    " मा",
    "ట్ర",
    " கல்வ",
    "ట్రో",
    "ுதல்",
    " राष्ट्रीय",
    "ళి,",
    " எனின",
    "న్‌",
    " எனினும்,",
    "मंत्री",
    " இலட்சம்",
    " టె",
    " தலைவர",
    "్రామ",
    " आर्थ",
    "ஸ்ட",
    "కృ",
    "ித்துவ",
    " గత",
    " आर्थिक",
    " சமீப",
    "ెస్",
    "ிழக்கு",
    " கீழ",
    " ప్రపంచంలోని",
    "बर",
    "ுள்ளது",
    " రూప",
    " ஆற",
    " जल",
    " 2003",
    " விட",
    "004",
    " மறை",
    " मुख",
    " పట్టణాలు,",
    "ுகள்,",
    " பரிம",
    "ిర",
    "ॉंग्रेस",
    " மருந்த",
    "ర్శ",
    " உண்ண",
    "దేశీ",
    " பொதுத்",
    "मा",
    " ప్రముఖమైన",
    " குறுக",
    " అమె",
    " தேர்தலில்",
    "ालय",
    " வெளிய",
    " అమెర",
    " மூன்றாவது",
    " में,",
    " అమెరిక",
    " உச்ச",
    " వ్యాపార",
    "வண்",
    " हुआ।",
    "ులు.",
    " செயல",
    " సామా",
    " அமைச்ச",
    "वाद",
    " நீதி",
    " సామాజ",
    "மன்ற",
    "रो",
    " సామాజిక,",
    "லைய",
    "ీకరణ",
    " வருகிறது.",
    "क्ति",
    " ముంబై",
    " கொண்டிருந்த",
    " బా",
    " இறக்கு",
    " संग",
    " இறக்கும",
    "ల్‌",
    " துறையானது",
    " कम",
    "ల్‌క",
    " அறிக்க",
    "ల్‌కాత",
    "ளம்",
    " परम",
    "ల్‌కాతా",
    " தமி",
    "న్నై",
    " தமிழ்",
    " परमाण",
    " தொகைக்",
    "4%,",
    " அண். பொ.",
    " परमाणु",
    " పురుషుల",
    " நாடக",
    " అక్షరాస్యత",
    " திருமண",
    "ोष",
    " మహిళ",
    " விளையாட்ட",
    " விளையாட்டு",
    " స్త",
    " सह",
    "மிட",
    " స్త్రీ",
    " பாக்கித்த",
    " స్త్రీలు",
    " उन",
    " பாக்கித்தான்",
    " நே",
    " జనగణ",
    "தே",
    "ीस",
    "దువ",
    "தேச",
    " రెండో",
    "ல்லை",
    " अव",
    " பகி",
    " ముస్",
    " பகிர்ந்து",
    " ముస్లిం",
    " स्थान",
    " அமைந்துள்ளது.",
    " துணைக்க",
    "0%),",
    "तर",
    " துணைக்கண்ட",
    " (0.",
    "ப்படுத்தப்பட்ட",
    " కార్యక్రమాలు",
    " यू",
    "ேக",
    " భక్",
    "வர்களாக",
    "శ్ర",
    " सैन्य",
    "மையில்",
    "ாவுக்கு",
    "ంగా,",
    "களில்",
    " प्राप्त",
    " జరుపుకుంటారు.",
    "ாகர",
    " வழக்க",
    " పండుగలు",
    "णा",
    " சமயப்",
    "తంగా",
    " வாய்",
    "పావ",
    " सद",
    " தொடர்ப",
    " ஒன்றிணை",
    " భాషా",
    " சக",
    " मुख्य",
    " భాషలను",
    " வீ",
    " தென",
    " ఇంగ్లీ",
    " कॉंग्रेस",
    " தென்க",
    " ఇంగ్లీషు",
    " இசுலா",
    " తెలుగు,",
    " மீது",
    " कार्य",
    " பண்பாட்டு",
    "ాబాదు",
    " தாக்கம்",
    " न्याया",
    "నం",
    " விச",
    "ாட்டை",
    " సౌకర్యాలలో",
    " जनजा",
    " சீ",
    " నిడి",
    " நிர",
    " ஒப்பீட்ட",
    " నిడివి",
    " जनजाति",
    " ஏற்படுத்த",
    "జిత",
    " ஆக்க",
    " गणराज्य",
    "ఢా",
    "்களை",
    " இடம்",
    "ఢాకా",
    "फ़",
    " சனநாயக",
    "ఢాకా-",
    " நி",
    "ण्ड",
    " தக",
    "ఢాకా-ఢిల్లీ",
    " நடுத்த",
    "ఢాకా-ఢిల్లీ-",
    "्वीप",
    " நடுத்தர",
    "ఢాకా-ఢిల్లీ-లా",
    " வர்க்கத்தின",
    " திட்ட",
    "्ल",
    "ఢాకా-ఢిల్లీ-లాహ",
    "ன்ம",
    "ఢాకా-ఢిల్లీ-లాహోర్",
    " போதிலும்",
    "द्र",
    " வறு",
    " భారత్,",
    " குழந்த",
    " पर्व",
    " పాకిస్థాన్,",
    "ைகளின்",
    " బంగ్లాదేశ్‌",
    " பாரம்பரியமாக",
    " अरब",
    "ிப்பு",
    " ప్రారంభించ",
    "ோர",
    " ईसा",
    " ప్రతిపాదనకు",
    " ஆங்கில",
    " பாரச",
    " రైల్వేశాఖ",
    " समाज",
    " பாரசீக",
    "ంజ",
    " நன்ற",
    " अन्त",
    " பயன்படுத்தப்படுகிறது.",
    "‌ల",
    " பகுதி",
    " లా",
    " பூர்வ",
    " स्थाप",
    "మేన",
    " பூர்வீக",
    " காலப்",
    "తే",
    " शता",
    " கருத",
    "కూ",
    " அறியப்பட்ட",
    " शताब्",
    " பின்னர்",
    " నిపు",
    " இக்காலத்தின்",
    " నిపుణ",
    " शताब्दी",
    " வரலாற்ற",
    " నిపుణులు",
    "ுகின்றனர்.",
    "ीरे",
    " அவர்கள",
    " సూచించిన",
    " சாதி",
    " సూచించినట్లు",
    " ब्रि",
    " நெருக்க",
    " வளர்ந்து",
    "చన",
    " காரணமானது.",
    "्ले",
    "ుల్",
    "த்துக்கு",
    " ప్రయో",
    " தவிர்த்த",
    "ेष",
    "ங்களும்",
    " ప్రయోజ",
    " ரீதியாக",
    "ी,",
    " మనదేశం",
    " மக்களின்",
    " ஆள",
    " తె",
    " इन",
    " தந்த",
    "మూ",
    "ிப்படுத்த",
    "रूप",
    " நிர்",
    "్లో",
    " நிர்வாக",
    "డుతున్న",
    " पहले",
    "ிருக்க",
    " రోడ్డు",
    "ாமல்",
    " जिसमें",
    " மூலம்",
    "ిస్తున్న",
    "வ்",
    " జరిగే",
    "ங்களைப்",
    "्तु",
    "-க",
    " విమాన",
    " மேற்கொ",
    " अल",
    "ప్పటికినీ",
    " முழுவ",
    "ండా",
    " எண்ணிக்கையிலான",
    "पर",
    "ழை",
    " ఇతరదేశ",
    "மிய",
    " क्षेत्रीय",
    " అంత",
    "மக்க",
    " விட்ட",
    " అంతర్",
    " ओर",
    "ாளர்கள",
    " అంతర్జాతీయ",
    "ரப்",
    " विकास",
    " ముడి",
    " வலிமையான",
    " தர",
    " ఖని",
    " नेतृत्व",
    " வழியாக",
    " ఖనిజాలు",
    " நிலப்ப",
    " நிலப்பரப்ப",
    "िर",
    "ము,",
    "ுத்த",
    " ప్రపంచములో",
    " முடிவ",
    " लिये",
    "ங்களைக்",
    "జనా",
    " கைய",
    "न्द्र",
    "జనాభా",
    " அதிகப்படியான",
    "ఒక",
    " தய",
    " प्रधानमंत्री",
    " சீர",
    "మహ",
    " அடங்க",
    " युद्ध"
  ],
  "merges": [
    [
      " ",
      "t"
    ],
    [
      "a",
      "n"
    ],
    [
      "h",
      "e"
    ],
    [
      "i",
      "n"
    ],
    [
      " t",
      "he"
    ],
    [
      "o",
      "n"
    ],
    [
      "e",
      "r"
    ],
    [
      "r",
      "e"
    ],
    [
      " ",
      "a"
    ],
    [
      " ",
      "o"
    ],
    [
      "e",
      "n"
    ],
    [
      "s",
      "t"
    ],
    [
      "a",
      "l"
    ],
    [
      "d",
      "i"
    ],
    [
      "a",
      "t"
    ],
    [
      " ",
      "c"
    ],
    [
      "an",
      "d"
    ],
    [
      "e",
      "d"
    ],
    [
      " ",
      "I"
    ],
    [
      "a",
      "r"
    ],
    [
      " ",
      "w"
    ],
    [
      "i",
      "t"
    ],
    [
      " o",
      "f"
    ],
    [
      " ",
      "in"
    ],
    [
      " ",
      "s"
    ],
    [
      " ",
      "and"
    ],
    [
      " I",
      "n"
    ],
    [
      " ",
      "b"
    ],
    [
      "o",
      "r"
    ],
    [
      "i",
      "on"
    ],
    [
      " ",
      "p"
    ],
    [
      " ",
      "m"
    ],
    [
      "e",
      "s"
    ],
    [
      " ",
      "f"
    ],
    [
      "i",
      "c"
    ],
    [
      " In",
      "di"
    ],
    [
      "i",
      "s"
    ],
    [
      "in",
      "g"
    ],
    [
      "a",
      "s"
    ],
    [
      "en",
      "t"
    ],
    [
      " ",
      "l"
    ],
    [
      "o",
      "m"
    ],
    [
      " ",
      "e"
    ],
    [
      "o",
      "u"
    ],
    [
      " Indi",
      "a"
    ],
    [
      " t",
      "o"
    ],
    [
      "l",
      "y"
    ],
    [
      " ",
      "h"
    ],
    [
      " ",
      "d"
    ],
    [
      "u",
      "r"
    ],
    [
      "e",
      "c"
    ],
    [
      " ",
      "re"
    ],
    [
      " ",
      "1"
    ],
    [
      " ",
      "n"
    ],
    [
      " ",
      "g"
    ],
    [
      " ",
      "T"
    ],
    [
      "i",
      "l"
    ],
    [
      "t",
      "h"
    ],
    [
      "v",
      "er"
    ],
    [
      "u",
      "l"
    ],
    [
      " ",
      "A"
    ],
    [
      "r",
      "i"
    ],
    [
      "o",
      "l"
    ],
    [
      "r",
      "a"
    ],
    [
      " ",
      "C"
    ],
    [
      "at",
      "ion"
    ],
    [
      "a",
      "m"
    ],
    [
      " ",
      "B"
    ],
    [
      "r",
      "o"
    ],
    [
      "v",
      "e"
    ],
    [
      "l",
      "e"
    ],
    [
      " ",
      "is"
    ],
    [
      " ",
      "S"
    ],
    [
      "u",
      "t"
    ],
    [
      " T",
      "he"
    ],
    [
      "c",
      "e"
    ],
    [
      "s",
      ","
    ],
    [
      " b",
      "y"
    ],
    [
      " Indi",
      "an"
    ],
    [
      "i",
      "st"
    ],
    [
      "a",
      "st"
    ],
    [
      "e",
      "t"
    ],
    [
      " ",
      "2"
    ],
    [
      "a",
      "d"
    ],
    [
      "i",
      "m"
    ],
    [
      " t",
      "h"
    ],
    [
      "u",
      "s"
    ],
    [
      "g",
      "e"
    ],
    [
      "i",
      "g"
    ],
    [
      "o",
      "w"
    ],
    [
      " 1",
      "9"
    ],
    [
      "i",
      "d"
    ],
    [
      "it",
      "h"
    ],
    [
      "u",
      "n"
    ],
    [
      " f",
      "or"
    ],
    [
      "s",
      "."
    ],
    [
      "i",
      "r"
    ],
    [
      "'",
      "s"
    ],
    [
      " ",
      "r"
    ],
    [
      " b",
      "e"
    ],
    [
      "u",
      "c"
    ],
    [
      " w",
      "ith"
    ],
    [
      " c",
      "on"
    ],
    [
      "m",
      "ent"
    ],
    [
      " w",
      "as"
    ],
    [
      "at",
      "e"
    ],
    [
      "0",
      "0"
    ],
    [
      "i",
      "es"
    ],
    [
      "t",
      "ion"
    ],
    [
      "o",
      "p"
    ],
    [
      " a",
      "s"
    ],
    [
      " w",
      "h"
    ],
    [
      "t",
      "er"
    ],
    [
      " ",
      "st"
    ],
    [
      " m",
      "o"
    ],
    [
      " ",
      "P"
    ],
    [
      "e",
      "m"
    ],
    [
      " ",
      "M"
    ],
    [
      "r",
      "om"
    ],
    [
      "on",
      "g"
    ],
    [
      "a",
      "in"
    ],
    [
      " ",
      "it"
    ],
    [
      "re",
      "s"
    ],
    [
      "ic",
      "al"
    ],
    [
      " e",
      "x"
    ],
    [
      "e",
      "st"
    ],
    [
      " ",
      "di"
    ],
    [
      " ",
      "E"
    ],
    [
      "he",
      "r"
    ],
    [
      " ",
      "an"
    ],
    [
      "an",
      "g"
    ],
    [
      "l",
      "d"
    ],
    [
      " f",
      "rom"
    ],
    [
      " h",
      "as"
    ],
    [
      "s",
      "e"
    ],
    [
      " o",
      "r"
    ],
    [
      "a",
      "b"
    ],
    [
      "ic",
      "h"
    ],
    [
      "a",
      "c"
    ],
    [
      "i",
      "al"
    ],
    [
      "g",
      "h"
    ],
    [
      " ",
      "on"
    ],
    [
      "u",
      "m"
    ],
    [
      "il",
      "l"
    ],
    [
      "a",
      "y"
    ],
    [
      "u",
      "p"
    ],
    [
      "or",
      "t"
    ],
    [
      "d",
      "er"
    ],
    [
      " ",
      "N"
    ],
    [
      " a",
      "r"
    ],
    [
      " ",
      "D"
    ],
    [
      " wh",
      "ich"
    ],
    [
      " ",
      "H"
    ],
    [
      "u",
      "d"
    ],
    [
      " ",
      "un"
    ],
    [
      " ",
      "G"
    ],
    [
      " a",
      "re"
    ],
    [
      "i",
      "ve"
    ],
    [
      "it",
      "y"
    ],
    [
      " p",
      "ar"
    ],
    [
      "u",
      "b"
    ],
    [
      "c",
      "on"
    ],
    [
      "u",
      "re"
    ],
    [
      " 2",
      "0"
    ],
    [
      "a",
      "k"
    ],
    [
      " ",
      "("
    ],
    [
      "an",
      "t"
    ],
    [
      "r",
      "it"
    ],
    [
      "ul",
      "t"
    ],
    [
      " in",
      "c"
    ],
    [
      "a",
      ","
    ],
    [
      " it",
      "s"
    ],
    [
      "o",
      "c"
    ],
    [
      "er",
      "e"
    ],
    [
      "l",
      "i"
    ],
    [
      " c",
      "om"
    ],
    [
      "ou",
      "n"
    ],
    [
      "d",
      "u"
    ],
    [
      "o",
      "ver"
    ],
    [
      "o",
      "t"
    ],
    [
      " a",
      "l"
    ],
    [
      "en",
      "d"
    ],
    [
      " w",
      "ere"
    ],
    [
      " ",
      "v"
    ],
    [
      "i",
      "v"
    ],
    [
      " India",
      "'s"
    ],
    [
      "at",
      "ed"
    ],
    [
      "ar",
      "y"
    ],
    [
      "e",
      "l"
    ],
    [
      "e",
      "ar"
    ],
    [
      " c",
      "ent"
    ],
    [
      " d",
      "e"
    ],
    [
      "ar",
      "ge"
    ],
    [
      "c",
      "h"
    ],
    [
      "o",
      "d"
    ],
    [
      "s",
      "i"
    ],
    [
      "is",
      "m"
    ],
    [
      " c",
      "o"
    ],
    [
      " w",
      "or"
    ],
    [
      "an",
      "s"
    ],
    [
      "m",
      "p"
    ],
    [
      "ou",
      "gh"
    ],
    [
      "y",
      ","
    ],
    [
      "es",
      ","
    ],
    [
      " in",
      "t"
    ],
    [
      " p",
      "ro"
    ],
    [
      "ou",
      "r"
    ],
    [
      "ec",
      "t"
    ],
    [
      " c",
      "h"
    ],
    [
      "f",
      "ter"
    ],
    [
      " par",
      "t"
    ],
    [
      " s",
      "p"
    ],
    [
      " con",
      "t"
    ],
    [
      "ou",
      "th"
    ],
    [
      "ou",
      "s"
    ],
    [
      "over",
      "n"
    ],
    [
      "I",
      "n"
    ],
    [
      "al",
      "ly"
    ],
    [
      "a",
      "ge"
    ],
    [
      " H",
      "in"
    ],
    [
      "am",
      "e"
    ],
    [
      " a",
      "t"
    ],
    [
      " ",
      "W"
    ],
    [
      "i",
      "f"
    ],
    [
      "a",
      "g"
    ],
    [
      "ur",
      "ing"
    ],
    [
      " b",
      "ec"
    ],
    [
      "o",
      "s"
    ],
    [
      "con",
      "om"
    ],
    [
      "l",
      "ow"
    ],
    [
      " ",
      "U"
    ],
    [
      "i",
      ","
    ],
    [
      "a",
      "v"
    ],
    [
      "c",
      "t"
    ],
    [
      " m",
      "ar"
    ],
    [
      " int",
      "o"
    ],
    [
      " for",
      "m"
    ],
    [
      "is",
      "h"
    ],
    [
      "ut",
      "ion"
    ],
    [
      " e",
      "conom"
    ],
    [
      "an",
      "ce"
    ],
    [
      " p",
      "er"
    ],
    [
      "b",
      "er"
    ],
    [
      "overn",
      "ment"
    ],
    [
      " re",
      "g"
    ],
    [
      "er",
      "n"
    ],
    [
      "an",
      "y"
    ],
    [
      "a",
      "j"
    ],
    [
      "ill",
      "ion"
    ],
    [
      "a",
      "p"
    ],
    [
      "as",
      "s"
    ],
    [
      " India",
      ","
    ],
    [
      " s",
      "e"
    ],
    [
      " C",
      "h"
    ],
    [
      " s",
      "ub"
    ],
    [
      "m",
      "er"
    ],
    [
      " ",
      "J"
    ],
    [
      " ",
      "k"
    ],
    [
      " p",
      "l"
    ],
    [
      "st",
      "it"
    ],
    [
      " cent",
      "ur"
    ],
    [
      " l",
      "e"
    ],
    [
      " l",
      "arge"
    ],
    [
      " c",
      "l"
    ],
    [
      " a",
      "d"
    ],
    [
      "o",
      "re"
    ],
    [
      "res",
      "s"
    ],
    [
      " ",
      "R"
    ],
    [
      "r",
      "y"
    ],
    [
      " p",
      "op"
    ],
    [
      "t",
      "s"
    ],
    [
      " ",
      "y"
    ],
    [
      "ang",
      "u"
    ],
    [
      "i",
      "re"
    ],
    [
      "m",
      "e"
    ],
    [
      " 20",
      "1"
    ],
    [
      "en",
      "ce"
    ],
    [
      "c",
      "c"
    ],
    [
      " l",
      "angu"
    ],
    [
      " re",
      "l"
    ],
    [
      "o",
      "g"
    ],
    [
      "T",
      "he"
    ],
    [
      "in",
      "ist"
    ],
    [
      " e",
      "l"
    ],
    [
      "en",
      "er"
    ],
    [
      " g",
      "overnment"
    ],
    [
      "In",
      "di"
    ],
    [
      " pop",
      "ul"
    ],
    [
      " wor",
      "ld"
    ],
    [
      " reg",
      "ion"
    ],
    [
      " d",
      "ec"
    ],
    [
      " p",
      "ri"
    ],
    [
      "e",
      ","
    ],
    [
      "re",
      "as"
    ],
    [
      "q",
      "u"
    ],
    [
      " ",
      "K"
    ],
    [
      "l",
      "ud"
    ],
    [
      " A",
      "si"
    ],
    [
      " In",
      "d"
    ],
    [
      " y",
      "ear"
    ],
    [
      " a",
      "g"
    ],
    [
      " Hin",
      "du"
    ],
    [
      "a",
      "ve"
    ],
    [
      "re",
      "at"
    ],
    [
      " ar",
      "t"
    ],
    [
      "p",
      "ort"
    ],
    [
      "t",
      "her"
    ],
    [
      " com",
      "p"
    ],
    [
      " f",
      "ir"
    ],
    [
      " fir",
      "st"
    ],
    [
      " s",
      "y"
    ],
    [
      "om",
      "e"
    ],
    [
      " t",
      "ra"
    ],
    [
      " s",
      "h"
    ],
    [
      "es",
      "."
    ],
    [
      "v",
      "ed"
    ],
    [
      "re",
      "d"
    ],
    [
      " ",
      "V"
    ],
    [
      "f",
      "f"
    ],
    [
      "d",
      "uc"
    ],
    [
      " ",
      "end"
    ],
    [
      "al",
      "l"
    ],
    [
      "di",
      "tion"
    ],
    [
      "p",
      "p"
    ],
    [
      "uc",
      "h"
    ],
    [
      " inc",
      "lud"
    ],
    [
      "ec",
      "tion"
    ],
    [
      "ig",
      "h"
    ],
    [
      "us",
      "ed"
    ],
    [
      " India",
      "."
    ],
    [
      "mp",
      "ire"
    ],
    [
      " bec",
      "ame"
    ],
    [
      "g",
      "an"
    ],
    [
      " o",
      "ver"
    ],
    [
      " re",
      "s"
    ],
    [
      "stit",
      "ution"
    ],
    [
      "ro",
      "w"
    ],
    [
      "o",
      "k"
    ],
    [
      "Indi",
      "a"
    ],
    [
      " sy",
      "st"
    ],
    [
      " syst",
      "em"
    ],
    [
      "w",
      "e"
    ],
    [
      "o",
      "th"
    ],
    [
      " d",
      "uring"
    ],
    [
      "s",
      "o"
    ],
    [
      "der",
      "n"
    ],
    [
      "est",
      "ern"
    ],
    [
      " ",
      "ri"
    ],
    [
      " h",
      "ad"
    ],
    [
      "d",
      "h"
    ],
    [
      " b",
      "ut"
    ],
    [
      "ation",
      "al"
    ],
    [
      "aj",
      "or"
    ],
    [
      " be",
      "en"
    ],
    [
      "1",
      ","
    ],
    [
      " n",
      "e"
    ],
    [
      "h",
      "ar"
    ],
    [
      " h",
      "ave"
    ],
    [
      "t",
      "ed"
    ],
    [
      "inist",
      "er"
    ],
    [
      "y",
      "."
    ],
    [
      "r",
      "ic"
    ],
    [
      " ",
      "5"
    ],
    [
      " s",
      "up"
    ],
    [
      " con",
      "s"
    ],
    [
      " rel",
      "ig"
    ],
    [
      "r",
      "al"
    ],
    [
      " m",
      "e"
    ],
    [
      "ur",
      "al"
    ],
    [
      "ig",
      "n"
    ],
    [
      " in",
      "f"
    ],
    [
      " ",
      "F"
    ],
    [
      "at",
      "es"
    ],
    [
      "ow",
      "er"
    ],
    [
      " al",
      "so"
    ],
    [
      " mo",
      "re"
    ],
    [
      " S",
      "outh"
    ],
    [
      " mo",
      "st"
    ],
    [
      "oun",
      "d"
    ],
    [
      " l",
      "at"
    ],
    [
      "or",
      "d"
    ],
    [
      "h",
      "i"
    ],
    [
      " t",
      "w"
    ],
    [
      " p",
      "e"
    ],
    [
      "id",
      "e"
    ],
    [
      " a",
      "fter"
    ],
    [
      "e",
      "."
    ],
    [
      " ",
      "3"
    ],
    [
      " m",
      "illion"
    ],
    [
      " inc",
      "reas"
    ],
    [
      " ",
      "7"
    ],
    [
      " th",
      "at"
    ],
    [
      " s",
      "uch"
    ],
    [
      " n",
      "um"
    ],
    [
      " g",
      "ener"
    ],
    [
      "ong",
      "ress"
    ],
    [
      " m",
      "inister"
    ],
    [
      "a",
      "."
    ],
    [
      "or",
      "th"
    ],
    [
      "t",
      "in"
    ],
    [
      " l",
      "ong"
    ],
    [
      " ",
      "4"
    ],
    [
      " ",
      "he"
    ],
    [
      " p",
      "ol"
    ],
    [
      " tw",
      "o"
    ],
    [
      " r",
      "ul"
    ],
    [
      " mo",
      "dern"
    ],
    [
      "at",
      "ic"
    ],
    [
      " di",
      "s"
    ],
    [
      "m",
      "ong"
    ],
    [
      " tra",
      "dition"
    ],
    [
      " ",
      "\""
    ],
    [
      " ",
      "im"
    ],
    [
      " b",
      "oth"
    ],
    [
      "en",
      "c"
    ],
    [
      "im",
      "al"
    ],
    [
      "p",
      "t"
    ],
    [
      " c",
      "a"
    ],
    [
      " 2",
      "00"
    ],
    [
      " pri",
      "me"
    ],
    [
      "ist",
      "an"
    ],
    [
      " year",
      "s"
    ],
    [
      " B",
      "C"
    ],
    [
      " BC",
      "E"
    ],
    [
      " c",
      "ast"
    ],
    [
      " s",
      "oc"
    ],
    [
      " E",
      "mpire"
    ],
    [
      " s",
      "c"
    ],
    [
      "it",
      "ion"
    ],
    [
      " 19",
      "5"
    ],
    [
      " 20",
      "2"
    ],
    [
      " m",
      "ajor"
    ],
    [
      "en",
      "s"
    ],
    [
      "s",
      "h"
    ],
    [
      "re",
      "n"
    ],
    [
      "et",
      "we"
    ],
    [
      "etwe",
      "en"
    ],
    [
      "ur",
      "b"
    ],
    [
      "urb",
      "an"
    ],
    [
      " cl",
      "ass"
    ],
    [
      " un",
      "der"
    ],
    [
      "u",
      "st"
    ],
    [
      " C",
      "ongress"
    ],
    [
      " s",
      "er"
    ],
    [
      " of",
      "f"
    ],
    [
      "e",
      "p"
    ],
    [
      "l",
      "ic"
    ],
    [
      " c",
      "oun"
    ],
    [
      "in",
      "ce"
    ],
    [
      " ",
      "O"
    ],
    [
      "i",
      "an"
    ],
    [
      " ",
      "L"
    ],
    [
      "is",
      "ation"
    ],
    [
      "o",
      "-"
    ],
    [
      " langu",
      "age"
    ],
    [
      " B",
      "ud"
    ],
    [
      " Bud",
      "dh"
    ],
    [
      "o",
      "se"
    ],
    [
      " th",
      "is"
    ],
    [
      " c",
      "ult"
    ],
    [
      "u",
      "res"
    ],
    [
      "he",
      "d"
    ],
    [
      "i",
      "k"
    ],
    [
      " ex",
      "p"
    ],
    [
      " B",
      "rit"
    ],
    [
      " Brit",
      "ish"
    ],
    [
      "r",
      "ough"
    ],
    [
      "am",
      "ent"
    ],
    [
      " popul",
      "ation"
    ],
    [
      "uc",
      "le"
    ],
    [
      "ucle",
      "ar"
    ],
    [
      "ve",
      "l"
    ],
    [
      " ",
      "urban"
    ],
    [
      " n",
      "ot"
    ],
    [
      "c",
      "es"
    ],
    [
      " g",
      "row"
    ],
    [
      " the",
      "ir"
    ],
    [
      " num",
      "ber"
    ],
    [
      " el",
      "ection"
    ],
    [
      " 19",
      "6"
    ],
    [
      "ial",
      "ly"
    ],
    [
      " s",
      "outh"
    ],
    [
      "en",
      "g"
    ],
    [
      "ou",
      "t"
    ],
    [
      " l",
      "and"
    ],
    [
      "ak",
      "istan"
    ],
    [
      " n",
      "orth"
    ],
    [
      "con",
      "tin"
    ],
    [
      "contin",
      "ent"
    ],
    [
      "n",
      "i"
    ],
    [
      " re",
      "c"
    ],
    [
      " e",
      "ar"
    ],
    [
      " n",
      "ort"
    ],
    [
      "ism",
      ","
    ],
    [
      " be",
      "gan"
    ],
    [
      "6",
      "%"
    ],
    [
      "ver",
      "s"
    ],
    [
      "el",
      "l"
    ],
    [
      "re",
      "e"
    ],
    [
      "ical",
      "ly"
    ],
    [
      " C",
      "on"
    ],
    [
      " m",
      "any"
    ],
    [
      "on",
      "d"
    ],
    [
      "in",
      "e"
    ],
    [
      " b",
      "etween"
    ],
    [
      "ri",
      "b"
    ],
    [
      "l",
      "o"
    ],
    [
      "low",
      "ing"
    ],
    [
      " f",
      "ol"
    ],
    [
      " 19",
      "9"
    ],
    [
      " d",
      "ance"
    ],
    [
      " I",
      "t"
    ],
    [
      " world",
      "'s"
    ],
    [
      " P",
      "akistan"
    ],
    [
      " e",
      "ast"
    ],
    [
      " lat",
      "er"
    ],
    [
      "ad",
      "e"
    ],
    [
      "mer",
      "g"
    ],
    [
      "ag",
      "es"
    ],
    [
      " nort",
      "her"
    ],
    [
      " norther",
      "n"
    ],
    [
      " cast",
      "e"
    ],
    [
      "e",
      "f"
    ],
    [
      "it",
      "e"
    ],
    [
      " econom",
      "ic"
    ],
    [
      "ang",
      "es"
    ],
    [
      "on",
      "-"
    ],
    [
      "l",
      "u"
    ],
    [
      "0",
      ","
    ],
    [
      " re",
      "p"
    ],
    [
      " t",
      "im"
    ],
    [
      " t",
      "er"
    ],
    [
      " a",
      "pp"
    ],
    [
      "t",
      "ing"
    ],
    [
      "ies",
      ","
    ],
    [
      " f",
      "ore"
    ],
    [
      " U",
      "n"
    ],
    [
      " ",
      "ra"
    ],
    [
      "it",
      "ed"
    ],
    [
      " ",
      "up"
    ],
    [
      " ",
      "j"
    ],
    [
      "ub",
      "lic"
    ],
    [
      " coun",
      "t"
    ],
    [
      " s",
      "ince"
    ],
    [
      " A",
      "n"
    ],
    [
      " h",
      "um"
    ],
    [
      " sub",
      "continent"
    ],
    [
      "00",
      "0"
    ],
    [
      "om",
      "in"
    ],
    [
      " w",
      "estern"
    ],
    [
      "g",
      "in"
    ],
    [
      "a",
      "w"
    ],
    [
      "v",
      "i"
    ],
    [
      " the",
      "re"
    ],
    [
      "u",
      "gh"
    ],
    [
      "a",
      "ce"
    ],
    [
      " 1",
      "8"
    ],
    [
      "ol",
      "og"
    ],
    [
      " inf",
      "lu"
    ],
    [
      " increas",
      "ed"
    ],
    [
      " l",
      "it"
    ],
    [
      " r",
      "ate"
    ],
    [
      "il",
      "it"
    ],
    [
      "m",
      "on"
    ],
    [
      "c",
      "i"
    ],
    [
      " sp",
      "ec"
    ],
    [
      " ex",
      "t"
    ],
    [
      " pe",
      "op"
    ],
    [
      " s",
      "ec"
    ],
    [
      " a",
      "b"
    ],
    [
      " C",
      "E"
    ],
    [
      " class",
      "ical"
    ],
    [
      " p",
      "ower"
    ],
    [
      "ul",
      "ar"
    ],
    [
      "vel",
      "op"
    ],
    [
      "ar",
      "d"
    ],
    [
      "k",
      "et"
    ],
    [
      "er",
      "ed"
    ],
    [
      "v",
      "ent"
    ],
    [
      "-",
      "l"
    ],
    [
      " 19",
      "4"
    ],
    [
      "7",
      ","
    ],
    [
      "s",
      "l"
    ],
    [
      " T",
      "h"
    ],
    [
      " th",
      "an"
    ],
    [
      " o",
      "cc"
    ],
    [
      " l",
      "if"
    ],
    [
      " e",
      "merg"
    ],
    [
      " ri",
      "ver"
    ],
    [
      "p",
      "l"
    ],
    [
      "is",
      "e"
    ],
    [
      "is",
      "ed"
    ],
    [
      "ab",
      "l"
    ],
    [
      " M",
      "ugh"
    ],
    [
      " Mugh",
      "al"
    ],
    [
      " C",
      "om"
    ],
    [
      "ec",
      "h"
    ],
    [
      " par",
      "li"
    ],
    [
      " parli",
      "ament"
    ],
    [
      "S",
      "$"
    ],
    [
      " lit",
      "er"
    ],
    [
      "or",
      "m"
    ],
    [
      " m",
      "id"
    ],
    [
      " n",
      "uclear"
    ],
    [
      " st",
      "ate"
    ],
    [
      "h",
      "m"
    ],
    [
      "vers",
      "ity"
    ],
    [
      "ect",
      "ed"
    ],
    [
      "ate",
      "ly"
    ],
    [
      " h",
      "ist"
    ],
    [
      " hist",
      "or"
    ],
    [
      " peop",
      "le"
    ],
    [
      "ar",
      "i"
    ],
    [
      "e",
      "ver"
    ],
    [
      "ow",
      "n"
    ],
    [
      " per",
      "i"
    ],
    [
      " peri",
      "od"
    ],
    [
      " ne",
      "w"
    ],
    [
      "s",
      "s"
    ],
    [
      "p",
      "h"
    ],
    [
      "r",
      "ol"
    ],
    [
      "ab",
      "le"
    ],
    [
      "as",
      ","
    ],
    [
      "am",
      "il"
    ],
    [
      " de",
      "velop"
    ],
    [
      " A",
      "l"
    ],
    [
      " w",
      "ar"
    ],
    [
      "es",
      "p"
    ],
    [
      "ies",
      "."
    ],
    [
      " m",
      "at"
    ],
    [
      " c",
      "our"
    ],
    [
      " a",
      "mong"
    ],
    [
      "ic",
      "e"
    ],
    [
      " gener",
      "al"
    ],
    [
      " large",
      "st"
    ],
    [
      " m",
      "us"
    ],
    [
      " B",
      "eng"
    ],
    [
      " Beng",
      "al"
    ],
    [
      " Ch",
      "in"
    ],
    [
      "ation",
      ","
    ],
    [
      " b",
      "as"
    ],
    [
      "o",
      ","
    ],
    [
      "ill",
      "en"
    ],
    [
      "illen",
      "ni"
    ],
    [
      "illenni",
      "um"
    ],
    [
      " S",
      "ans"
    ],
    [
      " Sans",
      "k"
    ],
    [
      " Sansk",
      "rit"
    ],
    [
      "ur",
      "op"
    ],
    [
      " soc",
      "ial"
    ],
    [
      "ation",
      "s"
    ],
    [
      " M",
      "a"
    ],
    [
      " e",
      "st"
    ],
    [
      "l",
      "im"
    ],
    [
      "ult",
      "an"
    ],
    [
      " P",
      "un"
    ],
    [
      " Pun",
      "j"
    ],
    [
      " Punj",
      "ab"
    ],
    [
      " relig",
      "ion"
    ],
    [
      "at",
      "ive"
    ],
    [
      " E",
      "ast"
    ],
    [
      "ve",
      "ment"
    ],
    [
      " n",
      "on-"
    ],
    [
      "er",
      "al"
    ],
    [
      " th",
      "rough"
    ],
    [
      " U",
      "S$"
    ],
    [
      " th",
      "ough"
    ],
    [
      " m",
      "ilit"
    ],
    [
      "p",
      "er"
    ],
    [
      " re",
      "f"
    ],
    [
      "-",
      "d"
    ],
    [
      "ci",
      "ent"
    ],
    [
      "r",
      "on"
    ],
    [
      "o",
      "od"
    ],
    [
      "he",
      "n"
    ],
    [
      "t",
      "en"
    ],
    [
      " includ",
      "ing"
    ],
    [
      " s",
      "et"
    ],
    [
      "p",
      "le"
    ],
    [
      " the",
      "m"
    ],
    [
      " ca",
      "used"
    ],
    [
      " P",
      "l"
    ],
    [
      "di",
      "c"
    ],
    [
      " le",
      "ad"
    ],
    [
      "es",
      "s"
    ],
    [
      "5",
      "."
    ],
    [
      "ter",
      "n"
    ],
    [
      " con",
      "stitution"
    ],
    [
      "0",
      "."
    ],
    [
      "he",
      "m"
    ],
    [
      " mus",
      "ic"
    ],
    [
      "-l",
      "arge"
    ],
    [
      "-large",
      "st"
    ],
    [
      "he",
      "ast"
    ],
    [
      " lif",
      "e"
    ],
    [
      " Ind",
      "us"
    ],
    [
      " ",
      "9"
    ],
    [
      " g",
      "ra"
    ],
    [
      "iv",
      "il"
    ],
    [
      "ir",
      "d"
    ],
    [
      " m",
      "illennium"
    ],
    [
      " B",
      "y"
    ],
    [
      " 1",
      "2"
    ],
    [
      " Ind",
      "o-"
    ],
    [
      " p",
      "re"
    ],
    [
      "e",
      "x"
    ],
    [
      "t",
      "a"
    ],
    [
      " relig",
      "i"
    ],
    [
      "us",
      "lim"
    ],
    [
      " C",
      "ent"
    ],
    [
      " Asi",
      "a"
    ],
    [
      "re",
      "w"
    ],
    [
      " S",
      "ik"
    ],
    [
      " Com",
      "p"
    ],
    [
      " g",
      "r"
    ],
    [
      "ly",
      ","
    ],
    [
      "duc",
      "ed"
    ],
    [
      " o",
      "ther"
    ],
    [
      "i",
      "ed"
    ],
    [
      " b",
      "illion"
    ],
    [
      "t",
      "y"
    ],
    [
      " milit",
      "ary"
    ],
    [
      "il",
      "d"
    ],
    [
      "ord",
      "ing"
    ],
    [
      "ow",
      "ever"
    ],
    [
      "owever",
      ","
    ],
    [
      " f",
      "e"
    ],
    [
      " st",
      "y"
    ],
    [
      " de",
      "f"
    ],
    [
      " e",
      "mp"
    ],
    [
      "a",
      "red"
    ],
    [
      " m",
      "ain"
    ],
    [
      " s",
      "ome"
    ],
    [
      "ou",
      "ld"
    ],
    [
      "er",
      "s"
    ],
    [
      "ac",
      "k"
    ],
    [
      "ro",
      "c"
    ],
    [
      "t",
      ","
    ],
    [
      " fore",
      "st"
    ],
    [
      " f",
      "ar"
    ],
    [
      " t",
      "r"
    ],
    [
      " ",
      "6"
    ],
    [
      " al",
      "l"
    ],
    [
      " l",
      "ed"
    ],
    [
      " s",
      "ign"
    ],
    [
      "id",
      "ent"
    ],
    [
      " wh",
      "o"
    ],
    [
      " N",
      "e"
    ],
    [
      " c",
      "r"
    ],
    [
      " A",
      "fter"
    ],
    [
      " di",
      "re"
    ],
    [
      " W",
      "or"
    ],
    [
      " Wor",
      "ld"
    ],
    [
      " ser",
      "ved"
    ],
    [
      " r",
      "ural"
    ],
    [
      "re",
      "ad"
    ],
    [
      " H",
      "imal"
    ],
    [
      " Himal",
      "ay"
    ],
    [
      " on",
      "e"
    ],
    [
      "1",
      "."
    ],
    [
      " 19",
      "8"
    ],
    [
      " mat",
      "hem"
    ],
    [
      " count",
      "ry"
    ],
    [
      "an",
      "k"
    ],
    [
      " I",
      "sl"
    ],
    [
      " n",
      "o"
    ],
    [
      "5",
      ","
    ],
    [
      " m",
      "ade"
    ],
    [
      " h",
      "igh"
    ],
    [
      " emerg",
      "ed"
    ],
    [
      " th",
      "ird"
    ],
    [
      "e",
      "an"
    ],
    [
      " J",
      "ain"
    ],
    [
      " pol",
      "it"
    ],
    [
      " polit",
      "ical"
    ],
    [
      "ing",
      ","
    ],
    [
      " st",
      "at"
    ],
    [
      " w",
      "om"
    ],
    [
      " wom",
      "en"
    ],
    [
      "d",
      "le"
    ],
    [
      " religi",
      "ous"
    ],
    [
      " co",
      "ast"
    ],
    [
      " M",
      "uslim"
    ],
    [
      " Cent",
      "ral"
    ],
    [
      "m",
      "it"
    ],
    [
      " pl",
      "ain"
    ],
    [
      " D",
      "el"
    ],
    [
      "ultan",
      "ate"
    ],
    [
      " cult",
      "ure"
    ],
    [
      " Sik",
      "h"
    ],
    [
      " ",
      "us"
    ],
    [
      " Comp",
      "any"
    ],
    [
      " c",
      "ol"
    ],
    [
      " econom",
      "y"
    ],
    [
      " t",
      "ech"
    ],
    [
      " a",
      "cc"
    ],
    [
      "ist",
      "ic"
    ],
    [
      "4",
      "%"
    ],
    [
      "p",
      "ut"
    ],
    [
      "o",
      "di"
    ],
    [
      " E",
      "n"
    ],
    [
      "g",
      "l"
    ],
    [
      ")",
      ","
    ],
    [
      " ",
      "used"
    ],
    [
      "du",
      "st"
    ],
    [
      " centur",
      "y,"
    ],
    [
      " w",
      "ide"
    ],
    [
      " co",
      "al"
    ],
    [
      " hum",
      "an"
    ],
    [
      "v",
      "id"
    ],
    [
      "h",
      "r"
    ],
    [
      " c",
      "it"
    ],
    [
      " w",
      "e"
    ],
    [
      " f",
      "ound"
    ],
    [
      " as",
      "s"
    ],
    [
      " ag",
      "ric"
    ],
    [
      " agric",
      "ult"
    ],
    [
      " o",
      "ut"
    ],
    [
      "an",
      "ge"
    ],
    [
      "ar",
      "n"
    ],
    [
      " cent",
      "ral"
    ],
    [
      " cont",
      "rol"
    ],
    [
      "c",
      "ri"
    ],
    [
      " ",
      "en"
    ],
    [
      " g",
      "reat"
    ],
    [
      " tr",
      "ans"
    ],
    [
      "ver",
      "y"
    ],
    [
      "om",
      "et"
    ],
    [
      " S",
      "h"
    ],
    [
      " l",
      "oc"
    ],
    [
      "an",
      "c"
    ],
    [
      "t",
      "il"
    ],
    [
      "o",
      "st"
    ],
    [
      "an",
      "u"
    ],
    [
      " s",
      "ur"
    ],
    [
      "ment",
      "s"
    ],
    [
      " fol",
      "lowing"
    ],
    [
      " G",
      "and"
    ],
    [
      "rit",
      "or"
    ],
    [
      " Pl",
      "ate"
    ],
    [
      " includ",
      "e"
    ],
    [
      " influ",
      "enc"
    ],
    [
      " S",
      "t"
    ],
    [
      " cour",
      "t"
    ],
    [
      " grow",
      "th"
    ],
    [
      " cont",
      "rib"
    ],
    [
      " co",
      "ok"
    ],
    [
      " 201",
      "1"
    ],
    [
      "em",
      "oc"
    ],
    [
      "w",
      "est"
    ],
    [
      "ad",
      "es"
    ],
    [
      " I",
      "ts"
    ],
    [
      "a",
      "re"
    ],
    [
      " occ",
      "up"
    ],
    [
      "ver",
      "se"
    ],
    [
      "l",
      "ed"
    ],
    [
      "v",
      "ol"
    ],
    [
      "v",
      "ing"
    ],
    [
      "al",
      "le"
    ],
    [
      " ar",
      "ch"
    ],
    [
      "urop",
      "ean"
    ],
    [
      " di",
      "ff"
    ],
    [
      " ear",
      "ly"
    ],
    [
      "k",
      "ed"
    ],
    [
      "y",
      "a"
    ],
    [
      " ex",
      "port"
    ],
    [
      "ity",
      ","
    ],
    [
      " ar",
      "m"
    ],
    [
      "w",
      "or"
    ],
    [
      "wor",
      "k"
    ],
    [
      " c",
      "re"
    ],
    [
      " le",
      "g"
    ],
    [
      " ri",
      "gh"
    ],
    [
      "n",
      "olog"
    ],
    [
      " mo",
      "vement"
    ],
    [
      "-",
      "s"
    ],
    [
      " f",
      "ed"
    ],
    [
      " parliament",
      "ary"
    ],
    [
      " g",
      "rew"
    ],
    [
      "3",
      "."
    ],
    [
      " c",
      "ap"
    ],
    [
      "u",
      "ally"
    ],
    [
      " liter",
      "ac"
    ],
    [
      "2",
      "0"
    ],
    [
      " b",
      "i"
    ],
    [
      " sup",
      "port"
    ],
    [
      " En",
      "gl"
    ],
    [
      " Engl",
      "ish"
    ],
    [
      "iv",
      "es"
    ],
    [
      " Con",
      "stitution"
    ],
    [
      " o",
      "ri"
    ],
    [
      " ori",
      "gin"
    ],
    [
      "1",
      "9"
    ],
    [
      " centur",
      "y"
    ],
    [
      " ",
      "ent"
    ],
    [
      " sec",
      "ond"
    ],
    [
      " di",
      "versity"
    ],
    [
      " an",
      "imal"
    ],
    [
      " fe",
      "at"
    ],
    [
      "igh",
      "t"
    ],
    [
      " f",
      "ig"
    ],
    [
      " G",
      "anges"
    ],
    [
      "o",
      "in"
    ],
    [
      "ac",
      "h"
    ],
    [
      " b",
      "ir"
    ],
    [
      "ra",
      "ph"
    ],
    [
      "n",
      "e"
    ],
    [
      " de",
      "v"
    ],
    [
      "al",
      "s"
    ],
    [
      "in",
      "s"
    ],
    [
      " the",
      "y"
    ],
    [
      "i",
      "z"
    ],
    [
      "if",
      "ic"
    ],
    [
      " loc",
      "al"
    ],
    [
      " ",
      "esp"
    ],
    [
      " esp",
      "ec"
    ],
    [
      " espec",
      "ially"
    ],
    [
      "v",
      "en"
    ],
    [
      " 1",
      "7"
    ],
    [
      " p",
      "ain"
    ],
    [
      " pain",
      "ting"
    ],
    [
      "ar",
      "at"
    ],
    [
      " dire",
      "ct"
    ],
    [
      "a",
      "f"
    ],
    [
      "st",
      "r"
    ],
    [
      " in",
      "dust"
    ],
    [
      " Gand",
      "hi"
    ],
    [
      " l",
      "i"
    ],
    [
      " ter",
      "ritor"
    ],
    [
      "a",
      "u"
    ],
    [
      " an",
      "cient"
    ],
    [
      "c",
      "tion"
    ],
    [
      " re",
      "m"
    ],
    [
      " rem",
      "ain"
    ],
    [
      " d",
      "ra"
    ],
    [
      "un",
      "d"
    ],
    [
      " major",
      "ity"
    ],
    [
      " ",
      "her"
    ],
    [
      " 19",
      "7"
    ],
    [
      "J",
      "P"
    ],
    [
      " Ne",
      "hr"
    ],
    [
      " Nehr",
      "u"
    ],
    [
      "6",
      ","
    ],
    [
      " part",
      "y"
    ],
    [
      " l",
      "ast"
    ],
    [
      " Un",
      "ited"
    ],
    [
      ")",
      "."
    ],
    [
      "%",
      "."
    ],
    [
      " c",
      "ens"
    ],
    [
      " are",
      "as"
    ],
    [
      "ic",
      "ial"
    ],
    [
      " Hin",
      "di"
    ],
    [
      " mar",
      "ri"
    ],
    [
      " sc",
      "ul"
    ],
    [
      " scul",
      "pt"
    ],
    [
      " in",
      "d"
    ],
    [
      " 194",
      "7,"
    ],
    [
      "out",
      "heast"
    ],
    [
      "y",
      "an"
    ],
    [
      "m",
      "ar"
    ],
    [
      " An",
      "d"
    ],
    [
      " And",
      "am"
    ],
    [
      " Andam",
      "an"
    ],
    [
      "and",
      "s"
    ],
    [
      "er",
      "s,"
    ],
    [
      "ing",
      "s"
    ],
    [
      " langu",
      "ages"
    ],
    [
      " D",
      "uring"
    ],
    [
      "ure",
      ","
    ],
    [
      " dec",
      "l"
    ],
    [
      "in",
      "ed"
    ],
    [
      " k",
      "ing"
    ],
    [
      "d",
      "om"
    ],
    [
      "is",
      "hed"
    ],
    [
      " s",
      "ou"
    ],
    [
      " sou",
      "ther"
    ],
    [
      " souther",
      "n"
    ],
    [
      " in",
      "ter"
    ],
    [
      " Del",
      "hi"
    ],
    [
      " cre",
      "ated"
    ],
    [
      " comp",
      "os"
    ],
    [
      " centur",
      "ies"
    ],
    [
      "f",
      "t"
    ],
    [
      "ur",
      "n"
    ],
    [
      "8",
      "."
    ],
    [
      " p",
      "rom"
    ],
    [
      " Indian",
      "s"
    ],
    [
      " tech",
      "nolog"
    ],
    [
      " ",
      "ed"
    ],
    [
      " ed",
      "uc"
    ],
    [
      " n",
      "ational"
    ],
    [
      "ac",
      "t"
    ],
    [
      " fed",
      "eral"
    ],
    [
      " rep",
      "ublic"
    ],
    [
      " 1",
      "."
    ],
    [
      "2",
      ","
    ],
    [
      " bec",
      "ome"
    ],
    [
      " a",
      "ir"
    ],
    [
      "cc",
      "ording"
    ],
    [
      "ur",
      "ther"
    ],
    [
      " P",
      "er"
    ],
    [
      " Per",
      "si"
    ],
    [
      " east",
      "ern"
    ],
    [
      " w",
      "ell"
    ],
    [
      " popul",
      "ar"
    ],
    [
      " ear",
      "li"
    ],
    [
      "et",
      "ic"
    ],
    [
      "p",
      "ro"
    ],
    [
      "ant",
      "s"
    ],
    [
      "p",
      "ed"
    ],
    [
      " The",
      "se"
    ],
    [
      " M",
      "o"
    ],
    [
      "ra",
      ","
    ],
    [
      "h",
      "i,"
    ],
    [
      " sty",
      "l"
    ],
    [
      "w",
      "n"
    ],
    [
      "d",
      "ay"
    ],
    [
      "at",
      "ing"
    ],
    [
      "he",
      "s"
    ],
    [
      "all",
      "ed"
    ],
    [
      " bas",
      "ed"
    ],
    [
      "i",
      "x"
    ],
    [
      "se",
      "qu"
    ],
    [
      "sequ",
      "ent"
    ],
    [
      "am",
      "m"
    ],
    [
      " ",
      "roc"
    ],
    [
      " ad",
      "m"
    ],
    [
      " r",
      "at"
    ],
    [
      " T",
      "amil"
    ],
    [
      " p",
      "en"
    ],
    [
      " pen",
      "ins"
    ],
    [
      " region",
      "al"
    ],
    [
      " wh",
      "ose"
    ],
    [
      " s",
      "m"
    ],
    [
      "ific",
      "ant"
    ],
    [
      " Buddh",
      "ist"
    ],
    [
      " s",
      "ultanate"
    ],
    [
      "th",
      "ough"
    ],
    [
      "ra",
      "ct"
    ],
    [
      " mar",
      "ket"
    ],
    [
      "ou",
      "p"
    ],
    [
      " com",
      "mer"
    ],
    [
      " p",
      "res"
    ],
    [
      "or",
      "s"
    ],
    [
      " long",
      "er"
    ],
    [
      " se",
      "ver"
    ],
    [
      "le",
      "g"
    ],
    [
      " N",
      "ational"
    ],
    [
      " The",
      "re"
    ],
    [
      "c",
      "ent"
    ],
    [
      "h",
      "at"
    ],
    [
      " w",
      "on"
    ],
    [
      " cont",
      "in"
    ],
    [
      " l",
      "ower"
    ],
    [
      "ain",
      "s"
    ],
    [
      " W",
      "estern"
    ],
    [
      " l",
      "ow"
    ],
    [
      "i",
      ")"
    ],
    [
      " un",
      "ion"
    ],
    [
      " of",
      "ten"
    ],
    [
      " end",
      "em"
    ],
    [
      "0",
      "%"
    ],
    [
      "b",
      "al"
    ],
    [
      " c",
      "ar"
    ],
    [
      " A",
      "ct"
    ],
    [
      " B",
      "JP"
    ],
    [
      "er",
      ","
    ],
    [
      "od",
      "y"
    ],
    [
      "4",
      "."
    ],
    [
      "em",
      "ber"
    ],
    [
      "9",
      "."
    ],
    [
      " ex",
      "ec"
    ],
    [
      " exec",
      "ut"
    ],
    [
      "iv",
      "ed"
    ],
    [
      "D",
      "P"
    ],
    [
      "an",
      "ces"
    ],
    [
      "f",
      "ore"
    ],
    [
      " r",
      "ates"
    ],
    [
      " com",
      "mon"
    ],
    [
      " mathem",
      "atic"
    ],
    [
      " ind",
      "ep"
    ],
    [
      " indep",
      "end"
    ],
    [
      "ra",
      "c"
    ],
    [
      " A",
      "ra"
    ],
    [
      "b",
      "ian"
    ],
    [
      " S",
      "e"
    ],
    [
      " w",
      "est"
    ],
    [
      "b",
      "ar"
    ],
    [
      " A",
      "f"
    ],
    [
      "-",
      "g"
    ],
    [
      ",",
      "000"
    ],
    [
      " Sanskrit",
      ","
    ],
    [
      " rec",
      "ord"
    ],
    [
      "di",
      "an"
    ],
    [
      "ant",
      "ed"
    ],
    [
      "re",
      "di"
    ],
    [
      " r",
      "ise"
    ],
    [
      " f",
      "l"
    ],
    [
      " art",
      ","
    ],
    [
      "il",
      "ity"
    ],
    [
      "li",
      "ef"
    ],
    [
      " king",
      "dom"
    ],
    [
      " S",
      "outheast"
    ],
    [
      " Isl",
      "am"
    ],
    [
      " est",
      "abl"
    ],
    [
      " le",
      "ft"
    ],
    [
      " rul",
      "e"
    ],
    [
      " educ",
      "ation"
    ],
    [
      "m",
      "ary"
    ],
    [
      " d",
      "omin"
    ],
    [
      "al",
      "e"
    ],
    [
      "os",
      "s"
    ],
    [
      "r",
      "ation"
    ],
    [
      "u",
      "al"
    ],
    [
      " soc",
      "i"
    ],
    [
      " an",
      "n"
    ],
    [
      " literac",
      "y"
    ],
    [
      "6",
      "."
    ],
    [
      " f",
      "ast"
    ],
    [
      " mid",
      "dle"
    ],
    [
      " increas",
      "ing"
    ],
    [
      "ure",
      "."
    ],
    [
      " K",
      "as"
    ],
    [
      " Kas",
      "hm"
    ],
    [
      " mid",
      "-"
    ],
    [
      " A",
      "mong"
    ],
    [
      " g",
      "en"
    ],
    [
      "is",
      "ing"
    ],
    [
      "a",
      "di"
    ],
    [
      " f",
      "our"
    ],
    [
      " pro",
      "t"
    ],
    [
      " Persi",
      "an"
    ],
    [
      " ter",
      "m"
    ],
    [
      " B",
      "har"
    ],
    [
      " Bhar",
      "at"
    ],
    [
      " v",
      "ari"
    ],
    [
      " c",
      "ur"
    ],
    [
      " wide",
      "ly"
    ],
    [
      "ed",
      ","
    ],
    [
      " earli",
      "est"
    ],
    [
      " ",
      "8"
    ],
    [
      "n",
      "own"
    ],
    [
      "in",
      "c"
    ],
    [
      " ",
      "z"
    ],
    [
      "t",
      "le"
    ],
    [
      " ar",
      "ound"
    ],
    [
      " ch",
      "ar"
    ],
    [
      " st",
      "e"
    ],
    [
      "al",
      "s,"
    ],
    [
      " v",
      "ill"
    ],
    [
      " 1",
      "5"
    ],
    [
      " o",
      "ld"
    ],
    [
      "e",
      "ak"
    ],
    [
      " t",
      "rib"
    ],
    [
      "ro",
      "ss"
    ],
    [
      " tim",
      "es"
    ],
    [
      " emp",
      "lo"
    ],
    [
      " emplo",
      "y"
    ],
    [
      "at",
      "a"
    ],
    [
      " h",
      "owever,"
    ],
    [
      " CE",
      ","
    ],
    [
      " tim",
      "e"
    ],
    [
      " diff",
      "er"
    ],
    [
      " e",
      "th"
    ],
    [
      " religion",
      "s"
    ],
    [
      " con",
      "duc"
    ],
    [
      " B",
      "ra"
    ],
    [
      " Bra",
      "hm"
    ],
    [
      " bir",
      "th"
    ],
    [
      "ro",
      "p"
    ],
    [
      "og",
      "raph"
    ],
    [
      " e",
      "mpire"
    ],
    [
      "p",
      "tion"
    ],
    [
      " t",
      "ex"
    ],
    [
      " sub",
      "sequent"
    ],
    [
      " pol",
      "ic"
    ],
    [
      "is",
      "s"
    ],
    [
      " roc",
      "k"
    ],
    [
      "i",
      "ans"
    ],
    [
      "m",
      "b"
    ],
    [
      " comp",
      "le"
    ],
    [
      " adm",
      "inist"
    ],
    [
      " t",
      "a"
    ],
    [
      " al",
      "ong"
    ],
    [
      " res",
      "p"
    ],
    [
      "a",
      "i"
    ],
    [
      "d",
      "ed"
    ],
    [
      "ive",
      "ly"
    ],
    [
      " m",
      "ak"
    ],
    [
      " t",
      "em"
    ],
    [
      " sign",
      "ificant"
    ],
    [
      " e",
      "very"
    ],
    [
      " s",
      "ch"
    ],
    [
      " v",
      "ast"
    ],
    [
      " lead",
      "ing"
    ],
    [
      " m",
      "en"
    ],
    [
      " in",
      "di"
    ],
    [
      "g",
      "en"
    ],
    [
      " st",
      "r"
    ],
    [
      " penins",
      "ular"
    ],
    [
      " gr",
      "oup"
    ],
    [
      " R",
      "aj"
    ],
    [
      " a",
      "ff"
    ],
    [
      " b",
      "l"
    ],
    [
      " f",
      "urther"
    ],
    [
      " cons",
      "id"
    ],
    [
      " system",
      ","
    ],
    [
      "tern",
      "al"
    ],
    [
      " leg",
      "is"
    ],
    [
      " legis",
      "l"
    ],
    [
      "er",
      "ation"
    ],
    [
      " 19",
      "3"
    ],
    [
      "0",
      "s,"
    ],
    [
      " st",
      "ates"
    ],
    [
      " li",
      "ber"
    ],
    [
      " Chin",
      "a"
    ],
    [
      "w",
      "an"
    ],
    [
      " sp",
      "read"
    ],
    [
      " o",
      "b"
    ],
    [
      " Th",
      "is"
    ],
    [
      " contin",
      "u"
    ],
    [
      " ca",
      "us"
    ],
    [
      " n",
      "ow"
    ],
    [
      " sur",
      "v"
    ],
    [
      "m",
      "as"
    ],
    [
      "c",
      "an"
    ],
    [
      " di",
      "st"
    ],
    [
      "3",
      ","
    ],
    [
      " A",
      "ccording"
    ],
    [
      "ist",
      "s"
    ],
    [
      "1",
      "%"
    ],
    [
      " influenc",
      "ed"
    ],
    [
      " w",
      "in"
    ],
    [
      " spec",
      "ies,"
    ],
    [
      "b",
      "le"
    ],
    [
      " 2",
      "."
    ],
    [
      " end",
      "ang"
    ],
    [
      " endang",
      "ered"
    ],
    [
      "a",
      "h"
    ],
    [
      " f",
      "ive"
    ],
    [
      " he",
      "ld"
    ],
    [
      " un",
      "til"
    ],
    [
      " J",
      "anu"
    ],
    [
      " Janu",
      "ary"
    ],
    [
      " c",
      "ivil"
    ],
    [
      " coal",
      "ition"
    ],
    [
      " election",
      ","
    ],
    [
      " m",
      "ember"
    ],
    [
      " s",
      "ing"
    ],
    [
      " form",
      "ed"
    ],
    [
      " execut",
      "ive"
    ],
    [
      "ou",
      "se"
    ],
    [
      "ion",
      "s"
    ],
    [
      " th",
      "ree"
    ],
    [
      "m",
      "in"
    ],
    [
      " G",
      "DP"
    ],
    [
      " g",
      "lo"
    ],
    [
      "d",
      "e"
    ],
    [
      " est",
      "im"
    ],
    [
      " im",
      "port"
    ],
    [
      " f",
      "amil"
    ],
    [
      " off",
      "icial"
    ],
    [
      "ar",
      "s"
    ],
    [
      "o",
      "ol"
    ],
    [
      " tradition",
      "al"
    ],
    [
      ".",
      " "
    ],
    [
      " wor",
      "n"
    ],
    [
      " g",
      "ar"
    ],
    [
      " d",
      "emoc"
    ],
    [
      " b",
      "or"
    ],
    [
      "der",
      "s"
    ],
    [
      " B",
      "h"
    ],
    [
      " n",
      "ear"
    ],
    [
      "ic",
      "o"
    ],
    [
      "a",
      "il"
    ],
    [
      "on",
      "es"
    ],
    [
      " Af",
      "ric"
    ],
    [
      " Afric",
      "a"
    ],
    [
      " ag",
      "o"
    ],
    [
      " ago",
      "."
    ],
    [
      " The",
      "ir"
    ],
    [
      " di",
      "verse"
    ],
    [
      "et",
      "t"
    ],
    [
      " gra",
      "du"
    ],
    [
      " V",
      "alle"
    ],
    [
      " Valle",
      "y"
    ],
    [
      " C",
      "ivil"
    ],
    [
      " 12",
      "00"
    ],
    [
      " BCE",
      ","
    ],
    [
      " record",
      "ed"
    ],
    [
      " Hindu",
      "ism"
    ],
    [
      " D",
      "ra"
    ],
    [
      " Dra",
      "vi"
    ],
    [
      " Dravi",
      "dian"
    ],
    [
      " with",
      "in"
    ],
    [
      " Hindu",
      "ism,"
    ],
    [
      " Buddh",
      "ism"
    ],
    [
      " cons",
      "ol"
    ],
    [
      " consol",
      "id"
    ],
    [
      " l",
      "o"
    ],
    [
      " Ma",
      "ur"
    ],
    [
      " G",
      "up"
    ],
    [
      " ",
      "er"
    ],
    [
      " c",
      "reat"
    ],
    [
      " arch",
      "it"
    ],
    [
      " archit",
      "ect"
    ],
    [
      " w",
      "rit"
    ],
    [
      "t",
      "ou"
    ],
    [
      "tou",
      "ch"
    ],
    [
      "ab",
      "ility"
    ],
    [
      " kingdom",
      "s"
    ],
    [
      " sc",
      "ri"
    ],
    [
      "ast",
      "ri"
    ],
    [
      " establ",
      "ished"
    ],
    [
      "mit",
      "t"
    ],
    [
      "r",
      "an"
    ],
    [
      " res",
      "ult"
    ],
    [
      " result",
      "ing"
    ],
    [
      "et",
      "work"
    ],
    [
      "v",
      "al"
    ],
    [
      "ar",
      "a"
    ],
    [
      " Punjab",
      ","
    ],
    [
      "urn",
      "ed"
    ],
    [
      " righ",
      "ts"
    ],
    [
      " ch",
      "anges"
    ],
    [
      " int",
      "ro"
    ],
    [
      " p",
      "ublic"
    ],
    [
      " to",
      "ok"
    ],
    [
      " influ",
      "ence"
    ],
    [
      "vi",
      "ol"
    ],
    [
      " rul",
      "e."
    ],
    [
      " part",
      "ition"
    ],
    [
      "ion",
      "s,"
    ],
    [
      " Pakistan",
      "."
    ],
    [
      " 195",
      "0,"
    ],
    [
      "r",
      "atic"
    ],
    [
      " m",
      "ult"
    ],
    [
      "i",
      "-"
    ],
    [
      " soci",
      "et"
    ],
    [
      " cap",
      "it"
    ],
    [
      " re",
      "duced"
    ],
    [
      "e",
      "qu"
    ],
    [
      "ap",
      "on"
    ],
    [
      " dis",
      "put"
    ],
    [
      " Kashm",
      "ir"
    ],
    [
      "ion",
      ","
    ],
    [
      " pol",
      "l"
    ],
    [
      " w",
      "ild"
    ],
    [
      "li",
      "f"
    ],
    [
      " tradition",
      "ally"
    ],
    [
      " d",
      "er"
    ],
    [
      " G",
      "ree"
    ],
    [
      " Gree",
      "k"
    ],
    [
      " pro",
      "v"
    ],
    [
      " ext",
      "ens"
    ],
    [
      "p",
      "ic"
    ],
    [
      " langu",
      "ag"
    ],
    [
      "li",
      "ed"
    ],
    [
      "ain",
      "ed"
    ],
    [
      " cur",
      "ren"
    ],
    [
      "ri",
      "al"
    ],
    [
      " ",
      "Y"
    ],
    [
      " though",
      "t"
    ],
    [
      " ext",
      "ant"
    ],
    [
      "0,",
      "000"
    ],
    [
      " H",
      "owever,"
    ],
    [
      " k",
      "nown"
    ],
    [
      " ab",
      "out"
    ],
    [
      " cit",
      "ies"
    ],
    [
      "er",
      "i"
    ],
    [
      " feat",
      "ures"
    ],
    [
      "di",
      "s"
    ],
    [
      "an",
      "n"
    ],
    [
      " wor",
      "k"
    ],
    [
      " old",
      "est"
    ],
    [
      "oc",
      "i"
    ],
    [
      " compos",
      "ed"
    ],
    [
      " Indo-",
      "A"
    ],
    [
      " a",
      "c"
    ],
    [
      " pl",
      "ace"
    ],
    [
      " w",
      "hen"
    ],
    [
      " region",
      "s"
    ],
    [
      " in",
      "vol"
    ],
    [
      "av",
      "ing"
    ],
    [
      " f",
      "am"
    ],
    [
      "at",
      "ical"
    ],
    [
      "or",
      "y"
    ],
    [
      " c",
      "alled"
    ],
    [
      "p",
      "or"
    ],
    [
      "if",
      "ied"
    ],
    [
      " differ",
      "ent"
    ],
    [
      "ure",
      "d"
    ],
    [
      " conduc",
      "ted"
    ],
    [
      "iv",
      "ing"
    ],
    [
      " l",
      "ay"
    ],
    [
      " g",
      "e"
    ],
    [
      " Asi",
      "a,"
    ],
    [
      " (",
      "c"
    ],
    [
      "–",
      "2"
    ],
    [
      "in",
      "ing"
    ],
    [
      " h",
      "is"
    ],
    [
      "m",
      "iss"
    ],
    [
      "el",
      "f"
    ],
    [
      " A",
      "s"
    ],
    [
      " ta",
      "x"
    ],
    [
      " great",
      "er"
    ],
    [
      " re",
      "ne"
    ],
    [
      " rene",
      "w"
    ],
    [
      "o",
      "tion"
    ],
    [
      " m",
      "an"
    ],
    [
      "er",
      "t"
    ],
    [
      " f",
      "low"
    ],
    [
      "er",
      "ing"
    ],
    [
      "er",
      "v"
    ],
    [
      " W",
      "est"
    ],
    [
      " agricult",
      "ural"
    ],
    [
      " sh",
      "ow"
    ],
    [
      " develop",
      "ment"
    ],
    [
      "t",
      "y,"
    ],
    [
      " sm",
      "all"
    ],
    [
      "he",
      "re"
    ],
    [
      "in",
      "es,"
    ],
    [
      " s",
      "o"
    ],
    [
      "ar",
      "ies"
    ],
    [
      " 1",
      "0"
    ],
    [
      " Asi",
      "an"
    ],
    [
      "e",
      "ated"
    ],
    [
      " Al",
      "though"
    ],
    [
      " el",
      "it"
    ],
    [
      " indi",
      "gen"
    ],
    [
      " technolog",
      "y"
    ],
    [
      "w",
      "ard"
    ],
    [
      " ag",
      "ain"
    ],
    [
      "am",
      "p"
    ],
    [
      " p",
      "ract"
    ],
    [
      "-",
      "f"
    ],
    [
      " commer",
      "c"
    ],
    [
      " commerc",
      "ial"
    ],
    [
      " pro",
      "ces"
    ],
    [
      " E",
      "uropean"
    ],
    [
      "ab",
      "ly"
    ],
    [
      " sup",
      "p"
    ],
    [
      "e",
      "ly"
    ],
    [
      " ref",
      "orm"
    ],
    [
      " c",
      "an"
    ],
    [
      " R",
      "e"
    ],
    [
      "7",
      "."
    ],
    [
      " s",
      "um"
    ],
    [
      "al",
      "th"
    ],
    [
      "8",
      ","
    ],
    [
      " direct",
      "ly"
    ],
    [
      " s",
      "af"
    ],
    [
      "g",
      "u"
    ],
    [
      " dec",
      "ades"
    ],
    [
      " pro",
      "duc"
    ],
    [
      "vid",
      "ed"
    ],
    [
      " indust",
      "ry"
    ],
    [
      " W",
      "ar"
    ],
    [
      "-",
      "r"
    ],
    [
      " en",
      "ac"
    ],
    [
      " enac",
      "ted"
    ],
    [
      "ism",
      "."
    ],
    [
      " Al",
      "l"
    ],
    [
      "India",
      "'s"
    ],
    [
      " sec",
      "ular"
    ],
    [
      " pl",
      "ate"
    ],
    [
      " app",
      "ro"
    ],
    [
      " appro",
      "x"
    ],
    [
      " approx",
      "im"
    ],
    [
      " approxim",
      "ately"
    ],
    [
      " south",
      "-"
    ],
    [
      " cr",
      "ust"
    ],
    [
      " up",
      "per"
    ],
    [
      " Himalay",
      "as"
    ],
    [
      " continu",
      "ed"
    ],
    [
      " Plate",
      "au"
    ],
    [
      "-",
      "b"
    ],
    [
      " D",
      "es"
    ],
    [
      " c",
      "he"
    ],
    [
      " G",
      "u"
    ],
    [
      " Gu",
      "j"
    ],
    [
      " D",
      "ec"
    ],
    [
      " G",
      "hat"
    ],
    [
      "s",
      ";"
    ],
    [
      " Con",
      "stit"
    ],
    [
      "ut",
      "ed"
    ],
    [
      "as",
      "h"
    ],
    [
      " e",
      "qu"
    ],
    [
      "re",
      "me"
    ],
    [
      "h",
      "an"
    ],
    [
      "4",
      ","
    ],
    [
      "4",
      "2"
    ],
    [
      "ak",
      "sh"
    ],
    [
      "3",
      "%"
    ],
    [
      " m",
      "on"
    ],
    [
      " pl",
      "ay"
    ],
    [
      "ol",
      "e"
    ],
    [
      "rop",
      "ical"
    ],
    [
      "r",
      "y,"
    ],
    [
      " re",
      "t"
    ],
    [
      " spec",
      "ies"
    ],
    [
      " endem",
      "ic"
    ],
    [
      "7",
      "%"
    ],
    [
      "9",
      "%"
    ],
    [
      " n",
      "at"
    ],
    [
      "as",
      "i"
    ],
    [
      " ex",
      "ch"
    ],
    [
      "vent",
      "ion"
    ],
    [
      " P",
      "ar"
    ],
    [
      " 5",
      "0"
    ],
    [
      " minister",
      "."
    ],
    [
      " S",
      "ing"
    ],
    [
      " Sing",
      "h"
    ],
    [
      "ol",
      "d"
    ],
    [
      " b",
      "ody"
    ],
    [
      "li",
      "ance"
    ],
    [
      " j",
      "ust"
    ],
    [
      " sing",
      "le"
    ],
    [
      " ex",
      "ternal"
    ],
    [
      " D",
      "e"
    ],
    [
      " A",
      "t"
    ],
    [
      "u",
      "e"
    ],
    [
      "er",
      "s."
    ],
    [
      " A",
      "ss"
    ],
    [
      " ex",
      "c"
    ],
    [
      "er",
      "c"
    ],
    [
      " fore",
      "ign"
    ],
    [
      "ident",
      ","
    ],
    [
      " he",
      "ad"
    ],
    [
      " f",
      "und"
    ],
    [
      " fund",
      "ament"
    ],
    [
      " fundament",
      "al"
    ],
    [
      " St",
      "at"
    ],
    [
      " Un",
      "ion"
    ],
    [
      " ser",
      "v"
    ],
    [
      " ",
      "qu"
    ],
    [
      " N",
      "uclear"
    ],
    [
      "in",
      "e."
    ],
    [
      "tern",
      "ational"
    ],
    [
      "g",
      "y"
    ],
    [
      " third",
      "-largest"
    ],
    [
      " glo",
      "bal"
    ],
    [
      " contrib",
      "ution"
    ],
    [
      " be",
      "fore"
    ],
    [
      " estim",
      "ated"
    ],
    [
      " ",
      "ve"
    ],
    [
      " p",
      "har"
    ],
    [
      " phar",
      "m"
    ],
    [
      " pharm",
      "ace"
    ],
    [
      " pharmace",
      "ut"
    ],
    [
      " pharmaceut",
      "ical"
    ],
    [
      "reas",
      "ing"
    ],
    [
      " cook",
      "ing"
    ],
    [
      " cens",
      "us"
    ],
    [
      " import",
      "ant"
    ],
    [
      " areas",
      "."
    ],
    [
      "b",
      "a"
    ],
    [
      " famil",
      "ies"
    ],
    [
      " develop",
      "ed"
    ],
    [
      "c",
      "hed"
    ],
    [
      "an",
      "i"
    ],
    [
      " sch",
      "ool"
    ],
    [
      " be",
      "low"
    ],
    [
      "c",
      "ast"
    ],
    [
      " sculpt",
      "ure"
    ],
    [
      " A",
      "r"
    ],
    [
      " s",
      "it"
    ],
    [
      " d",
      "ances"
    ],
    [
      " dance",
      "-d"
    ],
    [
      " dance-d",
      "ra"
    ],
    [
      " dance-dra",
      "mas"
    ],
    [
      " w",
      "a"
    ],
    [
      " wa",
      "ist"
    ],
    [
      " common",
      "ly"
    ],
    [
      " w",
      "ear"
    ],
    [
      " sp",
      "ort"
    ],
    [
      " cook",
      "ed"
    ],
    [
      " me",
      "at"
    ],
    [
      " Asi",
      "a."
    ],
    [
      " popul",
      "ous"
    ],
    [
      " independ",
      "ence"
    ],
    [
      "ce",
      "an"
    ],
    [
      " Ara",
      "bian"
    ],
    [
      "west",
      ","
    ],
    [
      " B",
      "ay"
    ],
    [
      " Chin",
      "a,"
    ],
    [
      " B",
      "ang"
    ],
    [
      " Bang",
      "l"
    ],
    [
      " Bangl",
      "ades"
    ],
    [
      " Banglades",
      "h"
    ],
    [
      " M",
      "yan"
    ],
    [
      " Myan",
      "mar"
    ],
    [
      " S",
      "ri"
    ],
    [
      " L",
      "ank"
    ],
    [
      " M",
      "al"
    ],
    [
      "di",
      "v"
    ],
    [
      " N",
      "ico"
    ],
    [
      " Nico",
      "bar"
    ],
    [
      " sh",
      "are"
    ],
    [
      " Ind",
      "ones"
    ],
    [
      " Indones",
      "i"
    ],
    [
      " p",
      "red"
    ],
    [
      " pred",
      "omin"
    ],
    [
      " is",
      "ol"
    ],
    [
      " mar",
      "gin"
    ],
    [
      " bas",
      "in"
    ],
    [
      " ag",
      "o,"
    ],
    [
      " gradu",
      "ally"
    ],
    [
      " Civil",
      "isation"
    ],
    [
      " BCE",
      "."
    ],
    [
      "a",
      "ic"
    ],
    [
      "E",
      "uropean"
    ],
    [
      " language",
      ","
    ],
    [
      " h",
      "y"
    ],
    [
      "n",
      "ings"
    ],
    [
      " sup",
      "pl"
    ],
    [
      " region",
      "s."
    ],
    [
      " 4",
      "00"
    ],
    [
      "is",
      "en"
    ],
    [
      "l",
      "a"
    ],
    [
      " he",
      "redi"
    ],
    [
      " heredi",
      "t"
    ],
    [
      " g",
      "ave"
    ],
    [
      " lo",
      "ose"
    ],
    [
      "-",
      "k"
    ],
    [
      " Maur",
      "ya"
    ],
    [
      " Gup",
      "ta"
    ],
    [
      "iv",
      "ity"
    ],
    [
      " stat",
      "us"
    ],
    [
      "touch",
      "ability"
    ],
    [
      " or",
      "gan"
    ],
    [
      " be",
      "lief"
    ],
    [
      " M",
      "id"
    ],
    [
      " Mid",
      "dle"
    ],
    [
      "p",
      "ts"
    ],
    [
      " cult",
      "ures"
    ],
    [
      " arm",
      "ies"
    ],
    [
      " co",
      "s"
    ],
    [
      " me",
      "di"
    ],
    [
      " V",
      "i"
    ],
    [
      "an",
      "ag"
    ],
    [
      " culture",
      "."
    ],
    [
      "j",
      "ect"
[...]
