{
  "version": "1.0",
  "truncation": null,
  "padding": null,
  "added_tokens": [],
  "normalizer": {
    "type": "Sequence",
    "normalizers": [
      {
        "type": "Replace",
        "pattern": {
          "String": "‌"
        },
        "content": ""
      },
      {
        "type": "Replace",
        "pattern": {
          "String": "‍"
        },
        "content": ""
      },
      {
        "type": "Replace",
        "pattern": {
          "String": " "
        },
        "content": " "
      }
    ]
  },
  "pre_tokenizer": {
    "type": "Sequence",
    "pretokenizers": [
      {
        "type": "Split",
        "pattern": {
          "Regex": " [^.,!?;:\\(\\)\\[\\]\\{\\}\"\\'«»\\-\\–\\—/\\\\\\|*&^%$#@।॥_+=<>`~ \\n]+|[^.,!?;:\\(\\)\\[\\]\\{\\}\"\\'«»\\-\\–\\—/\\\\\\|*&^%$#@।॥_+=<>`~ \\n]+| |[.,!?;:\\(\\)\\[\\]\\{\\}\"\\'«»\\-\\–\\—/\\\\\\|*&^%$#@।॥_+=<>`~]|\\n"
        },
        "behavior": "Isolated",
        "invert": false
      },
      {
        "type": "Split",
        "pattern": {
          "Regex": "."
        },
        "behavior": "Isolated",
        "invert": false
      }
    ]
  },
  "post_processor": null,
  "decoder": {
    "type": "Replace",
    "pattern": {
      "String": " "
    },
    "content": " "
  },
  "model": {
    "type": "BPE",
    "dropout": null,
    "unk_token": null,
    "continuing_subword_prefix": null,
    "end_of_word_suffix": null,
    "fuse_unk": false,
    "byte_fallback": false,
    "ignore_merges": false,
    "vocab": {
      "\t": 0,
      "\n": 1,
      " ": 2,
      "!": 3,
      "\"": 4,
      "#": 5,
      "$": 6,
      "%": 7,
      "&": 8,
      "'": 9,
      "(": 10,
      ")": 11,
      "*": 12,
      "+": 13,
      ",": 14,
      "-": 15,
      ".": 16,
      "/": 17,
      "0": 18,
      "1": 19,
      "2": 20,
      "3": 21,
      "4": 22,
      "5": 23,
      "6": 24,
      "7": 25,
      "8": 26,
      "9": 27,
      ":": 28,
      ";": 29,
      "<": 30,
      "=": 31,
      ">": 32,
      "?": 33,
      "@": 34,
      "A": 35,
      "B": 36,
      "C": 37,
      "D": 38,
      "E": 39,
      "F": 40,
      "G": 41,
      "H": 42,
      "I": 43,
      "J": 44,
      "K": 45,
      "L": 46,
      "M": 47,
      "N": 48,
      "O": 49,
      "P": 50,
      "Q": 51,
      "R": 52,
      "S": 53,
      "T": 54,
      "U": 55,
      "V": 56,
      "W": 57,
      "X": 58,
      "Y": 59,
      "Z": 60,
      "[": 61,
      "\\": 62,
      "]": 63,
      "^": 64,
      "_": 65,
      "`": 66,
      "a": 67,
      "b": 68,
      "c": 69,
      "d": 70,
      "e": 71,
      "f": 72,
      "g": 73,
      "h": 74,
      "i": 75,
      "j": 76,
      "k": 77,
      "l": 78,
      "m": 79,
      "n": 80,
      "o": 81,
      "p": 82,
      "q": 83,
      "r": 84,
      "s": 85,
      "t": 86,
      "u": 87,
      "v": 88,
      "w": 89,
      "x": 90,
      "y": 91,
      "z": 92,
      "{": 93,
      "|": 94,
      "}": 95,
      "~": 96,
      "«": 97,
      "°": 98,
      "»": 99,
      "Ö": 100,
      "á": 101,
      "â": 102,
      "í": 103,
      "ā": 104,
      "ī": 105,
      "Ś": 106,
      "ū": 107,
      "ə": 108,
      "ɦ": 109,
      "ɪ": 110,
      "ɾ": 111,
      "ʊ": 112,
      "ʱ": 113,
      "ˈ": 114,
      "ː": 115,
      "ί": 116,
      "α": 117,
      "δ": 118,
      "ν": 119,
      "ο": 120,
      "ς": 121,
      "ό": 122,
      "ँ": 123,
      "ं": 124,
      "ः": 125,
      "अ": 126,
      "आ": 127,
      "इ": 128,
      "ई": 129,
      "उ": 130,
      "ऊ": 131,
      "ऋ": 132,
      "ए": 133,
      "ऐ": 134,
      "ऑ": 135,
      "ओ": 136,
      "औ": 137,
      "क": 138,
      "ख": 139,
      "ग": 140,
      "घ": 141,
      "च": 142,
      "छ": 143,
      "ज": 144,
      "झ": 145,
      "ञ": 146,
      "ट": 147,
      "ठ": 148,
      "ड": 149,
      "ढ": 150,
      "ण": 151,
      "त": 152,
      "थ": 153,
      "द": 154,
      "ध": 155,
      "न": 156,
      "प": 157,
      "फ": 158,
      "ब": 159,
      "भ": 160,
      "म": 161,
      "य": 162,
      "र": 163,
      "ल": 164,
      "व": 165,
      "श": 166,
      "ष": 167,
      "स": 168,
      "ह": 169,
      "़": 170,
      "ा": 171,
      "ि": 172,
      "ी": 173,
      "ु": 174,
      "ू": 175,
      "ृ": 176,
      "े": 177,
      "ै": 178,
      "ॉ": 179,
      "ो": 180,
      "ौ": 181,
      "्": 182,
      "।": 183,
      "॥": 184,
      "०": 185,
      "१": 186,
      "२": 187,
      "३": 188,
      "४": 189,
      "५": 190,
      "६": 191,
      "७": 192,
      "८": 193,
      "९": 194,
      "॰": 195,
      "ஃ": 196,
      "அ": 197,
      "ஆ": 198,
      "இ": 199,
      "ஈ": 200,
      "உ": 201,
      "ஊ": 202,
      "எ": 203,
      "ஏ": 204,
      "ஐ": 205,
      "ஒ": 206,
      "ஓ": 207,
      "க": 208,
      "ங": 209,
      "ச": 210,
      "ஜ": 211,
      "ஞ": 212,
      "ட": 213,
      "ண": 214,
      "த": 215,
      "ந": 216,
      "ன": 217,
      "ப": 218,
      "ம": 219,
      "ய": 220,
      "ர": 221,
      "ற": 222,
      "ல": 223,
      "ள": 224,
      "ழ": 225,
      "வ": 226,
      "ஷ": 227,
      "ஸ": 228,
      "ஹ": 229,
      "ா": 230,
      "ி": 231,
      "ீ": 232,
      "ு": 233,
      "ூ": 234,
      "ெ": 235,
      "ே": 236,
      "ை": 237,
      "ொ": 238,
      "ோ": 239,
      "ௌ": 240,
      "்": 241,
      "ం": 242,
      "ః": 243,
      "అ": 244,
      "ఆ": 245,
      "ఇ": 246,
      "ఈ": 247,
      "ఉ": 248,
      "ఋ": 249,
      "ఎ": 250,
      "ఏ": 251,
      "ఐ": 252,
      "ఒ": 253,
      "ఓ": 254,
      "ఔ": 255,
      "క": 256,
      "ఖ": 257,
      "గ": 258,
      "ఘ": 259,
      "చ": 260,
      "ఛ": 261,
      "జ": 262,
      "ఞ": 263,
      "ట": 264,
      "ఠ": 265,
      "డ": 266,
      "ఢ": 267,
      "ణ": 268,
      "త": 269,
      "థ": 270,
      "ద": 271,
      "ధ": 272,
      "న": 273,
      "ప": 274,
      "ఫ": 275,
      "బ": 276,
      "భ": 277,
      "మ": 278,
      "య": 279,
      "ర": 280,
      "ల": 281,
      "ళ": 282,
      "వ": 283,
      "శ": 284,
      "ష": 285,
      "స": 286,
      "హ": 287,
      "ా": 288,
      "ి": 289,
      "ీ": 290,
      "ు": 291,
      "ూ": 292,
      "ృ": 293,
      "ె": 294,
      "ే": 295,
      "ై": 296,
      "ొ": 297,
      "ో": 298,
      "ౌ": 299,
      "్": 300,
      "ṅ": 301,
      "ṇ": 302,
      "ṣ": 303,
      "ṭ": 304,
      "Ἰ": 305,
      " ": 306,
      "–": 307,
      "—": 308,
      "‘": 309,
      "’": 310,
      "“": 311,
      "”": 312,
      "†": 313,
      "′": 314,
      "₹": 315,
      " t": 316,
      "an": 317,
      "he": 318,
      "in": 319,
      " the": 320,
      "on": 321,
      "er": 322,
      "re": 323,
      " a": 324,
      " o": 325,
      "en": 326,
      "st": 327,
      "al": 328,
      "di": 329,
      "at": 330,
      " c": 331,
      "and": 332,
      "ed": 333,
      " I": 334,
      "ar": 335,
      " w": 336,
      "it": 337,
      " of": 338,
      " in": 339,
      " s": 340,
      " and": 341,
      " In": 342,
      " b": 343,
      "or": 344,
      "ion": 345,
      " p": 346,
      " m": 347,
      "es": 348,
      " f": 349,
      "ic": 350,
      " Indi": 351,
      "is": 352,
      "ing": 353,
      "as": 354,
      "ent": 355,
      " l": 356,
      "om": 357,
      " e": 358,
      "ou": 359,
      " India": 360,
      " to": 361,
      "ly": 362,
      " h": 363,
      " d": 364,
      "ur": 365,
      "ec": 366,
      " re": 367,
      " 1": 368,
      " n": 369,
      " g": 370,
      " T": 371,
      "il": 372,
      "th": 373,
      "ver": 374,
      "ul": 375,
      " A": 376,
      "ri": 377,
      "ol": 378,
      "ra": 379,
      " C": 380,
      "ation": 381,
      "am": 382,
      " B": 383,
      "ro": 384,
      "ve": 385,
      "le": 386,
      " is": 387,
      " S": 388,
      "ut": 389,
      " The": 390,
      "ce": 391,
      " by": 392,
      " Indian": 393,
      "ist": 394,
      "ast": 395,
      "et": 396,
      " 2": 397,
      "ad": 398,
      "us": 399,
      "im": 400,
      " th": 401,
      "ge": 402,
      "ig": 403,
      "ow": 404,
      " 19": 405,
      "id": 406,
      "ith": 407,
      "un": 408,
      " for": 409,
      "ir": 410,
      " r": 411,
      " be": 412,
      "uc": 413,
      " with": 414,
      " con": 415,
      "ment": 416,
      " was": 417,
      "ate": 418,
      "00": 419,
      "ies": 420,
      "tion": 421,
      "op": 422,
      " as": 423,
      "res": 424,
      " wh": 425,
      "ter": 426,
      " st": 427,
      " mo": 428,
      " P": 429,
      "em": 430,
      " M": 431,
      "rom": 432,
      "ong": 433,
      "ain": 434,
      " it": 435,
      "ts": 436,
      "ical": 437,
      " ex": 438,
      "est": 439,
      " di": 440,
      " E": 441,
      "her": 442,
      " an": 443,
      "ang": 444,
      "ld": 445,
      " from": 446,
      " has": 447,
      "se": 448,
      " or": 449,
      "ab": 450,
      "ich": 451,
      "ac": 452,
      "ial": 453,
      "gh": 454,
      " on": 455,
      "um": 456,
      "ill": 457,
      "ay": 458,
      "up": 459,
      "der": 460,
      " N": 461,
      " ar": 462,
      " D": 463,
      " which": 464,
      " H": 465,
      "ud": 466,
      " un": 467,
      " G": 468,
      " are": 469,
      "ive": 470,
      "ity": 471,
      " par": 472,
      "ub": 473,
      "con": 474,
      " 20": 475,
      "ak": 476,
      "ted": 477,
      "rit": 478,
      "ure": 479,
      "ult": 480,
      " inc": 481,
      " its": 482,
      "oc": 483,
      "ere": 484,
      "li": 485,
      " com": 486,
      "oun": 487,
      "over": 488,
      " al": 489,
      "end": 490,
      "ers": 491,
      "du": 492,
      " were": 493,
      " v": 494,
      "ans": 495,
      "iv": 496,
      "ther": 497,
      "ated": 498,
      "ary": 499,
      "el": 500,
      "ear": 501,
      "os": 502,
      " cent": 503,
      " de": 504,
      "arge": 505,
      "ch": 506,
      "od": 507,
      "ism": 508,
      " As": 509,
      "ous": 510,
      " wor": 511,
      "mp": 512,
      "ough": 513,
      " int": 514,
      " pro": 515,
      "our": 516,
      "por": 517,
      " co": 518,
      " ch": 519,
      "fter": 520,
      " cont": 521,
      "outh": 522,
      "overn": 523,
      "In": 524,
      "ant": 525,
      "ally": 526,
      "age": 527,
      " Hin": 528,
      "ions": 529,
      "ame": 530,
      "ass": 531,
      " at": 532,
      " W": 533,
      "ry": 534,
      " nor": 535,
      "if": 536,
      "ag": 537,
      "uring": 538,
      " bec": 539,
      "conom": 540,
      "low": 541,
      "ot": 542,
      " part": 543,
      " U": 544,
      "av": 545,
      " mar": 546,
      " into": 547,
      " form": 548,
      "ish": 549,
      " econom": 550,
      "ance": 551,
      " sp": 552,
      "ress": 553,
      "overnment": 554,
      " reg": 555,
      "ern": 556,
      "any": 557,
      "aj": 558,
      "illion": 559,
      "ap": 560,
      "ct": 561,
      " se": 562,
      " Ch": 563,
      " sub": 564,
      " J": 565,
      " k": 566,
      " pl": 567,
      "stit": 568,
      " centur": 569,
      " le": 570,
      " large": 571,
      " cl": 572,
      " ad": 573,
      " R": 574,
      "ia": 575,
      " pop": 576,
      " y": 577,
      "angu": 578,
      "ution": 579,
      "eral": 580,
      " per": 581,
      "me": 582,
      "ates": 583,
      " 201": 584,
      "ence": 585,
      "cc": 586,
      "mer": 587,
      " langu": 588,
      " rel": 589,
      "hi": 590,
      "og": 591,
      "The": 592,
      "ore": 593,
      "inist": 594,
      " el": 595,
      " government": 596,
      "Indi": 597,
      " popul": 598,
      " world": 599,
      " dec": 600,
      "ire": 601,
      " pri": 602,
      "reas": 603,
      "qu": 604,
      " K": 605,
      "lud": 606,
      " Ind": 607,
      " year": 608,
      " ag": 609,
      "ave": 610,
      "reat": 611,
      " comp": 612,
      " fir": 613,
      " first": 614,
      " sy": 615,
      "ome": 616,
      " gen": 617,
      " tra": 618,
      "ces": 619,
      "India": 620,
      " sh": 621,
      "ved": 622,
      "red": 623,
      " V": 624,
      "ff": 625,
      " Hindu": 626,
      "duc": 627,
      " end": 628,
      "all": 629,
      "dition": 630,
      "pp": 631,
      "uch": 632,
      " includ": 633,
      "ection": 634,
      "ian": 635,
      "igh": 636,
      "used": 637,
      " art": 638,
      "ect": 639,
      " became": 640,
      "gan": 641,
      " over": 642,
      " res": 643,
      "stitution": 644,
      "row": 645,
      "ide": 646,
      "ok": 647,
      " syst": 648,
      " system": 649,
      "we": 650,
      "oth": 651,
      "ine": 652,
      " during": 653,
      "so": 654,
      "ber": 655,
      "dern": 656,
      "estern": 657,
      " ri": 658,
      " had": 659,
      "mpire": 660,
      " but": 661,
      "ational": 662,
      "ajor": 663,
      " been": 664,
      " ne": 665,
      "har": 666,
      " have": 667,
      "ric": 668,
      " 5": 669,
      " sup": 670,
      "thern": 671,
      "dh": 672,
      " cons": 673,
      " relig": 674,
      "ral": 675,
      " me": 676,
      "ural": 677,
      "ign": 678,
      " inf": 679,
      " F": 680,
      " also": 681,
      " more": 682,
      "ongress": 683,
      " South": 684,
      " most": 685,
      "ound": 686,
      " lat": 687,
      " years": 688,
      "ord": 689,
      "ages": 690,
      " tw": 691,
      " pe": 692,
      " after": 693,
      " 3": 694,
      " million": 695,
      " increas": 696,
      " 7": 697,
      " class": 698,
      " that": 699,
      " century": 700,
      " such": 701,
      "ower": 702,
      " num": 703,
      " minist": 704,
      "tin": 705,
      " long": 706,
      " region": 707,
      " 4": 708,
      " he": 709,
      " pol": 710,
      "ures": 711,
      " two": 712,
      " rul": 713,
      " modern": 714,
      "atic": 715,
      " dis": 716,
      "mong": 717,
      " tradition": 718,
      " im": 719,
      "ens": 720,
      " both": 721,
      "imal": 722,
      "pt": 723,
      " ca": 724,
      " 200": 725,
      " Congress": 726,
      " prime": 727,
      " Asia": 728,
      "istan": 729,
      " BC": 730,
      " BCE": 731,
      " cast": 732,
      " soc": 733,
      "ty": 734,
      " sc": 735,
      " 195": 736,
      " 202": 737,
      " major": 738,
      "vers": 739,
      "ren": 740,
      "etwe": 741,
      "etween": 742,
      "urb": 743,
      "urban": 744,
      "les": 745,
      " under": 746,
      "ust": 747,
      " ser": 748,
      " off": 749,
      "ep": 750,
      "lic": 751,
      " coun": 752,
      "ince": 753,
      " O": 754,
      " L": 755,
      "isation": 756,
      " language": 757,
      " caste": 758,
      " Bud": 759,
      " Buddh": 760,
      "ose": 761,
      " this": 762,
      " cult": 763,
      "hed": 764,
      " Empire": 765,
      "ik": 766,
      " Brit": 767,
      " British": 768,
      "rough": 769,
      "ament": 770,
      " population": 771,
      "ucle": 772,
      "uclear": 773,
      "vel": 774,
      " urban": 775,
      "ting": 776,
      " not": 777,
      " grow": 778,
      " their": 779,
      " election": 780,
      " minister": 781,
      " 196": 782,
      "ially": 783,
      " south": 784,
      "eng": 785,
      "out": 786,
      " land": 787,
      "akistan": 788,
      " north": 789,
      "contin": 790,
      "continent": 791,
      "ni": 792,
      " rec": 793,
      " ear": 794,
      " began": 795,
      "anges": 796,
      "ell": 797,
      "ree": 798,
      "ically": 799,
      " Con": 800,
      "ari": 801,
      " many": 802,
      "ond": 803,
      " between": 804,
      "rib": 805,
      "lo": 806,
      "lowing": 807,
      " fol": 808,
      " 199": 809,
      " dance": 810,
      " It": 811,
      " Pakistan": 812,
      " east": 813,
      " later": 814,
      "ade": 815,
      "merg": 816,
      " northern": 817,
      "ef": 818,
      "ite": 819,
      " economic": 820,
      " exp": 821,
      " economy": 822,
      "lu": 823,
      "ition": 824,
      " rep": 825,
      " tim": 826,
      " ter": 827,
      "sh": 828,
      " app": 829,
      " en": 830,
      "als": 831,
      "dic": 832,
      " fore": 833,
      " Un": 834,
      " ra": 835,
      "ited": 836,
      " up": 837,
      " j": 838,
      "ublic": 839,
      " count": 840,
      " since": 841,
      "cy": 842,
      " An": 843,
      " hum": 844,
      " subcontinent": 845,
      "000": 846,
      "omin": 847,
      " western": 848,
      "gin": 849,
      "aw": 850,
      "vi": 851,
      "ations": 852,
      " there": 853,
      "ugh": 854,
      "ace": 855,
      " 18": 856,
      "olog": 857,
      " non": 858,
      " influ": 859,
      " increased": 860,
      " lit": 861,
      " rate": 862,
      "ilit": 863,
      "mon": 864,
      " spec": 865,
      " ext": 866,
      " peop": 867,
      " sec": 868,
      " ab": 869,
      "ory": 870,
      " CE": 871,
      " classical": 872,
      "ular": 873,
      "velop": 874,
      "ard": 875,
      "ket": 876,
      "ered": 877,
      "ice": 878,
      "port": 879,
      " 2011": 880,
      "vent": 881,
      " 194": 882,
      "sl": 883,
      " Th": 884,
      " than": 885,
      " occ": 886,
      " lif": 887,
      " life": 888,
      " emerg": 889,
      "ise": 890,
      "ta": 891,
      "ised": 892,
      "ains": 893,
      " Mugh": 894,
      " Com": 895,
      "ech": 896,
      "ced": 897,
      " parli": 898,
      " parliament": 899,
      " liter": 900,
      " mid": 901,
      " nuclear": 902,
      " state": 903,
      "hm": 904,
      "versity": 905,
      "ected": 906,
      "ately": 907,
      " hist": 908,
      "ci": 909,
      " people": 910,
      "ever": 911,
      "own": 912,
      " peri": 913,
      " period": 914,
      " new": 915,
      "ph": 916,
      " power": 917,
      "rol": 918,
      "able": 919,
      "amil": 920,
      " 6": 921,
      " develop": 922,
      " Al": 923,
      " war": 924,
      "esp": 925,
      " mat": 926,
      " number": 927,
      " cour": 928,
      " species": 929,
      " among": 930,
      " general": 931,
      " largest": 932,
      " mus": 933,
      " country": 934,
      " Beng": 935,
      " Bengal": 936,
      " Chin": 937,
      " bas": 938,
      "illen": 939,
      "illenni": 940,
      "illennium": 941,
      " Sans": 942,
      " Sansk": 943,
      " Sanskrit": 944,
      " Indo": 945,
      "urop": 946,
      "urope": 947,
      " languages": 948,
      " social": 949,
      " Ma": 950,
      "ya": 951,
      " est": 952,
      "lim": 953,
      "ultan": 954,
      " Pun": 955,
      " Punj": 956,
      " Punjab": 957,
      " Mughal": 958,
      "ative": 959,
      " rule": 960,
      " East": 961,
      "vement": 962,
      " 1950": 963,
      " through": 964,
      " US": 965,
      "orm": 966,
      " though": 967,
      " milit": 968,
      "fe": 969,
      "per": 970,
      " ref": 971,
      "cient": 972,
      "ron": 973,
      "ood": 974,
      "ities": 975,
      "hen": 976,
      "ten": 977,
      " including": 978,
      " set": 979,
      "ple": 980,
      " them": 981,
      " caused": 982,
      " Pl": 983,
      " lead": 984,
      "gen": 985,
      "tern": 986,
      " constitution": 987,
      "ort": 988,
      "hem": 989,
      " music": 990,
      "large": 991,
      "largest": 992,
      "heast": 993,
      " China": 994,
      " Indus": 995,
      " river": 996,
      " 9": 997,
      " gra": 998,
      "ivil": 999,
      "ird": 1000,
      " millennium": 1001,
      " By": 1002,
      " 12": 1003,
      " pre": 1004,
      "ex": 1005,
      " expor": 1006,
      " religi": 1007,
      "uslim": 1008,
      " Cent": 1009,
      "rew": 1010,
      "ks": 1011,
      " Sik": 1012,
      " centuries": 1013,
      " Comp": 1014,
      " gr": 1015,
      "duced": 1016,
      " other": 1017,
      "ied": 1018,
      " billion": 1019,
      " military": 1020,
      "ild": 1021,
      "ording": 1022,
      "ians": 1023,
      "owever": 1024,
      " fe": 1025,
      " sty": 1026,
      "hes": 1027,
      " emp": 1028,
      "ments": 1029,
      "ared": 1030,
      " main": 1031,
      " some": 1032,
      "ould": 1033,
      "roc": 1034,
      " forest": 1035,
      " far": 1036,
      "ai": 1037,
      " tr": 1038,
      " all": 1039,
      " led": 1040,
      " sign": 1041,
      "ident": 1042,
      " who": 1043,
      " Ne": 1044,
      " cr": 1045,
      "ess": 1046,
      " After": 1047,
      " dire": 1048,
      " Wor": 1049,
      " World": 1050,
      " served": 1051,
      " rural": 1052,
      "read": 1053,
      " Himal": 1054,
      " Himalay": 1055,
      " one": 1056,
      " 198": 1057,
      "ati": 1058,
      " mathem": 1059,
      " 1947": 1060,
      " Isl": 1061,
      "ands": 1062,
      " no": 1063,
      " made": 1064,
      " high": 1065,
      "led": 1066,
      " emerged": 1067,
      " third": 1068,
      " Hinduism": 1069,
      "pl": 1070,
      "ked": 1071,
      " polit": 1072,
      " political": 1073,
      " wom": 1074,
      " women": 1075,
      "dle": 1076,
      " religious": 1077,
      " coast": 1078,
      " Muslim": 1079,
      " Central": 1080,
      "mit": 1081,
      " Del": 1082,
      " Delhi": 1083,
      "ultanate": 1084,
      " culture": 1085,
      " Sikh": 1086,
      " us": 1087,
      "acy": 1088,
      " Company": 1089,
      " col": 1090,
      " Indians": 1091,
      " tech": 1092,
      "20": 1093,
      " acc": 1094,
      "istic": 1095,
      " time": 1096,
      "put": 1097,
      "odi": 1098,
      "ats": 1099,
      " En": 1100,
      "gl": 1101,
      "ives": 1102,
      " used": 1103,
      "dust": 1104,
      " wide": 1105,
      "day": 1106,
      " coal": 1107,
      "ata": 1108,
      " human": 1109,
      "hr": 1110,
      "ants": 1111,
      " we": 1112,
      " found": 1113,
      " ass": 1114,
      " agric": 1115,
      " agricult": 1116,
      " out": 1117,
      "ange": 1118,
      "arn": 1119,
      " central": 1120,
      "ack": 1121,
      " control": 1122,
      "cri": 1123,
      " great": 1124,
      "ins": 1125,
      " trans": 1126,
      "very": 1127,
      "ars": 1128,
      "omet": 1129,
      " Sh": 1130,
      "ors": 1131,
      " loc": 1132,
      "til": 1133,
      "ost": 1134,
      "anu": 1135,
      " sur": 1136,
      " following": 1137,
      " Gand": 1138,
      " Gandhi": 1139,
      "ib": 1140,
      " Plate": 1141,
      " include": 1142,
      "ribut": 1143,
      " influen": 1144,
      " St": 1145,
      " areas": 1146,
      " growth": 1147,
      "ances": 1148,
      " cook": 1149,
      "ensus": 1150,
      "emoc": 1151,
      "west": 1152,
      "ades": 1153,
      " Its": 1154,
      "are": 1155,
      " ago": 1156,
      " occup": 1157,
      "verse": 1158,
      "vol": 1159,
      "ving": 1160,
      "alle": 1161,
      " arch": 1162,
      "uropean": 1163,
      " diff": 1164,
      " early": 1165,
      " regions": 1166,
      " Jain": 1167,
      "oms": 1168,
      "abl": 1169,
      " arm": 1170,
      "wor": 1171,
      " cre": 1172,
      " leg": 1173,
      " righ": 1174,
      "nolog": 1175,
      " movement": 1176,
      " fed": 1177,
      " parliamentary": 1178,
      " grew": 1179,
      " cap": 1180,
      "ually": 1181,
      " literacy": 1182,
      " bi": 1183,
      " Engl": 1184,
      " English": 1185,
      " histor": 1186,
      " prov": 1187,
      " Constitution": 1188,
      " ori": 1189,
      " origin": 1190,
      "19": 1191,
      " ent": 1192,
      " second": 1193,
      " diversity": 1194,
      " animal": 1195,
      " feat": 1196,
      " fig": 1197,
      " 15": 1198,
      " Ganges": 1199,
      "oin": 1200,
      "fore": 1201,
      "ach": 1202,
      " religions": 1203,
      " bir": 1204,
      "raph": 1205,
      " 26": 1206,
      "ne": 1207,
      " dev": 1208,
      " they": 1209,
      "iz": 1210,
      "ific": 1211,
      "ines": 1212,
      "ites": 1213,
      "ists": 1214,
      " gener": 1215,
      " local": 1216,
      " esp": 1217,
      " espec": 1218,
      " especially": 1219,
      "ven": 1220,
      " 17": 1221,
      " pain": 1222,
      " painting": 1223,
      " direct": 1224,
      "str": 1225,
      " indust": 1226,
      " states": 1227,
      " territ": 1228,
      "au": 1229,
      " ancient": 1230,
      "ction": 1231,
      " rem": 1232,
      " remain": 1233,
      " dra": 1234,
      "und": 1235,
      "ons": 1236,
      " majority": 1237,
      " her": 1238,
      " 197": 1239,
      "JP": 1240,
      " Nehr": 1241,
      " Nehru": 1242,
      " party": 1243,
      " last": 1244,
      " United": 1245,
      " contribut": 1246,
      " rates": 1247,
      " census": 1248,
      "icial": 1249,
      " Hindi": 1250,
      " marri": 1251,
      " scul": 1252,
      " sculpt": 1253,
      " ind": 1254,
      "outheast": 1255,
      "yan": 1256,
      "mar": 1257,
      "ank": 1258,
      " And": 1259,
      " Andam": 1260,
      " Andaman": 1261,
      "alley": 1262,
      "ning": 1263,
      " Buddhism": 1264,
      " During": 1265,
      " stat": 1266,
      " decl": 1267,
      "ined": 1268,
      " king": 1269,
      "ished": 1270,
      " sou": 1271,
      " southern": 1272,
      " inter": 1273,
      " created": 1274,
      " compos": 1275,
      "ft": 1276,
      "urn": 1277,
      " prom": 1278,
      " technolog": 1279,
      " ed": 1280,
      " educ": 1281,
      " education": 1282,
      " national": 1283,
      "act": 1284,
      "ration": 1285,
      " federal": 1286,
      " republic": 1287,
      " become": 1288,
      " air": 1289,
      "ccording": 1290,
      "urther": 1291,
      " Pers": 1292,
      " eastern": 1293,
      " well": 1294,
      " popular": 1295,
      " widely": 1296,
      " earli": 1297,
      " 8": 1298,
      " forms": 1299,
      "etic": 1300,
      "pro": 1301,
      "ped": 1302,
      " These": 1303,
      " cities": 1304,
      " Mo": 1305,
      " styles": 1306,
      "wn": 1307,
      "ating": 1308,
      "ight": 1309,
      "ics": 1310,
      "alled": 1311,
      " based": 1312,
      "ix": 1313,
      "sequ": 1314,
      "sequent": 1315,
      "amm": 1316,
      " roc": 1317,
      " adm": 1318,
      " administ": 1319,
      "ert": 1320,
      " Tamil": 1321,
      " pen": 1322,
      " penins": 1323,
      "ively": 1324,
      " regional": 1325,
      " whose": 1326,
      " sm": 1327,
      "ificant": 1328,
      " sultanate": 1329,
      "though": 1330,
      "ract": 1331,
      " market": 1332,
      "oup": 1333,
      "arat": 1334,
      " commer": 1335,
      " pres": 1336,
      " longer": 1337,
      " sever": 1338,
      "leg": 1339,
      " National": 1340,
      " There": 1341,
      "cent": 1342,
      "eration": 1343,
      " won": 1344,
      "ories": 1345,
      " elections": 1346,
      "wan": 1347,
      " contin": 1348,
      " lower": 1349,
      " Himalayas": 1350,
      " Western": 1351,
      " low": 1352,
      " union": 1353,
      " often": 1354,
      " endem": 1355,
      "bal": 1356,
      " car": 1357,
      " Act": 1358,
      " BJP": 1359,
      "ody": 1360,
      " 1991": 1361,
      " exec": 1362,
      " execut": 1363,
      "ived": 1364,
      "DP": 1365,
      "de": 1366,
      " 2001": 1367,
      " common": 1368,
      " mathematic": 1369,
      " indep": 1370,
      " independ": 1371,
      " Ara": 1372,
      " Se": 1373,
      "ders": 1374,
      " west": 1375,
      "div": 1376,
      "bar": 1377,
      " Af": 1378,
      "ather": 1379,
      " record": 1380,
      "dian": 1381,
      " Jainism": 1382,
      "redi": 1383,
      " rise": 1384,
      " fl": 1385,
      "ility": 1386,
      "lief": 1387,
      " kingd": 1388,
      " kingdoms": 1389,
      " Southeast": 1390,
      " Islam": 1391,
      " establ": 1392,
      " left": 1393,
      " changes": 1394,
      "mary": 1395,
      " domin": 1396,
      "sc": 1397,
      "ale": 1398,
      "oss": 1399,
      "ual": 1400,
      " soci": 1401,
      "ety": 1402,
      " ann": 1403,
      " fast": 1404,
      " technology": 1405,
      " middle": 1406,
      " increasing": 1407,
      "ality": 1408,
      " Kas": 1409,
      " Kashm": 1410,
      " Among": 1411,
      "ising": 1412,
      "adi": 1413,
      " four": 1414,
      "ie": 1415,
      " prot": 1416,
      " Persian": 1417,
      " term": 1418,
      " Bhar": 1419,
      " vari": 1420,
      " cur": 1421,
      " thought": 1422,
      " earliest": 1423,
      " 50": 1424,
      "nown": 1425,
      " z": 1426,
      "tle": 1427,
      " around": 1428,
      " char": 1429,
      " ste": 1430,
      " figures": 1431,
      " vill": 1432,
      " old": 1433,
      "eak": 1434,
      "cro": 1435,
      "ss": 1436,
      " plain": 1437,
      " times": 1438,
      " emplo": 1439,
      " employ": 1440,
      " however": 1441,
      " differ": 1442,
      " eth": 1443,
      "ices": 1444,
      " conduc": 1445,
      " Bra": 1446,
      " Brahm": 1447,
      " birth": 1448,
      "rop": 1449,
      "ograph": 1450,
      " empire": 1451,
      "ption": 1452,
      " tex": 1453,
      " subsequent": 1454,
      " polic": 1455,
      "iss": 1456,
      " rock": 1457,
      "mb": 1458,
      " comple": 1459,
      " ta": 1460,
      "ature": 1461,
      " along": 1462,
      " resp": 1463,
      "ded": 1464,
      " def": 1465,
      " mak": 1466,
      " tem": 1467,
      " significant": 1468,
      "bers": 1469,
      " every": 1470,
      "ays": 1471,
      " sch": 1472,
      " Buddhist": 1473,
      " 10": 1474,
      " vast": 1475,
      " leading": 1476,
      " men": 1477,
      " str": 1478,
      " peninsular": 1479,
      "ards": 1480,
      "amp": 1481,
      " group": 1482,
      " Raj": 1483,
      "cial": 1484,
      "cess": 1485,
      " aff": 1486,
      " bl": 1487,
      " further": 1488,
      " consid": 1489,
      " sa": 1490,
      "ternal": 1491,
      "work": 1492,
      "ided": 1493,
      " industry": 1494,
      " legis": 1495,
      " legisl": 1496,
      " 193": 1497,
      " spread": 1498,
      " ob": 1499,
      " This": 1500,
      " continu": 1501,
      " caus": 1502,
      " now": 1503,
      " surv": 1504,
      "can": 1505,
      " dist": 1506,
      " According": 1507,
      " influenced": 1508,
      " win": 1509,
      " endang": 1510,
      " endangered": 1511,
      "ah": 1512,
      " five": 1513,
      " held": 1514,
      " until": 1515,
      " Janu": 1516,
      " January": 1517,
      " 1965": 1518,
      " civil": 1519,
      " coalition": 1520,
      " mem": 1521,
      " sing": 1522,
      " formed": 1523,
      "dra": 1524,
      " States": 1525,
      " executive": 1526,
      "ouse": 1527,
      " three": 1528,
      " court": 1529,
      " courts": 1530,
      "min": 1531,
      " GDP": 1532,
      " glo": 1533,
      " estim": 1534,
      "ales": 1535,
      " import": 1536,
      " famil": 1537,
      " families": 1538,
      " official": 1539,
      " developed": 1540,
      "ool": 1541,
      " traditional": 1542,
      " sculpture": 1543,
      " traditions": 1544,
      " dances": 1545,
      " worn": 1546,
      " gar": 1547,
      " democ": 1548,
      "bian": 1549,
      " Sea": 1550,
      " bor": 1551,
      " Bh": 1552,
      " near": 1553,
      "ico": 1554,
      "ail": 1555,
      "ones": 1556,
      " Afric": 1557,
      " Africa": 1558,
      " 55": 1559,
      " Their": 1560,
      " diverse": 1561,
      "ett": 1562,
      " gradu": 1563,
      " Valley": 1564,
      " Civil": 1565,
      " 1200": 1566,
      " recorded": 1567,
      " Dra": 1568,
      " Dravi": 1569,
      " Dravidian": 1570,
      "anted": 1571,
      " within": 1572,
      " consol": 1573,
      " consolid": 1574,
      " lo": 1575,
      " Maur": 1576,
      " Gup": 1577,
      " er": 1578,
      " era": 1579,
      " creat": 1580,
      " archit": 1581,
      " architect": 1582,
      " writ": 1583,
      "tou": 1584,
      "touch": 1585,
      "touchab": 1586,
      " scri": 1587,
      "astri": 1588,
      " established": 1589,
      "mitt": 1590,
      "ran": 1591,
      " result": 1592,
      " resulting": 1593,
      "val": 1594,
      "ara": 1595,
      "urned": 1596,
      " rights": 1597,
      " intro": 1598,
      " public": 1599,
      " took": 1600,
      " influence": 1601,
      "viol": 1602,
      " partition": 1603,
      "ratic": 1604,
      " mult": 1605,
      " 1951": 1606,
      " capit": 1607,
      " 16": 1608,
      " reduced": 1609,
      "equ": 1610,
      "ture": 1611,
      " disput": 1612,
      " Kashmir": 1613,
      " poll": 1614,
      "ots": 1615,
      " wild": 1616,
      "life": 1617,
      " traditionally": 1618,
      "ported": 1619,
      " der": 1620,
      " Gree": 1621,
      " extens": 1622,
      " Bharat": 1623,
      "lied": 1624,
      "ained": 1625,
      " curren": 1626,
      " 13": 1627,
      "rial": 1628,
      " Y": 1629,
      " extant": 1630,
      " However": 1631,
      " known": 1632,
      " about": 1633,
      " features": 1634,
      "dis": 1635,
      " oldest": 1636,
      "oci": 1637,
      " composed": 1638,
      " trib": 1639,
      "cross": 1640,
      " place": 1641,
      " when": 1642,
      " agriculture": 1643,
      " invol": 1644,
      "aving": 1645,
      " fam": 1646,
      "atical": 1647,
      " Mah": 1648,
      " called": 1649,
      "ified": 1650,
      " different": 1651,
      "ured": 1652,
      " conducted": 1653,
      "iving": 1654,
      " lay": 1655,
      " history": 1656,
      " ge": 1657,
      "ining": 1658,
      " his": 1659,
      "miss": 1660,
      "elf": 1661,
      " tax": 1662,
      " greater": 1663,
      " rene": 1664,
      " renew": 1665,
      "otion": 1666,
      " man": 1667,
      " flow": 1668,
      "ering": 1669,
      "ously": 1670,
      "erv": 1671,
      "ti": 1672,
      " West": 1673,
      " growing": 1674,
      " agricultural": 1675,
      " show": 1676,
      " development": 1677,
      " small": 1678,
      " numbers": 1679,
      "here": 1680,
      " so": 1681,
      "aries": 1682,
      " Asian": 1683,
      " Although": 1684,
      " elites": 1685,
      " indi": 1686,
      " indigen": 1687,
      " indigenous": 1688,
      " again": 1689,
      " pract": 1690,
      "ues": 1691,
      " commercial": 1692,
      " process": 1693,
      " European": 1694,
      "ably": 1695,
      " supp": 1696,
      "ely": 1697,
      " reform": 1698,
      " can": 1699,
      " Re": 1700,
      " sum": 1701,
      "alth": 1702,
      " directly": 1703,
      "gu": 1704,
      " decades": 1705,
      " produc": 1706,
      " War": 1707,
      "operation": 1708,
      "0s": 1709,
      " enac": 1710,
      " enacted": 1711,
      " All": 1712,
      " secular": 1713,
      " plate": 1714,
      " appro": 1715,
      " approx": 1716,
      " approxim": 1717,
      " approximately": 1718,
      " crust": 1719,
      " upper": 1720,
      " continued": 1721,
      " Plateau": 1722,
      " Des": 1723,
      " che": 1724,
      " Gu": 1725,
      " Guj": 1726,
      " Dec": 1727,
      " Gh": 1728,
      " Ghats": 1729,
      " Constit": 1730,
      "ash": 1731,
      " equ": 1732,
      "reme": 1733,
      "line": 1734,
      "42": 1735,
      "aksh": 1736,
      " territories": 1737,
      " mon": 1738,
      "ole": 1739,
      "ropical": 1740,
      " ret": 1741,
      " nat": 1742,
      "ali": 1743,
      " exch": 1744,
      "vention": 1745,
      " Par": 1746,
      " leader": 1747,
      " Sing": 1748,
      " Singh": 1749,
      "old": 1750,
      " body": 1751,
      "liance": 1752,
      " just": 1753,
      " member": 1754,
      " single": 1755,
      " external": 1756,
      " support": 1757,
      " De": 1758,
      " At": 1759,
      "ue": 1760,
      " 2026": 1761,
      " Ass": 1762,
      " exc": 1763,
      "erc": 1764,
      " foreign": 1765,
      " head": 1766,
      " fund": 1767,
      " fundament": 1768,
      " fundamental": 1769,
      " Union": 1770,
      " serv": 1771,
      " qu": 1772,
      " Nuclear": 1773,
      "ternational": 1774,
      "erg": 1775,
      "ergy": 1776,
      " global": 1777,
      " exports": 1778,
      " 14": 1779,
      " before": 1780,
      " 21": 1781,
      " estimated": 1782,
      " ve": 1783,
      " phar": 1784,
      " pharm": 1785,
      " pharmace": 1786,
      " pharmaceut": 1787,
      " pharmaceutical": 1788,
      "reasing": 1789,
      " cooking": 1790,
      " important": 1791,
      "hedul": 1792,
      "ani": 1793,
      " school": 1794,
      " below": 1795,
      "cast": 1796,
      " Ar": 1797,
      " mathematics": 1798,
      "dram": 1799,
      "dramas": 1800,
      " sari": 1801,
      " wa": 1802,
      " waist": 1803,
      " commonly": 1804,
      " wear": 1805,
      " cooked": 1806,
      " meat": 1807,
      " area": 1808,
      " populous": 1809,
      " independence": 1810,
      "racy": 1811,
      "cean": 1812,
      " Arabian": 1813,
      " Bay": 1814,
      " Bang": 1815,
      " Bangl": 1816,
      " Banglades": 1817,
      " Bangladesh": 1818,
      " Myan": 1819,
      " Myanmar": 1820,
      " Sri": 1821,
      " Lank": 1822,
      " Mal": 1823,
      " Nico": 1824,
      " Nicobar": 1825,
      " Islands": 1826,
      " share": 1827,
      "ime": 1828,
      " Indones": 1829,
      " Indonesia": 1830,
      " pred": 1831,
      " predomin": 1832,
      " isol": 1833,
      " margin": 1834,
      " margins": 1835,
      " basin": 1836,
      " gradually": 1837,
      " Civilisation": 1838,
      "aic": 1839,
      "European": 1840,
      " northwest": 1841,
      " hy": 1842,
      "nings": 1843,
      " suppl": 1844,
      " 400": 1845,
      "isen": 1846,
      "la": 1847,
      " heredi": 1848,
      " gave": 1849,
      " loose": 1850,
      " Maurya": 1851,
      " Gupta": 1852,
      "ivity": 1853,
      " architecture": 1854,
      " status": 1855,
      "touchability": 1856,
      " organ": 1857,
      " belief": 1858,
      " Mid": 1859,
      " Middle": 1860,
      "pts": 1861,
      " cultures": 1862,
      "anism": 1863,
      " armies": 1864,
      " plains": 1865,
      " cos": 1866,
      " medi": 1867,
      " Vi": 1868,
      "anag": 1869,
      " Sikhism": 1870,
      "ject": 1871,
      " institution": 1872,
      " religion": 1873,
      " expans": 1874,
      " rich": 1875,
      " expand": 1876,
      "onial": 1877,
      " sover": 1878,
      " sovere": 1879,
      " sovereign": 1880,
      " sovereignty": 1881,
      " 185": 1882,
      " slow": 1883,
      " introduced": 1884,
      "oted": 1885,
      " primary": 1886,
      " fact": 1887,
      " loss": 1888,
      " mig": 1889,
      " multi": 1890,
      " society": 1891,
      " 36": 1892,
      " 2023": 1893,
      " nomin": 1894,
      " capita": 1895,
      "64": 1896,
      " hub": 1897,
      " pover": 1898,
      " poverty": 1899,
      " inequ": 1900,
      " inequality": 1901,
      " disputes": 1902,
      "onom": 1903,
      " level": 1904,
      " wildlife": 1905,
      " supported": 1906,
      " protected": 1907,
      " hab": 1908,
      " habit": 1909,
      "medi": 1910,
      "mediately": 1911,
      " refer": 1912,
      "ret": 1913,
      " Greek": 1914,
      "the": 1915,
      "rat": 1916,
      "pic": 1917,
      " name": 1918,
      "sha": 1919,
      " originally": 1920,
      " Nor": 1921,
      " North": 1922,
      " currency": 1923,
      " 13th": 1924,
      " Hindust": 1925,
      "com": 1926,
      "pass": 1927,
      "passing": 1928,
      "resent": 1929,
      "esc": 1930,
      " reac": 1931,
      " reached": 1932,
      " lik": 1933,
      " init": 1934,
      " 30": 1935,
      " Me": 1936,
      "omest": 1937,
      "omestic": 1938,
      "inc": 1939,
      " animals": 1940,
      "urred": 1941,
      " 25": 1942,
      " Mohen": 1943,
      " Mohenj": 1944,
      " Mohenjo": 1945,
      "dar": 1946,
      "daro": 1947,
      "avi": 1948,
      "eri": 1949,
      "ala": 1950,
      " charac": 1951,
      " character": 1952,
      " seals": 1953,
      " written": 1954,
      " script": 1955,
      " arts": 1956,
      " town": 1957,
      "oral": 1958,
      " today": 1959,
      " associ": 1960,
      "Ary": 1961,
      "Aryan": 1962,
      " across": 1963,
      " setting": 1964,
      " ir": 1965,
      " dri": 1966,
      " bro": 1967,
      " broad": 1968,
      " being": 1969,
      " parts": 1970,
      " would": 1971,
      " range": 1972,
      " urbanisation": 1973,
      " tak": 1974,
      " varn": 1975,
      " te": 1976,
      "ings": 1977,
      " those": 1978,
      " Buddha": 1979,
      "ressed": 1980,
      " could": 1981,
      " these": 1982,
      " back": 1983,
      " Ash": 1984,
      " Ashok": 1985,
      " Ashoka": 1986,
      " bri": 1987,
      " texts": 1988,
      " speak": 1989,
      " Kal": 1990,
      "ense": 1991,
      " adop": 1992,
      " forests": 1993,
      "By": 1994,
      " administration": 1995,
      " devotion": 1996,
      " rather": 1997,
      " assert": 1998,
      " Va": 1999,
      " six": 2000,
      " Pall": 2001,
      " Pallav": 2002,
      "aced": 2003,
      " god": 2004,
      " partic": 2005,
      " age": 2006,
      " cultural": 2007,
      " much": 2008,
      " cle": 2009,
      "ditional": 2010,
      " classes": 2011,
      " temp": 2012,
      " pat": 2013,
      " Tem": 2014,
      " appear": 2015,
      " ano": 2016,
      " another": 2017,
      " eff": 2018,
      "une": 2019,
      "nam": 2020,
      " mer": 2021,
      " merch": 2022,
      " somet": 2023,
      " sometim": 2024,
      " sometimes": 2025,
      "After": 2026,
      " law": 2027,
      " laws": 2028,
      " sav": 2029,
      " vis": 2030,
      "ening": 2031,
      " strong": 2032,
      " bu": 2033,
      " came": 2034,
      " por": 2035,
      "wards": 2036,
      " then": 2037,
      "anced": 2038,
      " practices": 2039,
      " tribal": 2040,
      "onds": 2041,
      " Ak": 2042,
      "ung": 2043,
      " policies": 2044,
      " reven": 2045,
      " revenues": 2046,
      " pa": 2047,
      "reg": 2048,
      " sil": 2049,
      " enter": 2050,
      "ger": 2051,
      " maint": 2052,
      "has": 2053,
      "itions": 2054,
      " coll": 2055,
      " recog": 2056,
      " recogn": 2057,
      " fra": 2058,
      " increasingly": 2059,
      " compan": 2060,
      " companies": 2061,
      "oli": 2062,
      "ources": 2063,
      " adv": 2064,
      " stren": 2065,
      " streng": 2066,
      " strength": 2067,
      " att": 2068,
      " cruc": 2069,
      " crucial": 2070,
      " good": 2071,
      " goods": 2072,
      " Many": 2073,
      " consider": 2074,
      " having": 2075,
      " Dal": 2076,
      " rail": 2077,
      " railw": 2078,
      " Europe": 2079,
      "bell": 2080,
      "bellion": 2081,
      " pr": 2082,
      " sho": 2083,
      " unit": 2084,
      " lim": 2085,
      " safe": 2086,
      "guard": 2087,
      "ush": 2088,
      " marked": 2089,
      " dep": 2090,
      "struc": 2091,
      "pay": 2092,
      " consum": 2093,
      " provided": 2094,
      " crit": 2095,
      "co": 2096,
      " vic": 2097,
      " vict": 2098,
      " decade": 2099,
      "ises": 2100,
      " lib": 2101,
      " liberal": 2102,
      "form": 2103,
      " pers": 2104,
      " sep": 2105,
      " 70": 2106,
      "af": 2107,
      " Eur": 2108,
      " Euras": 2109,
      "one": 2110,
      "idly": 2111,
      " makes": 2112,
      " Thar": 2113,
      " Desert": 2114,
      " remaining": 2115,
      "pur": 2116,
      "kh": 2117,
      " Deccan": 2118,
      " contains": 2119,
      "itud": 2120,
      " Himalayan": 2121,
      " rivers": 2122,
      " drain": 2123,
      "ada": 2124,
      " kil": 2125,
      " kilomet": 2126,
      " kilometres": 2127,
      " mi": 2128,
      "400": 2129,
      " bel": 2130,
      " belong": 2131,
      "300": 2132,
      "land": 2133,
      " consists": 2134,
      " 11": 2135,
      "ann": 2136,
      " latter": 2137,
      " 28": 2138,
      " clim": 2139,
      " summer": 2140,
      "ds": 2141,
      " sim": 2142,
      " moist": 2143,
      " tropical": 2144,
      " 0": 2145,
      " 2018": 2146,
      " cause": 2147,
      "ections": 2148,
      " employed": 2149,
      " contain": 2150,
      " endemic": 2151,
      " mamm": 2152,
      " mammals": 2153,
      " displ": 2154,
      " 40": 2155,
      "uous": 2156,
      "rig": 2157,
      "ayed": 2158,
      " exchange": 2159,
      " extin": 2160,
      "ke": 2161,
      " threat": 2162,
      "ened": 2163,
      "des": 2164,
      "tre": 2165,
      "pen": 2166,
      " recent": 2167,
      " 1935": 2168,
      " Pro": 2169,
      "mend": 2170,
      " added": 2171,
      " eight": 2172,
      " Bi": 2173,
      "ams": 2174,
      " Jan": 2175,
      " Janata": 2176,
      " right": 2177,
      " office": 2178,
      " 1962": 2179,
      " chos": 2180,
      " chosen": 2181,
      " Indira": 2182,
      " She": 2183,
      " defe": 2184,
      "iber": 2185,
      "ency": 2186,
      " opp": 2187,
      " oppos": 2188,
      " ministers": 2189,
      " 31": 2190,
      " Fron": 2191,
      " Front": 2192,
      "ha": 2193,
      " min": 2194,
      " governments": 2195,
      " follow": 2196,
      "ee": 2197,
      " Democ": 2198,
      "DA": 2199,
      "PA": 2200,
      "han": 2201,
      "resident": 2202,
      "ute": 2203,
      " 2024": 2204,
      " Constitu": 2205,
      " Constituent": 2206,
      " Assem": 2207,
      " Assemb": 2208,
      " Assembly": 2209,
      " constitutional": 2210,
      " elected": 2211,
      "anch": 2212,
      " village": 2213,
      " distin": 2214,
      "ctions": 2215,
      " becom": 2216,
      " becoming": 2217,
      " 1950s": 2218,
      " Non": 2219,
      " went": 2220,
      "ese": 2221,
      " test": 2222,
      " weap": 2223,
      " weapons": 2224,
      "round": 2225,
      " signed": 2226,
      "ither": 2227,
      " Treat": 2228,
      " Treaty": 2229,
      "crimin": 2230,
      "no": 2231,
      " use": 2232,
      "ble": 2233,
      "eter": 2234,
      " 2008": 2235,
      " energy": 2236,
      " 2010": 2237,
      " gro": 2238,
      " nation": 2239,
      " aver": 2240,
      " average": 2241,
      " fall": 2242,
      " trade": 2243,
      " sect": 2244,
      " sector": 2245,
      " 2022": 2246,
      " hig": 2247,
      " tot": 2248,
      " total": 2249,
      " 2013": 2250,
      " cal": 2251,
      "201": 2252,
      "200": 2253,
      "24": 2254,
      "reen": 2255,
      " gas": 2256,
      "iqu": 2257,
      " resident": 2258,
      " residents": 2259,
      "91": 2260,
      " fem": 2261,
      "abad": 2262,
      " comprom": 2263,
      " compromise": 2264,
      "ii": 2265,
      " formal": 2266,
      "heduled": 2267,
      " others": 2268,
      "after": 2269,
      " express": 2270,
      " impro": 2271,
      " schools": 2272,
      "HO": 2273,
      "reath": 2274,
      "ports": 2275,
      "tt": 2276,
      " div": 2277,
      " very": 2278,
      " marriages": 2279,
      "anged": 2280,
      "rents": 2281,
      "orce": 2282,
      " natal": 2283,
      " band": 2284,
      " influences": 2285,
      "irt": 2286,
      " style": 2287,
      " sites": 2288,
      "anta": 2289,
      " manus": 2290,
      " manuscri": 2291,
      " folk": 2292,
      " mathematical": 2293,
      " transmit": 2294,
      " transmitted": 2295,
      " contributions": 2296,
      " conce": 2297,
      " exam": 2298,
      " example": 2299,
      " For": 2300,
      "oulder": 2301,
      "alw": 2302,
      " kame": 2303,
      " kamee": 2304,
      " kameez": 2305,
      "yp": 2306,
      " cu": 2307,
      " chur": 2308,
      " churid": 2309,
      " churidars": 2310,
      " dishes": 2311,
      " veg": 2312,
      " veget": 2313,
      "ricket": 2314,
      " Rep": 2315,
      " Republic": 2316,
      " democracy": 2317,
      " Ocean": 2318,
      " southwest": 2319,
      "ares": 2320,
      " borders": 2321,
      " Nep": 2322,
      " marit": 2323,
      " Thail": 2324,
      " Thailand": 2325,
      " humans": 2326,
      " occupation": 2327,
      " isolation": 2328,
      " hun": 2329,
      " hunter": 2330,
      "gather": 2331,
      "gatherers": 2332,
      " highly": 2333,
      "ettled": 2334,
      " evol": 2335,
      " archaic": 2336,
      " diffused": 2337,
      " hym": 2338,
      " hymn": 2339,
      " hymns": 2340,
      "isting": 2341,
      " supplanted": 2342,
      " arisen": 2343,
      "laim": 2344,
      "laiming": 2345,
      " Ear": 2346,
      " Early": 2347,
      "kn": 2348,
      "knit": 2349,
      "ires": 2350,
      " flour": 2351,
      " creativity": 2352,
      " untouchability": 2353,
      " exported": 2354,
      " Chri": 2355,
      " Christ": 2356,
      " Christian": 2357,
      " Christianity": 2358,
      "aism": 2359,
      " Z": 2360,
      " Zor": 2361,
      " Zoro": 2362,
      " Zoroastri": 2363,
      " Zoroastrianism": 2364,
      " coasts": 2365,
      "nd": 2366,
      "ently": 2367,
      " overran": 2368,
      " Sultanate": 2369,
      " drew": 2370,
      " net": 2371,
      "works": 2372,
      " medie": 2373,
      " medieval": 2374,
      " Vij": 2375,
      " Vijay": 2376,
      " Vijayanag": 2377,
      " Vijayanagara": 2378,
      "hered": 2379,
      " expansion": 2380,
      " relative": 2381,
      " peace": 2382,
      " expanding": 2383,
      " turned": 2384,
      " colonial": 2385,
      " 1858": 2386,
      " ide": 2387,
      " ro": 2388,
      " nationalist": 2389,
      " nonviol": 2390,
      " nonviolent": 2391,
      " factor": 2392,
      " ending": 2393,
      " independent": 2394,
      "major": 2395,
      "majority": 2396,
      " dominion": 2397,
      "scale": 2398,
      " migration": 2399,
      " accom": 2400,
      " govern": 2401,
      " democratic": 2402,
      "eth": 2403,
      "nic": 2404,
      " 361": 2405,
      " nominal": 2406,
      " income": 2407,
      " annually": 2408,
      "60": 2409,
      " 74": 2410,
      "grow": 2411,
      "growing": 2412,
      " inform": 2413,
      " information": 2414,
      " cost": 2415,
      " neigh": 2416,
      " neighb": 2417,
      " neighbour": 2418,
      " unres": 2419,
      " unresol": 2420,
      " unresolved": 2421,
      "econom": 2422,
      "economic": 2423,
      " fac": 2424,
      " gender": 2425,
      " child": 2426,
      " levels": 2427,
      " pollution": 2428,
      " meg": 2429,
      " megadi": 2430,
      " megadiverse": 2431,
      " biodi": 2432,
      " biodiversity": 2433,
      " hots": 2434,
      " hotsp": 2435,
      " hotspots": 2436,
      " immediately": 2437,
      " Cl": 2438,
      " Class": 2439,
      " Classical": 2440,
      " Lat": 2441,
      " historical": 2442,
      "Ἰν": 2443,
      "Ἰνδ": 2444,
      " Ancient": 2445,
      " Ach": 2446,
      " Acha": 2447,
      " Achaem": 2448,
      " Achaemen": 2449,
      " Old": 2450,
      " Sin": 2451,
      " Asians": 2452,
      "Bh": 2453,
      "aː": 2454,
      " applied": 2455,
      " gained": 2456,
      " mean": 2457,
      " meaning": 2458,
      "ring": 2459,
      "ased": 2460,
      "och": 2461,
      " data": 2462,
      " anat": 2463,
      " anatom": 2464,
      " like": 2465,
      " vary": 2466,
      " only": 2467,
      "ils": 2468,
      "vid": 2469,
      "vidence": 2470,
      " Bal": 2471,
      "includ": 2472,
      "including": 2473,
      " bar": 2474,
      "eb": 2475,
      " cat": 2476,
      " cattle": 2477,
      " occurred": 2478,
      "app": 2479,
      "avira": 2480,
      "akh": 2481,
      " characteristic": 2482,
      " included": 2483,
      " stand": 2484,
      " standar": 2485,
      " standardis": 2486,
      " standardised": 2487,
      " works": 2488,
      " pot": 2489,
      "rac": 2490,
      " Net": 2491,
      " towns": 2492,
      " villages": 2493,
      "astoral": 2494,
      " associated": 2495,
      " what": 2496,
      "sp": 2497,
      "ling": 2498,
      " nex": 2499,
      " next": 2500,
      " sw": 2501,
      "sted": 2502,
      " imple": 2503,
      " settle": 2504,
      " settlement": 2505,
      " may": 2506,
      " involved": 2507,
      " creating": 2508,
      " fami": 2509,
      " family": 2510,
      " mainly": 2511,
      "dif": 2512,
      "dified": 2513,
      " chap": 2514,
      "tell": 2515,
      " regist": 2516,
      " 300": 2517,
      " fort": 2518,
      " fortified": 2519,
      " varna": 2520,
      " ethical": 2521,
      " systems": 2522,
      "violence": 2523,
      "ixed": 2524,
      " heredit": 2525,
      " hereditary": 2526,
      " living": 2527,
      "ronic": 2528,
      " begin": 2529,
      " beginnings": 2530,
      " geograph": 2531,
      "23": 2532,
      " brief": 2533,
      " briefly": 2534,
      " hubs": 2535,
      " exce": 2536,
      " notable": 2537,
      " ins": 2538,
      "cription": 2539,
      " produced": 2540,
      "ream": 2541,
      " Fol": 2542,
      " Following": 2543,
      " adopted": 2544,
      " subsequently": 2545,
      " policy": 2546,
      " dh": 2547,
      "mission": 2548,
      "erous": 2549,
      " edic": 2550,
      " edicts": 2551,
      " welf": 2552,
      " welfare": 2553,
      " kill": 2554,
      " dest": 2555,
      "mental": 2556,
      " historians": 2557,
      " emb": 2558,
      " complex": 2559,
      " Plain": 2560,
      " mod": 2561,
      " model": 2562,
      "sel": 2563,
      " refl": 2564,
      " flowering": 2565,
      " literature": 2566,
      " ruled": 2567,
      " Chol": 2568,
      " respect": 2569,
      " Ka": 2570,
      " Kaver": 2571,
      " Kaveri": 2572,
      " valley": 2573,
      "andy": 2574,
      " Pallavas": 2575,
      " Sim": 2576,
      " Simultan": 2577,
      " Simultane": 2578,
      " Simultaneously": 2579,
      " fav": 2580,
      "tional": 2581,
      " gods": 2582,
      " particular": 2583,
      " extensively": 2584,
      " able": 2585,
      " lands": 2586,
      " cleared": 2587,
      " make": 2588,
      " way": 2589,
      " ruling": 2590,
      " 6th": 2591,
      " 7th": 2592,
      " They": 2593,
      "yal": 2594,
      "yalty": 2595,
      " temples": 2596,
      " patron": 2597,
      " cit": 2598,
      " citiz": 2599,
      " citizens": 2600,
      " Temple": 2601,
      " various": 2602,
      " siz": 2603,
      "ili": 2604,
      " merchants": 2605,
      " initi": 2606,
      " 10th": 2607,
      "aval": 2608,
      " united": 2609,
      " repe": 2610,
      " repeated": 2611,
      " repeatedly": 2612,
      "western": 2613,
      " event": 2614,
      " eventually": 2615,
      " Islamic": 2616,
      "rup": 2617,
      "tive": 2618,
      " largely": 2619,
      " own": 2620,
      " cust": 2621,
      "uls": 2622,
      " raid": 2623,
      " devast": 2624,
      " scen": 2625,
      " artists": 2626,
      " artis": 2627,
      " artisans": 2628,
      " build": 2629,
      " building": 2630,
      " portion": 2631,
      " rulers": 2632,
      " warri": 2633,
      " warriors": 2634,
      " did": 2635,
      "ste": 2636,
      "stead": 2637,
      " bal": 2638,
      "lus": 2639,
      "wing": 2640,
      " bonds": 2641,
      " Akbar": 2642,
      "fl": 2643,
      "ms": 2644,
      " emper": 2645,
      " emperor": 2646,
      " mand": 2647,
      " taxes": 2648,
      " lar": 2649,
      " larger": 2650,
      " markets": 2651,
      " 17th": 2652,
      " literary": 2653,
      " textil": 2654,
      " New": 2655,
      "rent": 2656,
      " groups": 2657,
      " Marat": 2658,
      " Rajput": 2659,
      " Rajputs": 2660,
      " Sikhs": 2661,
      "oration": 2662,
      " Ex": 2663,
      " commerce": 2664,
      " imper": 2665,
      " imperial": 2666,
      "ority": 2667,
      " late": 2668,
      " 18th": 2669,
      "ilitated": 2670,
      " aut": 2671,
      " affa": 2672,
      " affair": 2673,
      " affairs": 2674,
      " presence": 2675,
      " coastal": 2676,
      "osts": 2677,
      " resources": 2678,
      " advanced": 2679,
      " attract": 2680,
      " company": 2681,
      "idel": 2682,
      " access": 2683,
      " manu": 2684,
      " manuf": 2685,
      " manufact": 2686,
      " mater": 2687,
      " material": 2688,
      " materials": 2689,
      " ons": 2690,
      " onset": 2691,
      " severely": 2692,
      "iled": 2693,
      " effect": 2694,
      " appoin": 2695,
      "eneral": 2696,
      " ess": 2697,
      " essent": 2698,
      " essential": 2699,
      " dem": 2700,
      " railways": 2701,
      "duction": 2702,
      " Dis": 2703,
      "vas": 2704,
      "vasive": 2705,
      "sty": 2706,
      "style": 2707,
      " reforms": 2708,
      " prin": 2709,
      " princes": 2710,
      " rebellion": 2711,
      " unitary": 2712,
      " limited": 2713,
      " safeguard": 2714,
      " against": 2715,
      " hal": 2716,
      " half": 2717,
      " 19th": 2718,
      " farm": 2719,
      " farmers": 2720,
      " depend": 2721,
      " dependent": 2722,
      "espite": 2723,
      " industrial": 2724,
      " generated": 2725,
      "ropp": 2726,
      " food": 2727,
      " consumption": 2728,
      " relief": 2729,
      "ressive": 2730,
      " stri": 2731,
      "dent": 2732,
      " self": 2733,
      "ma": 2734,
      " 1930s": 2735,
      " victories": 2736,
      "ip": 2737,
      " II": 2738,
      " push": 2739,
      " advent": 2740,
      " liberalisation": 2741,
      " transform": 2742,
      " transformed": 2743,
      " persist": 2744,
      " vi": 2745,
      " viol": 2746,
      " violence": 2747,
      " Na": 2748,
      " separat": 2749,
      " Jamm": 2750,
      " Jammu": 2751,
      " Nort": 2752,
      " Northeast": 2753,
      " territor": 2754,
      " territorial": 2755,
      " accoun": 2756,
      " bul": 2757,
      " bulk": 2758,
      "ying": 2759,
      "onic": 2760,
      " geolog": 2761,
      " super": 2762,
      " supercontinent": 2763,
      " Gond": 2764,
      " Gondwan": 2765,
      " Gondwana": 2766,
      "east": 2767,
      " spreading": 2768,
      " obstruc": 2769,
      " she": 2770,
      " layer": 2771,
      "ets": 2772,
      "head": 2773,
      " stif": 2774,
      " stiff": 2775,
      " Tib": 2776,
      " Tibet": 2777,
      "ick": 2778,
      " rap": 2779,
      " rapidly": 2780,
      " sedi": 2781,
      " sediment": 2782,
      "stitut": 2783,
      "stitutes": 2784,
      "Gang": 2785,
      "Gangetic": 2786,
      " original": 2787,
      " abo": 2788,
      " above": 2789,
      " extend": 2790,
      " extends": 2791,
      "erly": 2792,
      " To": 2793,
      " lies": 2794,
      " survives": 2795,
      " ranges": 2796,
      " chains": 2797,
      " Gujarat": 2798,
      " Jhar": 2799,
      " Jharkh": 2800,
      " Jharkhand": 2801,
      " Eastern": 2802,
      "uted": 2803,
      " fash": 2804,
      " latitud": 2805,
      " subst": 2806,
      " substant": 2807,
      " substantially": 2808,
      " Brahmap": 2809,
      " Brahmaput": 2810,
      " Brahmaputra": 2811,
      " Kos": 2812,
      " Kosi": 2813,
      " extreme": 2814,
      " extremely": 2815,
      " gradi": 2816,
      " gradient": 2817,
      " flo": 2818,
      " flood": 2819,
      " prevent": 2820,
      " Nar": 2821,
      " coastline": 2822,
      " meas": 2823,
      "51": 2824,
      " leng": 2825,
      " length": 2826,
      "94": 2827,
      " Laksh": 2828,
      " Lakshad": 2829,
      " Lakshadwe": 2830,
      " Lakshadweep": 2831,
      " 43": 2832,
      " shores": 2833,
      " marsh": 2834,
      " marshy": 2835,
      "arb": 2836,
      " shared": 2837,
      "ls": 2838,
      " vol": 2839,
      " volcan": 2840,
      " strongly": 2841,
      " monso": 2842,
      " winds": 2843,
      " simil": 2844,
      " similar": 2845,
      " role": 2846,
      " June": 2847,
      " Oct": 2848,
      " Octo": 2849,
      " October": 2850,
      " climatic": 2851,
      " wet": 2852,
      " dry": 2853,
      "atures": 2854,
      " °": 2855,
      " proj": 2856,
      " present": 2857,
      " countri": 2858,
      " countries": 2859,
      "ological": 2860,
      " habitat": 2861,
      " rept": 2862,
      " reptil": 2863,
      " amp": 2864,
      " amphi": 2865,
      " fish": 2866,
      " plant": 2867,
      "aps": 2868,
      " 34": 2869,
      " endemism": 2870,
      " dense": 2871,
      " decid": 2872,
      " deciduous": 2873,
      " thor": 2874,
      " thorn": 2875,
      "ible": 2876,
      "string": 2877,
      " medic": 2878,
      "iant": 2879,
      "osa": 2880,
      "ought": 2881,
      " desc": 2882,
      "ision": 2883,
      " Eurasia": 2884,
      " Still": 2885,
      "ographic": 2886,
      " pass": 2887,
      " contra": 2888,
      "key": 2889,
      " threatened": 2890,
      "edd": 2891,
      "iger": 2892,
      "ulture": 2893,
      " extinct": 2894,
      " open": 2895,
      "lands": 2896,
      "zed": 2897,
      " black": 2898,
      " blackb": 2899,
      " blackbuc": 2900,
      " blackbuck": 2901,
      " cheet": 2902,
      " cheetah": 2903,
      " respon": 2904,
      " response": 2905,
      " Fore": 2906,
      " 1980": 2907,
      " amend": 2908,
      " amendments": 2909,
      "osp": 2910,
      "osphere": 2911,
      "erves": 2912,
      " parties": 2913,
      "gener": 2914,
      " Party": 2915,
      " centre": 2916,
      " Jaw": 2917,
      " Jawa": 2918,
      " Jawahar": 2919,
      " Jawaharl": 2920,
      " Jawaharlal": 2921,
      " remained": 2922,
      " comf": 2923,
      " comfort": 2924,
      " comfortable": 2925,
      " died": 2926,
      " 1964": 2927,
      " Bah": 2928,
      " Shastri": 2929,
      " soon": 2930,
      " 1967": 2931,
      " 1971": 2932,
      " declared": 2933,
      "ending": 2934,
      " liber": 2935,
      " Emerg": 2936,
      " Emergency": 2937,
      " voted": 2938,
      " lasted": 2939,
      " returned": 2940,
      " assass": 2941,
      " assassin": 2942,
      " assassinated": 2943,
      " 1984": 2944,
      " suc": 2945,
      " Rajiv": 2946,
      " alliance": 2947,
      " Chand": 2948,
      " Lankan": 2949,
      " organisation": 2950,
      "king": 2951,
      " intervention": 2952,
      "year": 2953,
      " followed": 2954,
      " 1998": 2955,
      " Bihar": 2956,
      " Vaj": 2957,
      " Vajpay": 2958,
      " Vajpayee": 2959,
      " short": 2960,
      " due": 2961,
      " El": 2962,
      " 1999": 2963,
      " Democratic": 2964,
      " Alliance": 2965,
      "Congress": 2966,
      "te": 2967,
      " NDA": 2968,
      " defeated": 2969,
      " President": 2970,
      " UPA": 2971,
      " 2009": 2972,
      " Modi": 2973,
      " abs": 2974,
      "ser": 2975,
      " uncom": 2976,
      " uncommon": 2977,
      " 1949": 2978,
      " Government": 2979,
      " frame": 2980,
      " framework": 2981,
      " exerc": 2982,
      " reser": 2983,
      " legislature": 2984,
      " hous": 2985,
      " houses": 2986,
      " Sab": 2987,
      " Sabha": 2988,
      " deleg": 2989,
      " delegates": 2990,
      " represent": 2991,
      "atives": 2992,
      " defin": 2993,
      "ayat": 2994,
      " committ": 2995,
      "ees": 2996,
      "Ar": 2997,
      "Art": 2998,
      "Artic": 2999,
      " Common": 3000,
      " Commonwe": 3001,
      " Commonwealth": 3002,
      " president": 3003,
      " seats": 3004,
      " house": 3005,
      "cil": 3006,
      " port": 3007,
      " decis": 3008,
      "mented": 3009,
      " compr": 3010,
      " comprising": 3011,
      " supreme": 3012,
      " jur": 3013,
      " juris": 3014,
      " jurisdic": 3015,
      " jurisdiction": 3016,
      " involving": 3017,
      " down": 3018,
      "vene": 3019,
      " any": 3020,
      " action": 3021,
      " Ter": 3022,
      "organ": 3023,
      " ling": 3024,
      " city": 3025,
      " played": 3026,
      "Al": 3027,
      " cor": 3028,
      " relations": 3029,
      "urs": 3030,
      " wars": 3031,
      " close": 3032,
      " So": 3033,
      " Sovi": 3034,
      " Soviet": 3035,
      " 1960s": 3036,
      " arms": 3037,
      " produ": 3038,
      " produce": 3039,
      " additional": 3040,
      "Prol": 3041,
      "Prolif": 3042,
      "Proliferation": 3043,
      " discrimin": 3044,
      "atory": 3045,
      " doc": 3046,
      "tr": 3047,
      " civilian": 3048,
      " agree": 3049,
      " rece": 3050,
      " International": 3051,
      " Agen": 3052,
      " Agency": 3053,
      " rest": 3054,
      " ten": 3055,
      " economies": 3056,
      " domestic": 3057,
      "PP": 3058,
      " annual": 3059,
      " historically": 3060,
      "idesp": 3061,
      "idespread": 3062,
      "side": 3063,
      " emphas": 3064,
      "lows": 3065,
      " Or": 3066,
      " Organ": 3067,
      " Organiz": 3068,
      " Organization": 3069,
      " lab": 3070,
      " 2017": 3071,
      " service": 3072,
      "100": 3073,
      " highe": 3074,
      " highest": 3075,
      " contributed": 3076,
      " 1985": 3077,
      " 2021": 3078,
      " nin": 3079,
      " ninth": 3080,
      " exporter": 3081,
      " pet": 3082,
      " 42": 3083,
      " calend": 3084,
      " several": 3085,
      " 2007": 3086,
      " Some": 3087,
      "80": 3088,
      "30": 3089,
      "fast": 3090,
      " includes": 3091,
      "500": 3092,
      " producer": 3093,
      " top": 3094,
      " biot": 3095,
      " biotech": 3096,
      " ₹": 3097,
      "Indian": 3098,
      " elect": 3099,
      "rical": 3100,
      " gig": 3101,
      " gigaw": 3102,
      " gigawat": 3103,
      " gigawatts": 3104,
      " renewable": 3105,
      " green": 3106,
      " greenh": 3107,
      " greenhouse": 3108,
      " emiss": 3109,
      " emissions": 3110,
      " Inc": 3111,
      " Increasing": 3112,
      "21": 3113,
      " brough": 3114,
      " brought": 3115,
      " decreasing": 3116,
      " live": 3117,
      " births": 3118,
      " whe": 3119,
      " whereas": 3120,
      " 41": 3121,
      " sex": 3122,
      " rati": 3123,
      " according": 3124,
      " females": 3125,
      " males": 3126,
      " fo": 3127,
      " foetic": 3128,
      " foeticide": 3129,
      " 63": 3130,
      " stud": 3131,
      " study": 3132,
      " do": 3133,
      " dy": 3134,
      " 27": 3135,
      " 53": 3136,
      " Mum": 3137,
      " Mumb": 3138,
      " Mumbai": 3139,
      " bre": 3140,
      " break": 3141,
      "down": 3142,
      " speakers": 3143,
      " sole": 3144,
      "fficial": 3145,
      " international": 3146,
      " numeral": 3147,
      " numerals": 3148,
      " artic": 3149,
      " Ur": 3150,
      " Urdu": 3151,
      " scheduled": 3152,
      "riya": 3153,
      " Punjabi": 3154,
      " Sant": 3155,
      " Hind": 3156,
      " Hindus": 3157,
      " Muslims": 3158,
      "aith": 3159,
      " expression": 3160,
      "hip": 3161,
      "everal": 3162,
      " Sarn": 3163,
      " Ni": 3164,
      " percent": 3165,
      " percentage": 3166,
      " poin": 3167,
      " points": 3168,
      " Keral": 3169,
      " Kerala": 3170,
      " colleg": 3171,
      " colleges": 3172,
      " affir": 3173,
      " affirm": 3174,
      "den": 3175,
      " tub": 3176,
      " tuberc": 3177,
      " tubercul": 3178,
      " tuberculos": 3179,
      " tuberculosis": 3180,
      " dise": 3181,
      " diseas": 3182,
      " disease": 3183,
      "ath": 3184,
      " breath": 3185,
      " breathing": 3186,
      " WHO": 3187,
      "ival": 3188,
      " bot": 3189,
      " bott": 3190,
      " bottom": 3191,
      " therefore": 3192,
      "castes": 3193,
      "ogam": 3194,
      "ogamy": 3195,
      " marry": 3196,
      "ched": 3197,
      " formally": 3198,
      " related": 3199,
      " parents": 3200,
      " divorce": 3201,
      " less": 3202,
      " married": 3203,
      " usually": 3204,
      " carved": 3205,
      " seal": 3206,
      " excav": 3207,
      " excavated": 3208,
      " best": 3209,
      " thereafter": 3210,
      " prob": 3211,
      " probably": 3212,
      " distinct": 3213,
      " figure": 3214,
      " give": 3215,
      " Shiv": 3216,
      " Shiva": 3217,
      " either": 3218,
      " cut": 3219,
      " Aj": 3220,
      " Ajanta": 3221,
      " generally": 3222,
      " artistic": 3223,
      " saw": 3224,
      " dominance": 3225,
      " Cav": 3226,
      " Caves": 3227,
      " bron": 3228,
      " bronz": 3229,
      " Nat": 3230,
      " paintings": 3231,
      " ple": 3232,
      " inno": 3233,
      " innov": 3234,
      " everyday": 3235,
      "lit": 3236,
      " Ve": 3237,
      " Vedic": 3238,
      "yth": 3239,
      " orally": 3240,
      " manuscript": 3241,
      " mathematicians": 3242,
      "rigon": 3243,
      "rigonomet": 3244,
      " cosine": 3245,
      " series": 3246,
      " Hindustani": 3247,
      " Carn": 3248,
      " Carnatic": 3249,
      "ga": 3250,
      " fil": 3251,
      " cin": 3252,
      "ayb": 3253,
      "ayback": 3254,
      "adem": 3255,
      "ademi": 3256,
      "anc": 3257,
      "uk": 3258,
      " promin": 3259,
      "asi": 3260,
      " Chh": 3261,
      " Chhau": 3262,
      " Yaksh": 3263,
      " Yakshag": 3264,
      " Yakshagan": 3265,
      " Yakshagana": 3266,
      "tu": 3267,
      " fest": 3268,
      "angra": 3269,
      " 20th": 3270,
      "centur": 3271,
      "century": 3272,
      "ables": 3273,
      "cover": 3274,
      " cloth": 3275,
      " shoulder": 3276,
      "body": 3277,
      " garment": 3278,
      " 1": 3279,
      " shalw": 3280,
      " tun": 3281,
      " kur": 3282,
      " kurta": 3283,
      "ypically": 3284,
      " nar": 3285,
      " narrow": 3286,
      " pants": 3287,
      " occas": 3288,
      " occasions": 3289,
      " sports": 3290,
      " jac": 3291,
      " jacket": 3292,
      " jackets": 3293,
      " cere": 3294,
      " cereal": 3295,
      " savour": 3296,
      " savoury": 3297,
      " steam": 3298,
      " steamed": 3299,
      " bread": 3300,
      "ake": 3301,
      " garlic": 3302,
      " cuis": 3303,
      " feature": 3304,
      " techni": 3305,
      " techniqu": 3306,
      " partially": 3307,
      " tand": 3308,
      " tando": 3309,
      " tandoor": 3310,
      " kh": 3311,
      " kho": 3312,
      " Ches": 3313,
      " Chess": 3314,
      " Champ": 3315,
      " Cup": 3316,
      " Cups": 3317,
      "Government": 3318,
      " web": 3319,
      " offic": 3320,
      " officially": 3321,
      " sevent": 3322,
      " seventh": 3323,
      " Bound": 3324,
      " Bounded": 3325,
      " southeast": 3326,
      " shares": 3327,
      " Nepal": 3328,
      " Bhut": 3329,
      " Bhutan": 3330,
      " Lanka": 3331,
      " Maldiv": 3332,
      " Maldives": 3333,
      " maritime": 3334,
      " border": 3335,
      "Mo": 3336,
      "Modern": 3337,
      " arri": 3338,
      " arrived": 3339,
      " predominant": 3340,
      " predominantly": 3341,
      " Settled": 3342,
      " evolving": 3343,
      " daw": 3344,
      " dawnings": 3345,
      "existing": 3346,
      " proc": 3347,
      " proclaiming": 3348,
      " orders": 3349,
      " unl": 3350,
      " unlin": 3351,
      " unlinked": 3352,
      " heredity": 3353,
      " consolidations": 3354,
      " Emp": 3355,
      " Empires": 3356,
      " flourish": 3357,
      " flourishing": 3358,
      " writing": 3359,
      " declined": 3360,
      " organised": 3361,
      " scripts": 3362,
      " 1st": 3363,
      " Jud": 3364,
      " Judaism": 3365,
      " 2nd": 3366,
      " intermitt": 3367,
      " intermittently": 3368,
      " cosm": 3369,
      " cosmop": 3370,
      " cosmopol": 3371,
      " cosmopolit": 3372,
      " cosmopolitan": 3373,
      " networks": 3374,
      "last": 3375,
      "lasting": 3376,
      " composite": 3377,
      " reject": 3378,
      " rejecting": 3379,
      " institutional": 3380,
      " institutionalised": 3381,
      " ushered": 3382,
      " architectural": 3383,
      " legacy": 3384,
      " Gra": 3385,
      " Gradu": 3386,
      " Gradually": 3387,
      " consolidated": 3388,
      " Crow": 3389,
      " Crown": 3390,
      " promised": 3391,
      " granted": 3392,
      " slowly": 3393,
      " technological": 3394,
      " ideas": 3395,
      " root": 3396,
      " movements": 3397,
      " Noted": 3398,
      " resist": 3399,
      " resistance": 3400,
      " 1920": 3401,
      " partitioned": 3402,
      " dominions": 3403,
      " unp": 3404,
      " unpre": 3405,
      " unpreced": 3406,
      " unprecedent": 3407,
      " unprecedented": 3408,
      " accomp": 3409,
      " accompan": 3410,
      " accompanied": 3411,
      " governed": 3412,
      " plural": 3413,
      " pluralistic": 3414,
      " multil": 3415,
      " multiling": 3416,
      " multilingual": 3417,
      "ethnic": 3418,
      "601": 3419,
      "weap": 3420,
      "weapon": 3421,
      " ran": 3422,
      " ranks": 3423,
      " expen": 3424,
      " expendi": 3425,
      " expenditure": 3426,
      " neighbours": 3427,
      "20th": 3428,
      " socio": 3429,
      " chall": 3430,
      " challeng": 3431,
      " challenges": 3432,
      " faces": 3433,
      " mal": 3434,
      " maln": 3435,
      " malnut": 3436,
      " malnutrit": 3437,
      " malnutrition": 3438,
      " rising": 3439,
      " vie": 3440,
      " view": 3441,
      " viewed": 3442,
      " tol": 3443,
      " toler": 3444,
      " tolerance": 3445,
      " habitats": 3446,
      "According": 3447,
      " Ox": 3448,
      " Oxf": 3449,
      " Oxford": 3450,
      " Dic": 3451,
      " Diction": 3452,
      " Dictionary": 3453,
      " proper": 3454,
      " noun": 3455,
      " derives": 3456,
      " Latin": 3457,
      " reference": 3458,
      " loosely": 3459,
      "def": 3460,
      "defined": 3461,
      " stret": 3462,
      " stretch": 3463,
      " stretching": 3464,
      " Further": 3465,
      " ety": 3466,
      " etymon": 3467,
      " etymons": 3468,
      " Hell": 3469,
      " Hellen": 3470,
      " Hellenistic": 3471,
      "Ἰνδί": 3472,
      "Ἰνδία": 3473,
      " Indos": 3474,
      "Ἰνδό": 3475,
      "Ἰνδός": 3476,
      " Ri": 3477,
      " River": 3478,
      " Achaemenian": 3479,
      " province": 3480,
      " Achaemenid": 3481,
      " Sindh": 3482,
      " Sindhu": 3483,
      "river": 3484,
      " specif": 3485,
      " specifically": 3486,
      " extension": 3487,
      "settled": 3488,
      " Greeks": 3489,
      " referred": 3490,
      " Indoi": 3491,
      "Bhā": 3492,
      "Bhārat": 3493,
      " pron": 3494,
      " pronoun": 3495,
      " pronounced": 3496,
      "ˈb": 3497,
      "ˈbʱ": 3498,
      "ˈbʱaː": 3499,
      "ˈbʱaːɾ": 3500,
      "ˈbʱaːɾə": 3501,
      "ˈbʱaːɾət": 3502,
      " ment": 3503,
      " mention": 3504,
      " mentioned": 3505,
      " epic": 3506,
      " po": 3507,
      " poet": 3508,
      " poetry": 3509,
      " variations": 3510,
      " ren": 3511,
      " render": 3512,
      " rendering": 3513,
      " Bharatav": 3514,
      " Bharatavar": 3515,
      " Bharatavarsha": 3516,
      "19th": 3517,
      " native": 3518,
      "Hin": 3519,
      "Hindust": 3520,
      "Hindustan": 3521,
      "ɦɪ": 3522,
      "ɦɪnd": 3523,
      "ɦɪndʊ": 3524,
      "ɦɪndʊˈ": 3525,
      "ɦɪndʊˈst": 3526,
      "ɦɪndʊˈstaː": 3527,
      "ɦɪndʊˈstaːn": 3528,
      " Hindustan": 3529,
      " varied": 3530,
      " referring": 3531,
      " encom": 3532,
      " encompassing": 3533,
      "present": 3534,
      " entire": 3535,
      " entirety": 3536,
      "Based": 3537,
      " coalesc": 3538,
      " coalescence": 3539,
      " Mit": 3540,
      " Mitoch": 3541,
      " Mitochond": 3542,
      " Mitochondrial": 3543,
      " DN": 3544,
      " DNA": 3545,
      " Chrom": 3546,
      " Chromos": 3547,
      " Chromosome": 3548,
      " line": 3549,
      " lineages": 3550,
      " anatomically": 3551,
      " Hom": 3552,
      " Homo": 3553,
      " sap": 3554,
      " sapi": 3555,
      " sapiens": 3556,
      " 80": 3557,
      " likeli": 3558,
      " likelih": 3559,
      " likelihood": 3560,
      " initially": 3561,
      " varying": 3562,
      " genetic": 3563,
      " foss": 3564,
      " fossils": 3565,
      " date": 3566,
      " Evidence": 3567,
      " neol": 3568,
      " neolith": 3569,
      " neolithic": 3570,
      " Mehr": 3571,
      " Mehrg": 3572,
      " Mehrgar": 3573,
      " Mehrgarh": 3574,
      " Baloch": 3575,
      " Balochistan": 3576,
      " dates": 3577,
      " 7000": 3578,
      " Domestic": 3579,
      " Domestication": 3580,
      " grain": 3581,
      "produc": 3582,
      "producing": 3583,
      " plants": 3584,
      " barle": 3585,
      " barley": 3586,
      " humped": 3587,
      " zeb": 3588,
      " zebu": 3589,
      " here": 3590,
      " evolved": 3591,
      " flourished": 3592,
      " 2500": 3593,
      "1900": 3594,
      " Centred": 3595,
      " Har": 3596,
      " Harapp": 3597,
      " Harappa": 3598,
      " Dh": 3599,
      " Dhol": 3600,
      " Dholavira": 3601,
      " Gan": 3602,
      " Ganw": 3603,
      " Ganweri": 3604,
      " Ganweriw": 3605,
      " Ganweriwala": 3606,
      " Rakh": 3607,
      " Rakhig": 3608,
      " Rakhigar": 3609,
      " Rakhigarhi": 3610,
      " weigh": 3611,
      " weights": 3612,
      " steat": 3613,
      " steatite": 3614,
      " plan": 3615,
      " planning": 3616,
      " cra": 3617,
      " craf": 3618,
      " crafts": 3619,
      " potter": 3620,
      " pottery": 3621,
      " terrac": 3622,
      " terracot": 3623,
      " terracotta": 3624,
      " statu": 3625,
      " statuett": 3626,
      " statuettes": 3627,
      " Networks": 3628,
      " agro": 3629,
      "pastoral": 3630,
      "Between": 3631,
      " 1500": 3632,
      " evidence": 3633,
      " Rig": 3634,
      " Ved": 3635,
      " Veda": 3636,
      " scripture": 3637,
      "wh": 3638,
      "which": 3639,
      "speak": 3640,
      "speaking": 3641,
      " tribes": 3642,
      " migr": 3643,
      " migrating": 3644,
      " Afgh": 3645,
      " Afghan": 3646,
      " Afghanistan": 3647,
      " sett": 3648,
      " settling": 3649,
      " swat": 3650,
      " swathes": 3651,
      " adj": 3652,
      " adjoin": 3653,
      " adjoining": 3654,
      " defore": 3655,
      " deforested": 3656,
      " fires": 3657,
      " employing": 3658,
      " iron": 3659,
      " implements": 3660,
      " prep": 3661,
      " prepared": 3662,
      " driving": 3663,
      " pree": 3664,
      " preex": 3665,
      " preexisting": 3666,
      " ens": 3667,
      " ensl": 3668,
      " enslaving": 3669,
      "divide": 3670,
      " spok": 3671,
      " spoken": 3672,
      " refined": 3673,
      " gram": 3674,
      " gramm": 3675,
      " grammatical": 3676,
      " emer": 3677,
      " emerge": 3678,
      "1st": 3679,
      " codified": 3680,
      " Aṣ": 3681,
      " Aṣṭ": 3682,
      " Aṣṭā": 3683,
      " Aṣṭādh": 3684,
      " Aṣṭādhy": 3685,
      " Aṣṭādhyā": 3686,
      " Aṣṭādhyāy": 3687,
      " Aṣṭādhyāyī": 3688,
      "Eight": 3689,
      " chapter": 3690,
      " chapters": 3691,
      " Pā": 3692,
      " Pāṇ": 3693,
      " Pāṇin": 3694,
      " Pāṇini": 3695,
      " ep": 3696,
      " epics": 3697,
      " Mahā": 3698,
      " Mahāb": 3699,
      " Mahābh": 3700,
      " Mahābhā": 3701,
      " Mahābhār": 3702,
      " Mahābhārata": 3703,
      " Rā": 3704,
      " Rām": 3705,
      " Rāmā": 3706,
      " Rāmāya": 3707,
      " Rāmāyaṇ": 3708,
      " Rāmāyaṇa": 3709,
      " oral": 3710,
      " story": 3711,
      " storytell": 3712,
      " storytelling": 3713,
      " registers": 3714,
      " Epic": 3715,
      " rough": 3716,
      " roughly": 3717,
      " contem": 3718,
      " contempor": 3719,
      " contemporary": 3720,
      " taken": 3721,
      " differenti": 3722,
      " differentiation": 3723,
      "millennium": 3724,
      " teach": 3725,
      " teachings": 3726,
      " Mahavira": 3727,
      " Both": 3728,
      " stressed": 3729,
      " abj": 3730,
      " abjured": 3731,
      " sac": 3732,
      " sacri": 3733,
      " sacrif": 3734,
      " sacrifices": 3735,
      " Brahmanism": 3736,
      " fixed": 3737,
      " ethically": 3738,
      " socially": 3739,
      " mor": 3740,
      " morally": 3741,
      " Chronic": 3742,
      " Chronicling": 3743,
      " backd": 3744,
      " backdrop": 3745,
      " emergence": 3746,
      " geographically": 3747,
      " extensive": 3748,
      " foun": 3749,
      " founder": 3750,
      " grands": 3751,
      " grandson": 3752,
      "ca": 3753,
      " 268": 3754,
      "232": 3755,
      " controlled": 3756,
      " arter": 3757,
      " arteries": 3758,
      " except": 3759,
      " deep": 3760,
      " inscription": 3761,
      " inscriptions": 3762,
      " declining": 3763,
      " mainst": 3764,
      " mainstream": 3765,
      " speaking": 3766,
      " conqu": 3767,
      " conquest": 3768,
      " Kaling": 3769,
      " Kalinga": 3770,
      " forces": 3771,
      " imm": 3772,
      " immense": 3773,
      " adopting": 3774,
      " dhamm": 3775,
      " dhamma": 3776,
      " commission": 3777,
      " commissioning": 3778,
      " numerous": 3779,
      " pill": 3780,
      " pillar": 3781,
      " throughout": 3782,
      " promot": 3783,
      " promote": 3784,
      " conduct": 3785,
      " forb": 3786,
      " forbade": 3787,
      " killing": 3788,
      " destr": 3789,
      " destruc": 3790,
      " destruction": 3791,
      " seen": 3792,
      " env": 3793,
      " envir": 3794,
      " environ": 3795,
      " environmental": 3796,
      " embodi": 3797,
      " embodiment": 3798,
      " ethos": 3799,
      " 4th": 3800,
      " 5th": 3801,
      " taxation": 3802,
      " Under": 3803,
      " Gupt": 3804,
      " Guptas": 3805,
      " renewed": 3806,
      " manage": 3807,
      " management": 3808,
      " rit": 3809,
      " ritual": 3810,
      " itsel": 3811,
      " itself": 3812,
      " renewal": 3813,
      " reflected": 3814,
      " sci": 3815,
      " science": 3816,
      " Sang": 3817,
      " Sangam": 3818,
      " reve": 3819,
      " reveals": 3820,
      " peninsul": 3821,
      " peninsula": 3822,
      " Cher": 3823,
      " Cheras": 3824,
      " Cholas": 3825,
      " respectively": 3826,
      " Pandy": 3827,
      " Pandyas": 3828,
      " farther": 3829,
      " Vaig": 3830,
      " Vaigai": 3831,
      " sixth": 3832,
      " grown": 3833,
      " favou": 3834,
      " favoured": 3835,
      " conserv": 3836,
      " conservative": 3837,
      " transac": 3838,
      " transactional": 3839,
      " transactionalism": 3840,
      " repl": 3841,
      " replaced": 3842,
      " kingly": 3843,
      " plac": 3844,
      " places": 3845,
      " Bhak": 3846,
      " Bhakti": 3847,
      " traded": 3848,
      " Rom": 3849,
      " Roman": 3850,
      " 600": 3851,
      " defined": 3852,
      " No": 3853,
      " ruler": 3854,
      " create": 3855,
      " consist": 3856,
      " consistently": 3857,
      " bey": 3858,
      " beyond": 3859,
      " core": 3860,
      " pastoral": 3861,
      " peoples": 3862,
      " accomm": 3863,
      " accommod": 3864,
      " accommodated": 3865,
      "tra": 3866,
      "traditional": 3867,
      " consequent": 3868,
      " consequently": 3869,
      " differen": 3870,
      " differences": 3871,
      " devotional": 3872,
      " imit": 3873,
      " imitated": 3874,
      " resur": 3875,
      " resurg": 3876,
      " resurgence": 3877,
      " royalty": 3878,
      " big": 3879,
      " patronised": 3880,
      " capital": 3881,
      " sizes": 3882,
      " everyw": 3883,
      " everywhere": 3884,
      " underw": 3885,
      " underwent": 3886,
      " 8th": 3887,
      " 9th": 3888,
      " effec": 3889,
      " effects": 3890,
      " fel": 3891,
      " felt": 3892,
      " La": 3893,
      " Laos": 3894,
      " Br": 3895,
      " Brune": 3896,
      " Brunei": 3897,
      " Cam": 3898,
      " Camb": 3899,
      " Cambodi": 3900,
      " Cambodia": 3901,
      " Viet": 3902,
      " Vietnam": 3903,
      " Ph": 3904,
      " Phili": 3905,
      " Philipp": 3906,
      " Philippines": 3907,
      " Malays": 3908,
      " Malaysia": 3909,
      " schol": 3910,
      " scholars": 3911,
      " transmission": 3912,
      " initiative": 3913,
      " soj": 3914,
      " sojour": 3915,
      " sojourning": 3916,
      " sem": 3917,
      " semin": 3918,
      " seminaries": 3919,
      " transl": 3920,
      " translating": 3921,
      " nom": 3922,
      " noma": 3923,
      " nomadic": 3924,
      " clans": 3925,
      " using": 3926,
      " swif": 3927,
      " swift": 3928,
      "hor": 3929,
      "horse": 3930,
      " caval": 3931,
      " cavalry": 3932,
      " raising": 3933,
      " ethnic": 3934,
      " ethnicity": 3935,
      " establish": 3936,
      " establishment": 3937,
      " 120": 3938,
      " 1206": 3939,
      " forays": 3940,
      " disrup": 3941,
      " disruptive": 3942,
      "Muslim": 3943,
      " subject": 3944,
      " customs": 3945,
      " repuls": 3946,
      " repulsing": 3947,
      " Mong": 3948,
      " Mongol": 3949,
      " raiders": 3950,
      " saved": 3951,
      " devastation": 3952,
      " visited": 3953,
      " scene": 3954,
      " fle": 3955,
      " flee": 3956,
      " fleeing": 3957,
      " sol": 3958,
      " soldi": 3959,
      " soldiers": 3960,
      " lear": 3961,
      " learn": 3962,
      " learned": 3963,
      " my": 3964,
      " myst": 3965,
      " mystics": 3966,
      " traders": 3967,
      " thereb": 3968,
      " thereby": 3969,
      " syn": 3970,
      " sync": 3971,
      " syncret": 3972,
      " syncretic": 3973,
      "Isl": 3974,
      "Islam": 3975,
      "Islamic": 3976,
      " raiding": 3977,
      " weak": 3978,
      " weakening": 3979,
      " pav": 3980,
      " paved": 3981,
      " Emb": 3982,
      " Embrac": 3983,
      " Embracing": 3984,
      " Sha": 3985,
      " Shaiv": 3986,
      " Shaivite": 3987,
      " upon": 3988,
      " afterwards": 3989,
      " 16th": 3990,
      " fell": 3991,
      " superi": 3992,
      " superior": 3993,
      " mob": 3994,
      " mobility": 3995,
      " fire": 3996,
      " firep": 3997,
      " firepower": 3998,
      " generation": 3999,
      " stamp": 4000,
      " societ": 4001,
      " societies": 4002,
      " Instead": 4003,
      " balanced": 4004,
      " pac": 4005,
      " pacified": 4006,
      " administr": 4007,
      " administrative": 4008,
      " inclus": 4009,
      " inclusive": 4010,
      " systematic": 4011,
      " centralised": 4012,
      " unif": 4013,
      " uniform": 4014,
      " Esc": 4015,
      " Esche": 4016,
      " Eschewing": 4017,
      " ident": 4018,
      " identity": 4019,
      " Mughals": 4020,
      "flung": 4021,
      " real": 4022,
      " realms": 4023,
      " loyalty": 4024,
      "exp": 4025,
      "expressed": 4026,
      " Persianised": 4027,
      "to": 4028,
      "divine": 4029,
      " deriving": 4030,
      " mandating": 4031,
      " paid": 4032,
      "regul": 4033,
      "regulated": 4034,
      " silver": 4035,
      " peas": 4036,
      " peasants": 4037,
      " maintained": 4038,
      " patronage": 4039,
      " textiles": 4040,
      " Newly": 4041,
      " cohe": 4042,
      " coherent": 4043,
      " Marathas": 4044,
      " governing": 4045,
      " amb": 4046,
      " ambitions": 4047,
      " collab": 4048,
      " collaboration": 4049,
      " adversity": 4050,
      " recognition": 4051,
      " experi": 4052,
      " experience": 4053,
      " Exp": 4054,
      " Expand": 4055,
      " Expanding": 4056,
      " incre": 4057,
      " incremental": 4058,
      " frag": 4059,
      " fragment": 4060,
      " fragmentation": 4061,
      " au": 4062,
      " auth": 4063,
      " authority": 4064,
      " facilitated": 4065,
      " decent": 4066,
      " decentral": 4067,
      " decentralisation": 4068,
      " enabl": 4069,
      " enabling": 4070,
      " provin": 4071,
      " provincial": 4072,
      " localised": 4073,
      " autonom": 4074,
      " autonomy": 4075,
      " consolidate": 4076,
      " lines": 4077,
      " enterp": 4078,
      " enterpr": 4079,
      " enterprise": 4080,
      " blurred": 4081,
      " charter": 4082,
      " chartered": 4083,
      "not": 4084,
      "notably": 4085,
      "soli": 4086,
      "solidified": 4087,
      " outp": 4088,
      " outposts": 4089,
      " seas": 4090,
      " training": 4091,
      " attractive": 4092,
      " elite": 4093,
      " factors": 4094,
      " allowing": 4095,
      " gain": 4096,
      " 176": 4097,
      " 1765": 4098,
      " sidel": 4099,
      " sideline": 4100,
      " ric": 4101,
      " riches": 4102,
      " size": 4103,
      " army": 4104,
      " enab": 4105,
      " enabled": 4106,
      " annex": 4107,
      " annexe": 4108,
      " subdu": 4109,
      " subdue": 4110,
      " 1820": 4111,
      " 1820s": 4112,
      " exporting": 4113,
      " manufactured": 4114,
      " instead": 4115,
      " supply": 4116,
      " supplying": 4117,
      " raw": 4118,
      " curta": 4119,
      " curtailed": 4120,
      " effectively": 4121,
      " consci": 4122,
      " consciously": 4123,
      " aren": 4124,
      " arenas": 4125,
      " appoint": 4126,
      " appointment": 4127,
      " 184": 4128,
      " 1848": 4129,
      " Lord": 4130,
      " Dalh": 4131,
      " Dalhous": 4132,
      " Dalhousie": 4133,
      " Govern": 4134,
      " Governor": 4135,
      " General": 4136,
      " stage": 4137,
      " consolidation": 4138,
      " demar": 4139,
      " demarc": 4140,
      " demarcation": 4141,
      " surve": 4142,
      " surveill": 4143,
      " surveillance": 4144,
      " Tech": 4145,
      " Technolog": 4146,
      " Technological": 4147,
      "among": 4148,
      " canals": 4149,
      " teleg": 4150,
      " telegraph": 4151,
      "were": 4152,
      " introduction": 4153,
      " Disa": 4154,
      " Disaff": 4155,
      " Disaffection": 4156,
      " Rebellion": 4157,
      " 1857": 4158,
      " Fed": 4159,
      " resent": 4160,
      " resentments": 4161,
      " perce": 4162,
      " perception": 4163,
      " perceptions": 4164,
      " invasive": 4165,
      " har": 4166,
      " harsh": 4167,
      " summary": 4168,
      " treat": 4169,
      " treatment": 4170,
      " wealth": 4171,
      " wealthy": 4172,
      " landown": 4173,
      " landowners": 4174,
      " rocked": 4175,
      " shook": 4176,
      " foundations": 4177,
      " suppressed": 4178,
      " disb": 4179,
      " disband": 4180,
      " disbanded": 4181,
      " administer": 4182,
      " Proc": 4183,
      " Proclaiming": 4184,
      " gradual": 4185,
      " landed": 4186,
      " gent": 4187,
      " gentry": 4188,
      " feud": 4189,
      " feudal": 4190,
      " fut": 4191,
      " future": 4192,
      " unre": 4193,
      " unrest": 4194,
      " founding": 4195,
      " 188": 4196,
      " 1885": 4197,
      " rush": 4198,
      " commercialisation": 4199,
      " setb": 4200,
      " setbac": 4201,
      " setbacks": 4202,
      " whim": 4203,
      " whims": 4204,
      " faraw": 4205,
      " faraway": 4206,
      " increase": 4207,
      " famines": 4208,
      " despite": 4209,
      " ris": 4210,
      " risks": 4211,
      " infra": 4212,
      " infrastruc": 4213,
      " infrastructure": 4214,
      " borne": 4215,
      " taxpay": 4216,
      " taxpayers": 4217,
      " little": 4218,
      " employment": 4219,
      " cropp": 4220,
      " cropping": 4221,
      " newly": 4222,
      " canalled": 4223,
      " production": 4224,
      " internal": 4225,
      " railway": 4226,
      " network": 4227,
      " critical": 4228,
      " famine": 4229,
      " notably": 4230,
      " moving": 4231,
      " hel": 4232,
      " helped": 4233,
      " nas": 4234,
      " nascent": 4235,
      "owned": 4236,
      " Gandhian": 4237,
      " repressive": 4238,
      " legislation": 4239,
      " strident": 4240,
      " call": 4241,
      " calls": 4242,
      "rul": 4243,
      "rule": 4244,
      " Mahat": 4245,
      " Mahatma": 4246,
      " legislative": 4247,
      " bes": 4248,
      " beset": 4249,
      " crises": 4250,
      " particip": 4251,
      " participation": 4252,
      " fin": 4253,
      " final": 4254,
      " ups": 4255,
      " upsur": 4256,
      " upsurge": 4257,
      " nationalism": 4258,
      " capped": 4259,
      " tempered": 4260,
      " Econom": 4261,
      " Economic": 4262,
      " ham": 4263,
      " hamstr": 4264,
      " hamstrung": 4265,
      " persistent": 4266,
      "rel": 4267,
      "related": 4268,
      " Mao": 4269,
      " Maoist": 4270,
      "insp": 4271,
      "inspire": 4272,
      "inspired": 4273,
      " Nax": 4274,
      " Naxal": 4275,
      " Naxalite": 4276,
      " insur": 4277,
      " insurgen": 4278,
      " insurgenc": 4279,
      " insurgencies": 4280,
      " separatism": 4281,
      " accounts": 4282,
      " lying": 4283,
      " atop": 4284,
      " tect": 4285,
      " tectonic": 4286,
      "Aust": 4287,
      "Austral": 4288,
      "Australian": 4289,
      " defining": 4290,
      " geologic": 4291,
      " processes": 4292,
      "eastw": 4293,
      "eastward": 4294,
      " drift": 4295,
      " seaf": 4296,
      " seaflo": 4297,
      " seafloor": 4298,
      " Teth": 4299,
      " Tethyan": 4300,
      " ocean": 4301,
      " oceanic": 4302,
      " nort": 4303,
      " northeast": 4304,
      " subduc": 4305,
      " subduct": 4306,
      " Eurasian": 4307,
      " continent": 4308,
      " continental": 4309,
      " obstructed": 4310,
      " sheared": 4311,
      " hor": 4312,
      " horiz": 4313,
      " horizon": 4314,
      " horizont": 4315,
      " horizontally": 4316,
      " mant": 4317,
      " mantle": 4318,
      " sl": 4319,
      " slid": 4320,
      " piled": 4321,
      " sheets": 4322,
      " napp": 4323,
      " nappes": 4324,
      " ahead": 4325,
      " subduction": 4326,
      " zone": 4327,
      " oro": 4328,
      " orogen": 4329,
      " orogeny": 4330,
      " moun": 4331,
      " mount": 4332,
      " mountain": 4333,
      " stiffer": 4334,
      " causing": 4335,
      " crustal": 4336,
      " thick": 4337,
      " thickening": 4338,
      " Tibetan": 4339,
      " Im": 4340,
      " Immediately": 4341,
      " emerging": 4342,
      " cres": 4343,
      " crescent": 4344,
      "shap": 4345,
      "shaped": 4346,
      " trough": 4347,
      " fill": 4348,
      " filled": 4349,
      "bor": 4350,
      "borne": 4351,
      " constitutes": 4352,
      " appearance": 4353,
      " Araval": 4354,
      " Aravalli": 4355,
      " Rid": 4356,
      " Ridge": 4357,
      " southwesterly": 4358,
      " direction": 4359,
      " chec": 4360,
      " checked": 4361,
      " Arav": 4362,
      " Aravall": 4363,
      " Aravallis": 4364,
      " geologically": 4365,
      " stable": 4366,
      " Sat": 4367,
      " Satpur": 4368,
      " Satpura": 4369,
      " Vin": 4370,
      " Vindh": 4371,
      " Vindhya": 4372,
      " paralle": 4373,
      " parallel": 4374,
      " run": 4375,
      "rich": 4376,
      " Chot": 4377,
      " Chota": 4378,
      " Nag": 4379,
      " Nagpur": 4380,
      " landm": 4381,
      " landmass": 4382,
      " flan": 4383,
      " flanked": 4384,
      " plateau": 4385,
      " formations": 4386,
      " Constituted": 4387,
      " fashion": 4388,
      " equat": 4389,
      " equator": 4390,
      " 6°": 4391,
      " 44": 4392,
      " 44′": 4393,
      " 35": 4394,
      " 35°": 4395,
      " 30′": 4396,
      " latitude": 4397,
      " 68": 4398,
      " 68°": 4399,
      " 7′": 4400,
      " 97": 4401,
      " 97°": 4402,
      " 25′": 4403,
      " longitud": 4404,
      " longitude": 4405,
      "Major": 4406,
      "orig": 4407,
      "origin": 4408,
      " Imp": 4409,
      " Import": 4410,
      " Important": 4411,
      " tribut": 4412,
      " tributaries": 4413,
      " Yam": 4414,
      " Yamun": 4415,
      " Yamuna": 4416,
      "term": 4417,
      " silt": 4418,
      " depos": 4419,
      " deposition": 4420,
      " leads": 4421,
      " severe": 4422,
      " floods": 4423,
      " course": 4424,
      " Major": 4425,
      " steep": 4426,
      " steeper": 4427,
      " gradients": 4428,
      " wat": 4429,
      " waters": 4430,
      " flooding": 4431,
      " God": 4432,
      " Godav": 4433,
      " Godavari": 4434,
      " Mahan": 4435,
      " Mahanadi": 4436,
      " Kr": 4437,
      " Krish": 4438,
      " Krishn": 4439,
      " Krishna": 4440,
      " Narm": 4441,
      " Narmada": 4442,
      " Tap": 4443,
      " Tapti": 4444,
      " measures": 4445,
      "517": 4446,
      "700": 4447,
      " distance": 4448,
      "423": 4449,
      "094": 4450,
      " island": 4451,
      " naval": 4452,
      " hyd": 4453,
      " hydro": 4454,
      " hydrog": 4455,
      " hydrograph": 4456,
      " hydrographic": 4457,
      " charts": 4458,
      " mainland": 4459,
      " sandy": 4460,
      " beac": 4461,
      " beaches": 4462,
      " rocky": 4463,
      " cli": 4464,
      " cliff": 4465,
      " cliffs": 4466,
      " 46": 4467,
      " mud": 4468,
      " mudfl": 4469,
      " mudflats": 4470,
      " Co": 4471,
      " Coast": 4472,
      " Coastal": 4473,
      " Rann": 4474,
      " Kut": 4475,
      " Kutch": 4476,
      " allu": 4477,
      " alluv": 4478,
      " alluvial": 4479,
      " Sund": 4480,
      " Sundarb": 4481,
      " Sundarbans": 4482,
      " del": 4483,
      " delta": 4484,
      " archip": 4485,
      " archipel": 4486,
      " archipelag": 4487,
      " archipelagos": 4488,
      " coral": 4489,
      " atol": 4490,
      " atolls": 4491,
      " volcanic": 4492,
      " chain": 4493,
      " climate": 4494,
      " drive": 4495,
      " economically": 4496,
      " cultur": 4497,
      " culturally": 4498,
      " piv": 4499,
      " pivot": 4500,
      " pivotal": 4501,
      " winter": 4502,
      " monsoons": 4503,
      " cold": 4504,
      " kat": 4505,
      " katab": 4506,
      " katabatic": 4507,
      " blowing": 4508,
      " ke": 4509,
      " keep": 4510,
      " keeping": 4511,
      " warmer": 4512,
      " locations": 4513,
      " latitudes": 4514,
      " plays": 4515,
      " attracting": 4516,
      " moisture": 4517,
      "lad": 4518,
      "laden": 4519,
      " monsoon": 4520,
      " provide": 4521,
      " rain": 4522,
      " rainf": 4523,
      " rainfall": 4524,
      "Four": 4525,
      " groupings": 4526,
      " predominate": 4527,
      " subt": 4528,
      " subtropical": 4529,
      " humid": 4530,
      " mont": 4531,
      " montan": 4532,
      " montane": 4533,
      " Temper": 4534,
      " Temperatures": 4535,
      " risen": 4536,
      " °C": 4537,
      " °F": 4538,
      " 190": 4539,
      " 1901": 4540,
      " Clim": 4541,
      " Climate": 4542,
      " change": 4543,
      " retreat": 4544,
      " gl": 4545,
      " glac": 4546,
      " glaci": 4547,
      " glaciers": 4548,
      " adverse": 4549,
      " adversely": 4550,
      " affected": 4551,
      " current": 4552,
      " projections": 4553,
      " severity": 4554,
      " drough": 4555,
      " droughts": 4556,
      " will": 4557,
      " markedly": 4558,
      " host": 4559,
      " biological": 4560,
      " bird": 4561,
      " reptile": 4562,
      " amphibian": 4563,
      " Ful": 4564,
      " Fully": 4565,
      " overl": 4566,
      " overlaps": 4567,
      " display": 4568,
      " occupy": 4569,
      " Moder": 4570,
      " Moderately": 4571,
      " canop": 4572,
      " canopy": 4573,
      " dens": 4574,
      " density": 4575,
      " occupies": 4576,
      "39": 4577,
      " predominates": 4578,
      " temper": 4579,
      " temperate": 4580,
      " conif": 4581,
      " coniferous": 4582,
      " sal": 4583,
      " teak": 4584,
      " natural": 4585,
      " zones": 4586,
      " irrig": 4587,
      " irrigation": 4588,
      " visible": 4589,
      " tre": 4590,
      " trees": 4591,
      " astring": 4592,
      " astringent": 4593,
      " Az": 4594,
      " Azadi": 4595,
      " Azadira": 4596,
      " Azadirach": 4597,
      " Azadirachta": 4598,
      " indic": 4599,
      " indica": 4600,
      " neem": 4601,
      " herbal": 4602,
      " medicine": 4603,
      " lu": 4604,
      " lux": 4605,
      " luxur": 4606,
      " luxuriant": 4607,
      " Fic": 4608,
      " Ficus": 4609,
      " religiosa": 4610,
      " peep": 4611,
      " peepul": 4612,
      " displayed": 4613,
      " Pali": 4614,
      " canon": 4615,
      " sought": 4616,
      " enl": 4617,
      " enligh": 4618,
      " enlighten": 4619,
      " enlightenment": 4620,
      "Many": 4621,
      " descend": 4622,
      " descended": 4623,
      " separ": 4624,
      " separated": 4625,
      " 100": 4626,
      " collision": 4627,
      " mass": 4628,
      " volcanism": 4629,
      " extinction": 4630,
      " entered": 4631,
      " zo": 4632,
      " zoo": 4633,
      " zooge": 4634,
      " zoogeographic": 4635,
      " passes": 4636,
      " flank": 4637,
      " flanking": 4638,
      " lowered": 4639,
      " stands": 4640,
      " contrast": 4641,
      " contrasting": 4642,
      " 45": 4643,
      " reptiles": 4644,
      " amphib": 4645,
      " amphibians": 4646,
      " endemics": 4647,
      " vul": 4648,
      " vuln": 4649,
      " vulner": 4650,
      " vulnerable": 4651,
      " hood": 4652,
      " hooded": 4653,
      " leaf": 4654,
      " monkey": 4655,
      " Bedd": 4656,
      " Beddome": 4657,
      " toad": 4658,
      " 172": 4659,
      " IU": 4660,
      " IUC": 4661,
      " IUCN": 4662,
      "design": 4663,
      "designated": 4664,
      " tiger": 4665,
      " dol": 4666,
      " dolph": 4667,
      " dolphin": 4668,
      " Crit": 4669,
      " Critically": 4670,
      " ghar": 4671,
      " gharial": 4672,
      " croc": 4673,
      " crocodi": 4674,
      " crocodili": 4675,
      " crocodilian": 4676,
      " bust": 4677,
      " bustard": 4678,
      " white": 4679,
      "rum": 4680,
      "rumped": 4681,
      " vulture": 4682,
      " nearly": 4683,
      " inge": 4684,
      " ingested": 4685,
      " carr": 4686,
      " carrion": 4687,
      " dic": 4688,
      " diclo": 4689,
      " diclof": 4690,
      " diclofen": 4691,
      " diclofenac": 4692,
      "treated": 4693,
      " Bef": 4694,
      " Before": 4695,
      " ming": 4696,
      " mingled": 4697,
      " interv": 4698,
      " intervals": 4699,
      " grass": 4700,
      " grasslands": 4701,
      " grazed": 4702,
      " herds": 4703,
      " prey": 4704,
      " preyed": 4705,
      " Asi": 4706,
      " Asiatic": 4707,
      " pervasive": 4708,
      " ec": 4709,
      " ecolog": 4710,
      " ecologically": 4711,
      " devastating": 4712,
      " encro": 4713,
      " encroach": 4714,
      " encroachment": 4715,
      " critically": 4716,
      " parks": 4717,
      " expanded": 4718,
      " 1972": 4719,
      " Wild": 4720,
      " Wildlife": 4721,
      " Prot": 4722,
      " Protection": 4723,
      " Project": 4724,
      " Tiger": 4725,
      " wil": 4726,
      " wildern": 4727,
      " wilderness": 4728,
      " Forest": 4729,
      " Cons": 4730,
      " Conserv": 4731,
      " Conservation": 4732,
      " 1988": 4733,
      " hosts": 4734,
      " hund": 4735,
      " hundred": 4736,
      " san": 4737,
      " sanct": 4738,
      " sanctu": 4739,
      " sanctuaries": 4740,
      " eighte": 4741,
      " eighteen": 4742,
      " biosphere": 4743,
      " reserves": 4744,
      " Network": 4745,
      " Biosphere": 4746,
      " Res": 4747,
      " Reserves": 4748,
      " eigh": 4749,
      " eighty": 4750,
      "nine": 4751,
      " wetlands": 4752,
      " registered": 4753,
      " Rams": 4754,
      " Ramsar": 4755,
      " Convention": 4756,
      "par": 4757,
      "party": 4758,
      " recognised": 4759,
      "generally": 4760,
      " Bharati": 4761,
      " Bharatiya": 4762,
      "BJP": 4763,
      " considered": 4764,
      " ideological": 4765,
      "righ": 4766,
      "right": 4767,
      " Au": 4768,
      " Aug": 4769,
      " August": 4770,
      " Domin": 4771,
      " Dominion": 4772,
      " caret": 4773,
      " caretak": 4774,
      " caretaker": 4775,
      " 1957": 4776,
      " May": 4777,
      " Lal": 4778,
      " Bahad": 4779,
      " Bahadur": 4780,
      " unan": 4781,
      " unanim": 4782,
      " unanimously": 4783,
      " thus": 4784,
      "Pakistan": 4785,
      " 1966": 4786,
      " signing": 4787,
      " Tash": 4788,
      " Tashk": 4789,
      " Tashkent": 4790,
      " Pe": 4791,
      " Peace": 4792,
      " Decl": 4793,
      " Declar": 4794,
      " Declaration": 4795,
      " chose": 4796,
      " landsl": 4797,
      " landslide": 4798,
      " defeat": 4799,
      " Liber": 4800,
      " Liberation": 4801,
      " 1975": 4802,
      " emergency": 4803,
      " sus": 4804,
      " susp": 4805,
      " suspending": 4806,
      " libert": 4807,
      " liberties": 4808,
      " discon": 4809,
      " discont": 4810,
      " discontent": 4811,
      " 1977": 4812,
      " opposed": 4813,
      " Mor": 4814,
      " Morar": 4815,
      " Morarj": 4816,
      " Morarji": 4817,
      " Desai": 4818,
      " Char": 4819,
      " Charan": 4820,
      " oper": 4821,
      " operation": 4822,
      " militants": 4823,
      " occupying": 4824,
      " Gold": 4825,
      " Golden": 4826,
      " Am": 4827,
      " Amrit": 4828,
      " Amrits": 4829,
      " Amritsar": 4830,
      " bodyguard": 4831,
      " succe": 4832,
      " succeed": 4833,
      " succeeded": 4834,
      " victory": 4835,
      " 1989": 4836,
      " Lef": 4837,
      " Left": 4838,
      " Chandra": 4839,
      " Shek": 4840,
      " Shekhar": 4841,
      " round": 4842,
      " polling": 4843,
      " separatist": 4844,
      " see": 4845,
      " seeking": 4846,
      " aven": 4847,
      " avenge": 4848,
      " Naras": 4849,
      " Narasim": 4850,
      " Narasimha": 4851,
      " Ra": 4852,
      " Rao": 4853,
      " minority": 4854,
      " ful": 4855,
      " full": 4856,
      " 1996": 4857,
      " winning": 4858,
      " relied": 4859,
      " Deve": 4860,
      " Gow": 4861,
      " Gowd": 4862,
      " Gowda": 4863,
      " Gujral": 4864,
      " serving": 4865,
      " Atal": 4866,
      " Bihari": 4867,
      "lived": 4868,
      " lack": 4869,
      " mandate": 4870,
      " Elections": 4871,
      "NDA": 4872,
      " complete": 4873,
      " 2004": 4874,
      " Prog": 4875,
      " Progressive": 4876,
      "UPA": 4877,
      " Man": 4878,
      " Manm": 4879,
      " Manmo": 4880,
      " Manmohan": 4881,
      " prop": 4882,
      " propos": 4883,
      " proposed": 4884,
      " Son": 4885,
      " Sonia": 4886,
      "elected": 4887,
      " 2014": 4888,
      " Naren": 4889,
      " Narendra": 4890,
      " absol": 4891,
      " absolute": 4892,
      " 2019": 4893,
      " los": 4894,
      " losing": 4895,
      " partn": 4896,
      " partners": 4897,
      " lon": 4898,
      " longe": 4899,
      " longest": 4900,
      "serving": 4901,
      " backsl": 4902,
      " backslid": 4903,
      " backsliding": 4904,
      "Dem": 4905,
      " Democracy": 4906,
      " Report": 4907,
      " draf": 4908,
      " drafted": 4909,
      " spe": 4910,
      " speed": 4911,
      " absence": 4912,
      " irreg": 4913,
      " irregular": 4914,
      " irregularities": 4915,
      " 1946": 4916,
      " Long": 4917,
      " passages": 4918,
      " describ": 4919,
      " describes": 4920,
      " struc": 4921,
      " structure": 4922,
      " conspic": 4923,
      " conspicuous": 4924,
      " exclus": 4925,
      " exclusively": 4926,
      " exercised": 4927,
      " defence": 4928,
      " ports": 4929,
      " reserve": 4930,
      " pow": 4931,
      " powers": 4932,
      " taking": 4933,
      " Lok": 4934,
      " Rajya": 4935,
      " members": 4936,
      " nominated": 4937,
      " representatives": 4938,
      " definition": 4939,
      " directives": 4940,
      " go": 4941,
      " goals": 4942,
      " ende": 4943,
      " endeav": 4944,
      " endeavor": 4945,
      " Ire": 4946,
      " Ireland": 4947,
      " recom": 4948,
      " recommend": 4949,
      " recommended": 4950,
      " panch": 4951,
      " panchayat": 4952,
      " committees": 4953,
      " Untouchability": 4954,
      " il": 4955,
      " illeg": 4956,
      " illegal": 4957,
      "Article": 4958,
      " distinctions": 4959,
      " derec": 4960,
      " derecog": 4961,
      " derecogni": 4962,
      " derecognized": 4963,
      "Articles": 4964,
      " promul": 4965,
      " promulg": 4966,
      " promulgation": 4967,
      " exercises": 4968,
      " App": 4969,
      " Appoin": 4970,
      " Appointed": 4971,
      " vice": 4972,
      "president": 4973,
      " Coun": 4974,
      " Council": 4975,
      " Minist": 4976,
      " Ministers": 4977,
      "with": 4978,
      " cab": 4979,
      " cabin": 4980,
      " cabinet": 4981,
      " committee": 4982,
      "headed": 4983,
      " Any": 4984,
      " hold": 4985,
      " holding": 4986,
      " portf": 4987,
      " portfoli": 4988,
      " portfolio": 4989,
      " must": 4990,
      " subord": 4991,
      " subordin": 4992,
      " subordinate": 4993,
      " council": 4994,
      " respons": 4995,
      " responsible": 4996,
      " servants": 4997,
      " act": 4998,
      " perm": 4999,
      " perman": 5000,
      " permanent": 5001,
      " executives": 5002,
      " decisions": 5003,
      " implemented": 5004,
      "tier": 5005,
      " ju": 5006,
      " judic": 5007,
      " judici": 5008,
      " judiciary": 5009,
      " headed": 5010,
      " Chi": 5011,
      " Chief": 5012,
      " Just": 5013,
      " Justice": 5014,
      " trial": 5015,
      " cas": 5016,
      " cases": 5017,
      " appell": 5018,
      " appellate": 5019,
      " strike": 5020,
      " contravene": 5021,
      " inval": 5022,
      " invalid": 5023,
      " invalidate": 5024,
      " deem": 5025,
      " deems": 5026,
      " uncon": 5027,
      " unconstitution": 5028,
      " unconstitutional": 5029,
      " Pud": 5030,
      " Puduc": 5031,
      " Puducher": 5032,
      " Puducherry": 5033,
      " Cap": 5034,
      " Capit": 5035,
      " Capital": 5036,
      " Territ": 5037,
      " Territory": 5038,
      " legislatures": 5039,
      " Westmin": 5040,
      " Westminst": 5041,
      " Westminster": 5042,
      " appointed": 5043,
      " administrat": 5044,
      " administrators": 5045,
      " 1956": 5046,
      " Reorgan": 5047,
      " Reorganisation": 5048,
      " reorgan": 5049,
      " reorganised": 5050,
      " lingu": 5051,
      " linguistic": 5052,
      " basis": 5053,
      " quar": 5054,
      " quarter": 5055,
      " bodi": 5056,
      " bodies": 5057,
      " distric": 5058,
      " district": 5059,
      " bloc": 5060,
      " block": 5061,
      " Nations": 5062,
      " decol": 5063,
      " decolon": 5064,
      " decolonisation": 5065,
      "Align": 5066,
      "Aligned": 5067,
      " Movement": 5068,
      " cordi": 5069,
      " cordial": 5070,
      " decisively": 5071,
      " fend": 5072,
      " Chinese": 5073,
      " excurs": 5074,
      " excursions": 5075,
      " Sikk": 5076,
      " Sikkim": 5077,
      " une": 5078,
      " uneas": 5079,
      " uneasy": 5080,
      " Three": 5081,
      " fought": 5082,
      " disputed": 5083,
      " territory": 5084,
      " purs": 5085,
      " pursue": 5086,
      " ties": 5087,
      " suppli": 5088,
      " supplier": 5089,
      "Ch": 5090,
      "Chin": 5091,
      "China": 5092,
      " 59": 5093,
      " 596": 5094,
      " threats": 5095,
      " intervene": 5096,
      " 1974": 5097,
      " carri": 5098,
      " carried": 5099,
      " underg": 5100,
      " underground": 5101,
      " testing": 5102,
      " neither": 5103,
      " Compre": 5104,
      " Comprehen": 5105,
      " Comprehens": 5106,
      " Comprehensive": 5107,
      "Test": 5108,
      "Ban": 5109,
      " considering": 5110,
      " flaw": 5111,
      " flawed": 5112,
      " discriminatory": 5113,
      " maintains": 5114,
      " developing": 5115,
      " tri": 5116,
      " triad": 5117,
      " capab": 5118,
      " capability": 5119,
      "Min": 5120,
      "Minim": 5121,
      "Minimum": 5122,
      " Credi": 5123,
      " Credible": 5124,
      " Deter": 5125,
      " Deterren": 5126,
      " Deterrence": 5127,
      " doctr": 5128,
      " doctrine": 5129,
      "Since": 5130,
      " Cold": 5131,
      " strate": 5132,
      " strateg": 5133,
      " strategic": 5134,
      " cooperation": 5135,
      " agreement": 5136,
      " poss": 5137,
      " possess": 5138,
      " possessed": 5139,
      " received": 5140,
      " wai": 5141,
      " waivers": 5142,
      " Atom": 5143,
      " Atomic": 5144,
      " Energy": 5145,
      " Sup": 5146,
      " Supp": 5147,
      " Suppli": 5148,
      " Suppliers": 5149,
      " Gr": 5150,
      " Group": 5151,
      " earlier": 5152,
      " restric": 5153,
      " restriction": 5154,
      " restrictions": 5155,
      " agreements": 5156,
      " Rus": 5157,
      " Russ": 5158,
      " Russia": 5159,
      " Fr": 5160,
      " France": 5161,
      " King": 5162,
      " Kingd": 5163,
      " Kingdom": 5164,
      " Can": 5165,
      " Canada": 5166,
      " gross": 5167,
      " output": 5168,
      "GDP": 5169,
      " placed": 5170,
      " Meas": 5171,
      " Measured": 5172,
      " pur": 5173,
      " purch": 5174,
      " purchas": 5175,
      " purchasing": 5176,
      " parity": 5177,
      "PPP": 5178,
      " fastest": 5179,
      " exceed": 5180,
      " exceeding": 5181,
      " 1990": 5182,
      " Dem": 5183,
      " Demograph": 5184,
      " Demographics": 5185,
      " stra": 5186,
      " strain": 5187,
      " maintain": 5188,
      " maintaining": 5189,
      " regionally": 5190,
      " measured": 5191,
      " glob": 5192,
      " globally": 5193,
      "income": 5194,
      " dai": 5195,
      " daily": 5196,
      "Un": 5197,
      "Until": 5198,
      " protection": 5199,
      " protectionist": 5200,
      " socialist": 5201,
      " economics": 5202,
      " Widespread": 5203,
      " regul": 5204,
      " regulation": 5205,
      " walled": 5206,
      " outside": 5207,
      " ac": 5208,
      " acute": 5209,
      " balance": 5210,
      " pay": 5211,
      " payments": 5212,
      " cris": 5213,
      " crisis": 5214,
      " forced": 5215,
      " liberalise": 5216,
      " moved": 5217,
      " towards": 5218,
      " free": 5219,
      "market": 5220,
      " emphasising": 5221,
      " inve": 5222,
      " invest": 5223,
      " investment": 5224,
      " inflows": 5225,
      " Tra": 5226,
      " Trade": 5227,
      " 1995": 5228,
      " 52": 5229,
      " 522": 5230,
      "million": 5231,
      "worker": 5232,
      " labour": 5233,
      " force": 5234,
      " remitt": 5235,
      " remittances": 5236,
      " 32": 5237,
      " working": 5238,
      " 2006": 5239,
      " stood": 5240,
      " 24": 5241,
      " impor": 5242,
      " importer": 5243,
      " sixte": 5244,
      " sixteent": 5245,
      " sixteenth": 5246,
      " Between": 5247,
      " contrib": 5248,
      " contribution": 5249,
      " petroc": 5250,
      " petrochem": 5251,
      " petrochemical": 5252,
      " eng": 5253,
      " engine": 5254,
      " engineering": 5255,
      " textile": 5256,
      " calendar": 5257,
      "Aver": 5258,
      "Averag": 5259,
      "Averaging": 5260,
      " dou": 5261,
      " doub": 5262,
      " doubled": 5263,
      " hour": 5264,
      " hourly": 5265,
      " wage": 5266,
      " 21st": 5267,
      " 431": 5268,
      " projected": 5269,
      " 580": 5270,
      " 2030": 5271,
      " consumer": 5272,
      " steadi": 5273,
      " steadily": 5274,
      "308": 5275,
      "380": 5276,
      "73": 5277,
      "731": 5278,
      " expected": 5279,
      "264": 5280,
      " autom": 5281,
      " automot": 5282,
      " automotive": 5283,
      "fastest": 5284,
      " sales": 5285,
      "2010": 5286,
      "2009": 5287,
      " veh": 5288,
      " vehic": 5289,
      " vehicle": 5290,
      " surpassing": 5291,
      " Jap": 5292,
      " Japan": 5293,
      " IT": 5294,
      " prof": 5295,
      " profess": 5296,
      " profession": 5297,
      " professionals": 5298,
      " equall": 5299,
      " equalling": 5300,
      " merchan": 5301,
      " merchandi": 5302,
      " merchandise": 5303,
      " manufacturing": 5304,
      " units": 5305,
      " generic": 5306,
      " medicines": 5307,
      " supplies": 5308,
      " vac": 5309,
      " vacc": 5310,
      " vaccines": 5311,
      " demand": 5312,
      " contributing": 5313,
      "44": 5314,
      " destin": 5315,
      " destinations": 5316,
      " 2012": 5317,
      "2013": 5318,
      " ₹20": 5319,
      " ₹204": 5320,
      " rup": 5321,
      " rupees": 5322,
      " ₹23": 5323,
      " ₹235": 5324,
      "US": 5325,
      " capac": 5326,
      " capacity": 5327,
      " generate": 5328,
      " electrical": 5329,
      " usage": 5330,
      " emit": 5331,
      " emits": 5332,
      " equates": 5333,
      " tons": 5334,
      " carb": 5335,
      " carbon": 5336,
      " dio": 5337,
      " diox": 5338,
      " dioxide": 5339,
      " person": 5340,
      " electric": 5341,
      " electricity": 5342,
      " clean": 5343,
      " liqu": 5344,
      " liquef": 5345,
      " liquefied": 5346,
      " petrol": 5347,
      " petrole": 5348,
      " petroleum": 5349,
      " prior": 5350,
      " priorities": 5351,
      "With": 5352,
      "428": 5353,
      "62": 5354,
      "627": 5355,
      "66": 5356,
      "663": 5357,
      "210": 5358,
      "193": 5359,
      "422": 5360,
      " reported": 5361,
      " provision": 5362,
      " provisional": 5363,
      " report": 5364,
      " median": 5365,
      " 2020": 5366,
      " Medic": 5367,
      " Medical": 5368,
      " advances": 5369,
      " product": 5370,
      " productivity": 5371,
      "Green": 5372,
      " Revol": 5373,
      " Revolution": 5374,
      " decen": 5375,
      " decenn": 5376,
      " decennial": 5377,
      " compared": 5378,
      "54": 5379,
      " previ": 5380,
      " previous": 5381,
      "1991": 5382,
      "2001": 5383,
      " post": 5384,
      "col": 5385,
      "colonial": 5386,
      " counted": 5387,
      " expect": 5388,
      " expectan": 5389,
      " expectancy": 5390,
      " 49": 5391,
      " 1970": 5392,
      "197": 5393,
      "1975": 5394,
      " 72": 5395,
      "five": 5396,
      " mort": 5397,
      " mortality": 5398,
      " 113": 5399,
      " 1994": 5400,
      " ratio": 5401,
      " 94": 5402,
      " 940": 5403,
      " Fem": 5404,
      " Female": 5405,
      " infant": 5406,
      " infantic": 5407,
      " infanticide": 5408,
      " lately": 5409,
      " female": 5410,
      " lop": 5411,
      "sided": 5412,
      " ratios": 5413,
      " miss": 5414,
      " missing": 5415,
      " quad": 5416,
      " quadrup": 5417,
      " quadrupled": 5418,
      "2014": 5419,
      " faster": 5420,
      " same": 5421,
      " gir": 5422,
      " girls": 5423,
      " unwan": 5424,
      " unwanted": 5425,
      " receive": 5426,
      " adequ": 5427,
      " adequate": 5428,
      " care": 5429,
      " Despite": 5430,
      " ban": 5431,
      "select": 5432,
      "selective": 5433,
      " practice": 5434,
      " stop": 5435,
      " stopped": 5436,
      "Mig": 5437,
      "Migration": 5438,
      " dynam": 5439,
      " dynamic": 5440,
      " lived": 5441,
      "81": 5442,
      "16": 5443,
      " slowing": 5444,
      " overall": 5445,
      " shar": 5446,
      " sharp": 5447,
      " decline": 5448,
      "plus": 5449,
      " aggl": 5450,
      " agglom": 5451,
      " agglomer": 5452,
      " agglomerations": 5453,
      " Kol": 5454,
      " Kolk": 5455,
      " Kolkata": 5456,
      " Chen": 5457,
      " Chenn": 5458,
      " Chennai": 5459,
      " Bengalur": 5460,
      " Bengaluru": 5461,
      " Hy": 5462,
      " Hyder": 5463,
      " Hyderabad": 5464,
      " Ahm": 5465,
      " Ahmed": 5466,
      " Ahmedabad": 5467,
      " order": 5468,
      "Langu": 5469,
      "Languages": 5470,
      " Census": 5471,
      " gives": 5472,
      " breakdown": 5473,
      "There": 5474,
      " Tai": 5475,
      "Kad": 5476,
      "Kadai": 5477,
      " Andamanese": 5478,
      " minor": 5479,
      " isolates": 5480,
      " Sept": 5481,
      " Septem": 5482,
      " September": 5483,
      " deb": 5484,
      " debate": 5485,
      " opposing": 5486,
      " camp": 5487,
      " camps": 5488,
      " protag": 5489,
      " protagon": 5490,
      " protagonists": 5491,
      " wanted": 5492,
      " Dev": 5493,
      " Devanag": 5494,
      " Devanagari": 5495,
      "national": 5496,
      " pref": 5497,
      " prefer": 5498,
      " preferred": 5499,
      "official": 5500,
      " associate": 5501,
      " lex": 5502,
      " lexic": 5503,
      " lexicon": 5504,
      "iii": 5505,
      "Ara": 5506,
      "Arab": 5507,
      "Arabic": 5508,
      " resol": 5509,
      " resolution": 5510,
      " articles": 5511,
      " 343": 5512,
      "351": 5513,
      " bit": 5514,
      " bitter": 5515,
      " opposition": 5516,
      " where": 5517,
      " continue": 5518,
      "associ": 5519,
      "associate": 5520,
      " indef": 5521,
      " indefin": 5522,
      " indefinite": 5523,
      " indefinitely": 5524,
      " Eigh": 5525,
      " Eighth": 5526,
      " Sc": 5527,
      " Schedul": 5528,
      " Schedule": 5529,
      " recognises": 5530,
      " 22": 5531,
      " obl": 5532,
      " oblig": 5533,
      " obligated": 5534,
      "scheduled": 5535,
      " list": 5536,
      "such": 5537,
      "spec": 5538,
      "specific": 5539,
      "bec": 5540,
      "beca": 5541,
      "becaus": 5542,
      "because": 5543,
      " val": 5544,
      " value": 5545,
      " herit": 5546,
      " heritage": 5547,
      " Assam": 5548,
      " Assamese": 5549,
      " Bengali": 5550,
      " Gujar": 5551,
      " Gujarati": 5552,
      " Kann": 5553,
      " Kannada": 5554,
      " Kashmi": 5555,
      " Kashmiri": 5556,
      " Malay": 5557,
      " Malayal": 5558,
      " Malayalam": 5559,
      " Marathi": 5560,
      " Oriya": 5561,
      " Tel": 5562,
      " Telu": 5563,
      " Telugu": 5564,
      " Sind": 5565,
      " Sindhi": 5566,
      "196": 5567,
      "1967": 5568,
      " Nepali": 5569,
      " Mani": 5570,
      " Manipur": 5571,
      " Manipuri": 5572,
      " Kon": 5573,
      " Konk": 5574,
      " Konkani": 5575,
      "199": 5576,
      "1992": 5577,
      " Maith": 5578,
      " Maithili": 5579,
      " Dog": 5580,
      " Dogri": 5581,
      " Santali": 5582,
      " Bod": 5583,
      " Bodo": 5584,
      "2004": 5585,
      "Rel": 5586,
      "Relig": 5587,
      "Religion": 5588,
      " characterised": 5589,
      " beliefs": 5590,
      " Through": 5591,
      " Throughout": 5592,
      " birthpl": 5593,
      " birthplace": 5594,
      " Jains": 5595,
      " Buddhists": 5596,
      " adher": 5597,
      " adhering": 5598,
      "Pars": 5599,
      "Parsis": 5600,
      " Iran": 5601,
      " Iranis": 5602,
      " Bahá": 5603,
      " Faith": 5604,
      " Pream": 5605,
      " Preamble": 5606,
      " declares": 5607,
      " fre": 5608,
      " freed": 5609,
      " freedom": 5610,
      " liberty": 5611,
      " faith": 5612,
      " wors": 5613,
      " worship": 5614,
      " 79": 5615,
      " follows": 5616,
      " Several": 5617,
      " Don": 5618,
      " Dony": 5619,
      " Donyi": 5620,
      "Pol": 5621,
      "Polo": 5622,
      " San": 5623,
      " Sanam": 5624,
      " Sanamah": 5625,
      " Sanamahism": 5626,
      " Sarnaism": 5627,
      " Niam": 5628,
      " Niamtre": 5629,
      "04": 5630,
      " 65": 5631,
      "46": 5632,
      " 82": 5633,
      "14": 5634,
      " gap": 5635,
      " dropp": 5636,
      " dropped": 5637,
      " improvement": 5638,
      " twice": 5639,
      " 93": 5640,
      " lowest": 5641,
      "82": 5642,
      " 1981": 5643,
      " respective": 5644,
      " 29": 5645,
      " 1921": 5646,
      " 1891": 5647,
      " Latik": 5648,
      " Latika": 5649,
      " Cha": 5650,
      " Chaud": 5651,
      " Chaudh": 5652,
      " Chaudhary": 5653,
      " 191": 5654,
      " 1911": 5655,
      " Stat": 5656,
      " Statist": 5657,
      " Statistically": 5658,
      " priv": 5659,
      " private": 5660,
      " spending": 5661,
      " Pri": 5662,
      " Primary": 5663,
      " taugh": 5664,
      " taught": 5665,
      " 900": 5666,
      " uni": 5667,
      " univers": 5668,
      " universities": 5669,
      " higher": 5670,
      " reserved": 5671,
      " affirmative": 5672,
      " disad": 5673,
      " disadv": 5674,
      " disadvant": 5675,
      " disadvantag": 5676,
      " disadvantaged": 5677,
      " improved": 5678,
      " cited": 5679,
      " contributors": 5680,
      " bears": 5681,
      " dispro": 5682,
      " dispropor": 5683,
      " disproportion": 5684,
      " disproportionately": 5685,
      " bur": 5686,
      " burden": 5687,
      " He": 5688,
      " Health": 5689,
      "WHO": 5690,
      " statistic": 5691,
      " statistics": 5692,
      " estimating": 5693,
      " infections": 5694,
      " accounting": 5695,
      " carry": 5696,
      " infection": 5697,
      " chronic": 5698,
      " obstructive": 5699,
      " pul": 5700,
      " pulmon": 5701,
      " pulmonary": 5702,
      " death": 5703,
      " hear": 5704,
      " heart": 5705,
      " polluted": 5706,
      " 140": 5707,
      " limit": 5708,
      " quality": 5709,
      " reports": 5710,
      " meets": 5711,
      " saf": 5712,
      " safety": 5713,
      " gu": 5714,
      " guidel": 5715,
      " guidelines": 5716,
      " equival": 5717,
      " equivalent": 5718,
      " smok": 5719,
      " smoking": 5720,
      " cig": 5721,
      " cigare": 5722,
      " cigarett": 5723,
      " cigarettes": 5724,
      " day": 5725,
      " killed": 5726,
      "Although": 5727,
      " uniqu": 5728,
      " uniquely": 5729,
      " broadly": 5730,
      " castes": 5731,
      " varnas": 5732,
      " Brahmin": 5733,
      " priest": 5734,
      " priests": 5735,
      " Ksh": 5736,
      " Kshat": 5737,
      " Kshatriya": 5738,
      " Vaish": 5739,
      " Vaishya": 5740,
      " Shud": 5741,
      " Shudra": 5742,
      " Out": 5743,
      " Outside": 5744,
      " lie": 5745,
      " formerly": 5746,
      "outcastes": 5747,
      "untouchab": 5748,
      "untouchables": 5749,
      " Dalit": 5750,
      "description": 5751,
      " pride": 5752,
      "bro": 5753,
      "brok": 5754,
      "broken": 5755,
      "downt": 5756,
      "downtro": 5757,
      "downtrod": 5758,
      "downtrodden": 5759,
      " Each": 5760,
      " divided": 5761,
      " jat": 5762,
      " jatis": 5763,
      " tied": 5764,
      " occupations": 5765,
      " custom": 5766,
      " endogamy": 5767,
      " marrying": 5768,
      " subcast": 5769,
      " subcaste": 5770,
      " label": 5771,
      " occupational": 5772,
      " cho": 5773,
      " choice": 5774,
      " entren": 5775,
      " entrenched": 5776,
      " abol": 5777,
      " abolished": 5778,
      " anti": 5779,
      "discrimin": 5780,
      "discriminatory": 5781,
      " initiatives": 5782,
      "based": 5783,
      " discrimination": 5784,
      " seg": 5785,
      " segreg": 5786,
      " segregation": 5787,
      "Mult": 5788,
      "Multi": 5789,
      "generational": 5790,
      " patr": 5791,
      " patril": 5792,
      " patriline": 5793,
      " patrilineal": 5794,
      " join": 5795,
      " joint": 5796,
      " norm": 5797,
      " arr": 5798,
      " arranged": 5799,
      " eld": 5800,
      " elders": 5801,
      " Mar": 5802,
      " Marri": 5803,
      " Marriage": 5804,
      " thous": 5805,
      " thousand": 5806,
      " reach": 5807,
      " reaching": 5808,
      " legal": 5809,
      " marriage": 5810,
      " marriageable": 5811,
      " moreover": 5812,
      " exogamy": 5813,
      " obser": 5814,
      " observed": 5815,
      " bride": 5816,
      " marries": 5817,
      " visit": 5818,
      " home": 5819,
      " rite": 5820,
      " rak": 5821,
      " raksha": 5822,
      " bandhan": 5823,
      " return": 5824,
      " hom": 5825,
      " homes": 5826,
      " offer": 5827,
      " recour": 5828,
      " recourse": 5829,
      " marital": 5830,
      " stress": 5831,
      " exchanged": 5832,
      " greatly": 5833,
      " Thous": 5834,
      " Thousands": 5835,
      " civilisation": 5836,
      " Pash": 5837,
      " Pashup": 5838,
      " Pashupati": 5839,
      " 192": 5840,
      " 1928": 5841,
      "29": 5842,
      " Virt": 5843,
      " Virtually": 5844,
      " Alm": 5845,
      " Almost": 5846,
      " surviving": 5847,
      " dur": 5848,
      " durable": 5849,
      " coins": 5850,
      " wood": 5851,
      " lost": 5852,
      " Mauryan": 5853,
      "Over": 5854,
      " distinctly": 5855,
      " sculpting": 5856,
      " interest": 5857,
      " articul": 5858,
      " articulating": 5859,
      " prec": 5860,
      " precise": 5861,
      " anatomy": 5862,
      " showing": 5863,
      " smo": 5864,
      " smooth": 5865,
      " smoothly": 5866,
      " flowing": 5867,
      " expressing": 5868,
      " pran": 5869,
      " prana": 5870,
      "breath": 5871,
      "force": 5872,
      " complic": 5873,
      " complicated": 5874,
      " need": 5875,
      " multiple": 5876,
      " heads": 5877,
      " genders": 5878,
      " Ardh": 5879,
      " Ardhan": 5880,
      " Ardhanar": 5881,
      " Ardhanarish": 5882,
      " Ardhanarishv": 5883,
      " Ardhanarishvara": 5884,
      " Parv": 5885,
      " Parvati": 5886,
      "Most": 5887,
      " stup": 5888,
      " stupas": 5889,
      " Sanch": 5890,
      " Sanchi": 5891,
      " Sarnath": 5892,
      " Amar": 5893,
      " Amarav": 5894,
      " Amaravati": 5895,
      " reliefs": 5896,
      " Kar": 5897,
      " Karla": 5898,
      " Ell": 5899,
      " Ellor": 5900,
      " Ellora": 5901,
      " spite": 5902,
      " mix": 5903,
      " mixture": 5904,
      " prev": 5905,
      " prevail": 5906,
      " prevailing": 5907,
      " sculptors": 5908,
      " comm": 5909,
      " commun": 5910,
      " communities": 5911,
      " peak": 5912,
      " 300": 5913,
      " 500": 5914,
      " regard": 5915,
      " regarded": 5916,
      " lingered": 5917,
      " Ele": 5918,
      " Eleph": 5919,
      " Elephanta": 5920,
      " Across": 5921,
      " formul": 5922,
      " formulaic": 5923,
      " 8": 5924,
      " 800": 5925,
      " fine": 5926,
      " finely": 5927,
      " det": 5928,
      " detail": 5929,
      " surround": 5930,
      " surrounds": 5931,
      " statues": 5932,
      " But": 5933,
      " Pallava": 5934,
      " Chola": 5935,
      " dyn": 5936,
      " dynast": 5937,
      " dynasties": 5938,
      " stone": 5939,
      " bronze": 5940,
      " sust": 5941,
      " sustained": 5942,
      " ach": 5943,
      " achie": 5944,
      " achievement": 5945,
      " bronzes": 5946,
      " Natar": 5947,
      " Nataraj": 5948,
      " Nataraja": 5949,
      " ic": 5950,
      " iconic": 5951,
      " symb": 5952,
      " symbol": 5953,
      "An": 5954,
      "Ancient": 5955,
      " survived": 5956,
      " few": 5957,
      " crow": 5958,
      " crowded": 5959,
      " scenes": 5960,
      " Pain": 5961,
      " Painted": 5962,
      " manuscripts": 5963,
      " survive": 5964,
      " onwards": 5965,
      " significantly": 5966,
      "derived": 5967,
      " star": 5968,
      " starting": 5969,
      " mini": 5970,
      " miniature": 5971,
      " emphasis": 5972,
      " portra": 5973,
      " portrait": 5974,
      " portraits": 5975,
      " recording": 5976,
      " prince": 5977,
      " princely": 5978,
      " pleas": 5979,
      " pleasures": 5980,
      " variety": 5981,
      " smaller": 5982,
      " innovative": 5983,
      " Nih": 5984,
      " Nihâ": 5985,
      " Nihâl": 5986,
      " Nains": 5987,
      " Nainsu": 5988,
      " Nainsukh": 5989,
      " supplied": 5990,
      " considerable": 5991,
      " cheap": 5992,
      " Kaligh": 5993,
      " Kalighat": 5994,
      " done": 5995,
      " pap": 5996,
      " paper": 5997,
      " Cal": 5998,
      " Calc": 5999,
      " Calcut": 6000,
      " Calcutta": 6001,
      " Sch": 6002,
      " School": 6003,
      " Art": 6004,
      " reflect": 6005,
      " reflecting": 6006,
      " founded": 6007,
      "Sign": 6008,
      "Significant": 6009,
      " Ś": 6010,
      " Śul": 6011,
      " Śulb": 6012,
      " Śulba": 6013,
      " Sū": 6014,
      " Sūtr": 6015,
      " Sūtras": 6016,
      "liter": 6017,
      "literally": 6018,
      "Aph": 6019,
      "Aphor": 6020,
      "Aphorism": 6021,
      "Aphorisms": 6022,
      " Chord": 6023,
      " Chords": 6024,
      " 700": 6025,
      " ver": 6026,
      " verbal": 6027,
      " Pyth": 6028,
      " Pythag": 6029,
      " Pythagore": 6030,
      " Pythagorean": 6031,
      " theore": 6032,
      " theorem": 6033,
      "although": 6034,
      " likely": 6035,
      " Bab": 6036,
      " Baby": 6037,
      " Babyl": 6038,
      " Babylon": 6039,
      " Babylonians": 6040,
      " 500": 6041,
      " docu": 6042,
      " document": 6043,
      " birch": 6044,
      " bark": 6045,
      " Bakh": 6046,
      " Bakhsh": 6047,
      " Bakhshali": 6048,
      " Ary": 6049,
      " Aryab": 6050,
      " Aryabh": 6051,
      " Aryabhata": 6052,
      " Brahmag": 6053,
      " Brahmagup": 6054,
      " Brahmagupta": 6055,
      " Bhas": 6056,
      " Bhask": 6057,
      " Bhaskara": 6058,
      " Var": 6059,
      " Varā": 6060,
      " Varāh": 6061,
      " Varāham": 6062,
      " Varāhami": 6063,
      " Varāhamihi": 6064,
      " Varāhamihira": 6065,
      " Mad": 6066,
      " Madh": 6067,
      " Madhav": 6068,
      " Madhava": 6069,
      " decimal": 6070,
      " concept": 6071,
      " zer": 6072,
      " zero": 6073,
      " neg": 6074,
      " negative": 6075,
      " arith": 6076,
      " arithm": 6077,
      " arithmetic": 6078,
      " alge": 6079,
      " algeb": 6080,
      " algebra": 6081,
      " Trigonomet": 6082,
      " Trigonometry": 6083,
      " definitions": 6084,
      " sine": 6085,
      " concepts": 6086,
      " landmar": 6087,
      " landmark": 6088,
      " expansions": 6089,
      " trigonomet": 6090,
      " trigonometric": 6091,
      " fun": 6092,
      " functions": 6093,
      "sine": 6094,
      " arc": 6095,
      " tang": 6096,
      " tangent": 6097,
      " 15th": 6098,
      " work": 6099,
      " completed": 6100,
      " invention": 6101,
      " calc": 6102,
      " calcul": 6103,
      " calculus": 6104,
      " Sr": 6105,
      " Srin": 6106,
      " Sriniv": 6107,
      " Srinivas": 6108,
      " Srinivasa": 6109,
      " Ram": 6110,
      " Ramanu": 6111,
      " Ramanuj": 6112,
      " Ramanujan": 6113,
      " theory": 6114,
      " arra": 6115,
      " array": 6116,
      " musical": 6117,
      " musics": 6118,
      " origins": 6119,
      " split": 6120,
      " improv": 6121,
      " improvis": 6122,
      " improvisational": 6123,
      " featuring": 6124,
      " instr": 6125,
      " instru": 6126,
      " instruments": 6127,
      " sit": 6128,
      " sitar": 6129,
      " tabl": 6130,
      " tabla": 6131,
      " foc": 6132,
      " focused": 6133,
      " compositions": 6134,
      " krit": 6135,
      " kriti": 6136,
      " whil": 6137,
      " while": 6138,
      " ele": 6139,
      " elements": 6140,
      " raga": 6141,
      " mel": 6142,
      " melo": 6143,
      " melodic": 6144,
      " tala": 6145,
      " rh": 6146,
      " rhyth": 6147,
      " rhythm": 6148,
      " rhythmic": 6149,
      " meter": 6150,
      " genres": 6151,
      " ja": 6152,
      " jaz": 6153,
      " jazz": 6154,
      " musicians": 6155,
      " counter": 6156,
      " counterc": 6157,
      " counterculture": 6158,
      " film": 6159,
      " cinem": 6160,
      " cinema": 6161,
      " directors": 6162,
      " sung": 6163,
      " playback": 6164,
      " singers": 6165,
      " Modern": 6166,
      " takes": 6167,
      "Dance": 6168,
      " drawn": 6169,
      " heavi": 6170,
      " heavily": 6171,
      " turn": 6172,
      " aro": 6173,
      " arose": 6174,
      " contex": 6175,
      " contexts": 6176,
      " spons": 6177,
      " sponsors": 6178,
      " sponsorship": 6179,
      " promotion": 6180,
      " Whe": 6181,
      " Whether": 6182,
      " deter": 6183,
      " determ": 6184,
      " determined": 6185,
      " Sange": 6186,
      " Sangeet": 6187,
      " Natak": 6188,
      " Ac": 6189,
      " Academi": 6190,
      " perform": 6191,
      " performing": 6192,
      " perh": 6193,
      " perhaps": 6194,
      " meet": 6195,
      " criter": 6196,
      " criteria": 6197,
      " Akademi": 6198,
      "known": 6199,
      " Bharatn": 6200,
      " Bharatnat": 6201,
      " Bharatnaty": 6202,
      " Bharatnatyam": 6203,
      " temple": 6204,
      " devad": 6205,
      " devadas": 6206,
      " devadasis": 6207,
      " Ident": 6208,
      " Identified": 6209,
      "prostitutes": 6210,
      " courtes": 6211,
      " courtesans": 6212,
      " danc": 6213,
      " dancing": 6214,
      " bann": 6215,
      " banned": 6216,
      " Conc": 6217,
      " Concur": 6218,
      " Concurrent": 6219,
      " Concurrently": 6220,
      " reh": 6221,
      " rehab": 6222,
      " rehabilitated": 6223,
      "pure": 6224,
      " Ruk": 6225,
      " Rukmin": 6226,
      " Rukmini": 6227,
      " Devi": 6228,
      " Arund": 6229,
      " Arundale": 6230,
      " prominent": 6231,
      " devd": 6232,
      " devdasi": 6233,
      " attain": 6234,
      " prominence": 6235,
      " Than": 6236,
      " Thanj": 6237,
      " Thanjav": 6238,
      " Thanjavur": 6239,
      " Balas": 6240,
      " Balasar": 6241,
      " Balasaras": 6242,
      " Balasarasw": 6243,
      " Balasaraswati": 6244,
      " sources": 6245,
      " Odi": 6246,
      " Odisha": 6247,
      " Karn": 6248,
      " Karnat": 6249,
      " Karnatak": 6250,
      " Karnataka": 6251,
      "Loc": 6252,
      "Local": 6253,
      " addition": 6254,
      " Ras": 6255,
      " Rasl": 6256,
      " Raslil": 6257,
      " Raslila": 6258,
      " Utt": 6259,
      " Uttar": 6260,
      " Pra": 6261,
      " Prades": 6262,
      " Pradesh": 6263,
      " Teruk": 6264,
      " Terukk": 6265,
      " Terukkut": 6266,
      " Terukkuttu": 6267,
      " Nad": 6268,
      " Nadu": 6269,
      " calendrical": 6270,
      " festival": 6271,
      " Bhangra": 6272,
      " Vais": 6273,
      " Vaisak": 6274,
      " Vaisakhi": 6275,
      " spring": 6276,
      " Garb": 6277,
      " Garba": 6278,
      " Nav": 6279,
      " Navrat": 6280,
      " Navratri": 6281,
      " Adiv": 6282,
      " Adivasi": 6283,
      " Santal": 6284,
      " Tod": 6285,
      " Toda": 6286,
      " hon": 6287,
      " honour": 6288,
      " Ö": 6289,
      " Ön": 6290,
      " buff": 6291,
      " buffal": 6292,
      " buffalo": 6293,
      " earth": 6294,
      "Among": 6295,
      " directions": 6296,
      " Uday": 6297,
      " Shank": 6298,
      " Shankar": 6299,
      " adhered": 6300,
      " rig": 6301,
      " rigidly": 6302,
      " Examp": 6303,
      " Examples": 6304,
      " fables": 6305,
      " Panch": 6306,
      " Panchat": 6307,
      " Panchatant": 6308,
      " Panchatantra": 6309,
      " medit": 6310,
      " meditation": 6311,
      " Discover": 6312,
      " Discovery": 6313,
      " Dance": 6314,
      " asp": 6315,
      " aspect": 6316,
      " films": 6317,
      " tal": 6318,
      " talk": 6319,
      " talkies": 6320,
      " indiv": 6321,
      " individ": 6322,
      " individual": 6323,
      " Bol": 6324,
      " Bolly": 6325,
      " Bollyw": 6326,
      " Bollywood": 6327,
      " Tow": 6328,
      " Towards": 6329,
      " innovations": 6330,
      " Post": 6331,
      "Bhangra": 6332,
      "From": 6333,
      " dress": 6334,
      " draped": 6335,
      " pi": 6336,
      " piec": 6337,
      " piece": 6338,
      " yards": 6339,
      " wra": 6340,
      " wrapp": 6341,
      " wrapped": 6342,
      " comb": 6343,
      " combined": 6344,
      " unders": 6345,
      " undersk": 6346,
      " underskirt": 6347,
      " pett": 6348,
      " pettico": 6349,
      " petticoat": 6350,
      " tuc": 6351,
      " tucked": 6352,
      " secure": 6353,
      " fastening": 6354,
      " blouse": 6355,
      " choli": 6356,
      " serves": 6357,
      "covering": 6358,
      " midri": 6359,
      " midriff": 6360,
      " obsc": 6361,
      " obscuring": 6362,
      " contour": 6363,
      " contours": 6364,
      " shor": 6365,
      " shorter": 6366,
      " dhot": 6367,
      " dhoti": 6368,
      " stit": 6369,
      " stitched": 6370,
      " clot": 6371,
      " clothes": 6372,
      " widespread": 6373,
      " 1300": 6374,
      " 15": 6375,
      " 152": 6376,
      " 1525": 6377,
      " garments": 6378,
      " still": 6379,
      " shalwars": 6380,
      " py": 6381,
      " pyj": 6382,
      " pyjam": 6383,
      " pyjamas": 6384,
      " trous": 6385,
      " trousers": 6386,
      " tunics": 6387,
      " Shalw": 6388,
      " Shalwars": 6389,
      " atypically": 6390,
      " cuff": 6391,
      " cuffed": 6392,
      " draw": 6393,
      " drawstring": 6394,
      " causes": 6395,
      " pleated": 6396,
      " When": 6397,
      " quite": 6398,
      " bias": 6399,
      " shirt": 6400,
      " tunic": 6401,
      " side": 6402,
      " seams": 6403,
      " waistline": 6404,
      " collar": 6405,
      " collarles": 6406,
      " collarless": 6407,
      " cott": 6408,
      " cotton": 6409,
      " silk": 6410,
      " embro": 6411,
      " embroid": 6412,
      " embroidered": 6413,
      " decoration": 6414,
      " chik": 6415,
      " chikank": 6416,
      " chikankari": 6417,
      " typically": 6418,
      " falls": 6419,
      " wearer": 6420,
      " kne": 6421,
      " knees": 6422,
      " fashions": 6423,
      " changed": 6424,
      " deal": 6425,
      " Increasingly": 6426,
      " appare": 6427,
      " apparel": 6428,
      " shalwar": 6429,
      " rare": 6430,
      " rarely": 6431,
      " youn": 6432,
      " younger": 6433,
      " favour": 6434,
      " je": 6435,
      " jeans": 6436,
      " settings": 6437,
      " ub": 6438,
      " ubiqu": 6439,
      " ubiquit": 6440,
      " ubiquitous": 6441,
      " condition": 6442,
      " conditioning": 6443,
      " allows": 6444,
      " wedd": 6445,
      " weddings": 6446,
      " bandh": 6447,
      " bandhg": 6448,
      " bandhgala": 6449,
      " groom": 6450,
      " grooms": 6451,
      " groomsm": 6452,
      " groomsmen": 6453,
      " spor": 6454,
      " sporting": 6455,
      " sher": 6456,
      " sherwan": 6457,
      " sherwanis": 6458,
      " foundation": 6459,
      " typ": 6460,
      " typical": 6461,
      " meal": 6462,
      " plainly": 6463,
      " complemented": 6464,
      " rice": 6465,
      " chapati": 6466,
      " thin": 6467,
      " unle": 6468,
      " unleav": 6469,
      " unleavened": 6470,
      " id": 6471,
      " idli": 6472,
      " breakfast": 6473,
      " cake": 6474,
      " dosa": 6475,
      " gri": 6476,
      " grid": 6477,
      " gridd": 6478,
      " griddled": 6479,
      " panc": 6480,
      " pancake": 6481,
      " might": 6482,
      " lent": 6483,
      " lentils": 6484,
      " puls": 6485,
      " pulses": 6486,
      " vegetables": 6487,
      " pou": 6488,
      " poul": 6489,
      " poult": 6490,
      " poultry": 6491,
      " spic": 6492,
      " spiced": 6493,
      " ging": 6494,
      " ginger": 6495,
      " cori": 6496,
      " coriand": 6497,
      " coriander": 6498,
      " cum": 6499,
      " cumin": 6500,
      " tur": 6501,
      " turmer": 6502,
      " turmeric": 6503,
      " cinnam": 6504,
      " cinnamon": 6505,
      " card": 6506,
      " cardam": 6507,
      " cardamom": 6508,
      " inst": 6509,
      " instances": 6510,
      " ing": 6511,
      " ingredi": 6512,
      " ingredient": 6513,
      " ingredients": 6514,
      " mixed": 6515,
      " distinctive": 6516,
      " vegetar": 6517,
      " vegetarian": 6518,
      " cuisines": 6519,
      " each": 6520,
      " geographical": 6521,
      " histories": 6522,
      " adhe": 6523,
      " adherents": 6524,
      " Ab": 6525,
      " About": 6526,
      " 39": 6527,
      " vegetari": 6528,
      " vegetarians": 6529,
      " eat": 6530,
      " eaten": 6531,
      " propor": 6532,
      " proportional": 6533,
      " techniques": 6534,
      " pil": 6535,
      " pilaf": 6536,
      " On": 6537,
      " Onions": 6538,
      " alm": 6539,
      " almonds": 6540,
      " spices": 6541,
      " simple": 6542,
      " yog": 6543,
      " yogur": 6544,
      " yogurt": 6545,
      " marin": 6546,
      " marinade": 6547,
      " Persia": 6548,
      " Rice": 6549,
      " layered": 6550,
      " altern": 6551,
      " alternately": 6552,
      " saute": 6553,
      " sauteed": 6554,
      " sealed": 6555,
      " tight": 6556,
      " tightly": 6557,
      " technique": 6558,
      " biryan": 6559,
      " biryani": 6560,
      " festive": 6561,
      " dining": 6562,
      " worldw": 6563,
      " worldwide": 6564,
      " conceal": 6565,
      " concealed": 6566,
      " cuisine": 6567,
      " popularity": 6568,
      " tandoori": 6569,
      " chick": 6570,
      " chicken": 6571,
      "cook": 6572,
      "cooked": 6573,
      " oven": 6574,
      " bak": 6575,
      " baking": 6576,
      "dates": 6577,
      " entre": 6578,
      " entrep": 6579,
      " entrepren": 6580,
      " entreprene": 6581,
      " entrepreneur": 6582,
      " entrepreneurial": 6583,
      " displaced": 6584,
      "Several": 6585,
      " kabad": 6586,
      " kabaddi": 6587,
      " peh": 6588,
      " pehl": 6589,
      " pehlwan": 6590,
      " pehlwani": 6591,
      " gill": 6592,
      " gilli": 6593,
      "dand": 6594,
      "danda": 6595,
      " mart": 6596,
      " martial": 6597,
      " Kalari": 6598,
      " Kalaripp": 6599,
      " Kalarippayat": 6600,
      " Kalarippayattu": 6601,
      " marma": 6602,
      " adi": 6603,
      " originated": 6604,
      " chat": 6605,
      " chatur": 6606,
      " chatura": 6607,
      " chaturaṅ": 6608,
      " chaturaṅga": 6609,
      " grand": 6610,
      " grandm": 6611,
      " grandmast": 6612,
      " grandmasters": 6613,
      " Vis": 6614,
      " Viswan": 6615,
      " Viswanat": 6616,
      " Viswanathan": 6617,
      " Anand": 6618,
      " undis": 6619,
      " undisput": 6620,
      " undisputed": 6621,
      " Champion": 6622,
      " Parc": 6623,
      " Parche": 6624,
      " Parchees": 6625,
      " Parcheesi": 6626,
      " derived": 6627,
      " Pach": 6628,
      " Pachis": 6629,
      " Pachisi": 6630,
      " past": 6631,
      " pastime": 6632,
      " giant": 6633,
      " marble": 6634,
      "Cricket": 6635,
      " sport": 6636,
      " success": 6637,
      " successf": 6638,
      " successful": 6639,
      " cricket": 6640,
      " teams": 6641,
      " Cricket": 6642,
      " T20": 6643,
      " Champions": 6644,
      " Tro": 6645,
      " Troph": 6646,
      " Trophies": 6647,
      " fie": 6648,
      " field": 6649,
      " hoc": 6650,
      " hockey": 6651,
      " gold": 6652,
      " med": 6653,
      " medals": 6654,
      " Oly": 6655,
      " Olymp": 6656,
      " Olympics": 6657,
      "Out": 6658,
      "Outline": 6659,
      "Official": 6660,
      " webs": 6661,
      " website": 6662,
      " Web": 6663,
      " Dire": 6664,
      " Direct": 6665,
      " Directory": 6666,
      "General": 6667,
      " Arch": 6668,
      " Archived": 6669,
      " Wayback": 6670,
      " Mach": 6671,
      " Machine": 6672,
      " Fact": 6673,
      " Factb": 6674,
      " Factbo": 6675,
      " Factbook": 6676,
      " Intell": 6677,
      " Intellig": 6678,
      " Intelligence": 6679,
      " Go": 6680,
      " Gov": 6681,
      " GovP": 6682,
      " GovPub": 6683,
      " GovPubs": 6684,
      " Uni": 6685,
      " University": 6686,
      " Col": 6687,
      " Color": 6688,
      " Colorad": 6689,
      " Colorado": 6690,
      " Boulder": 6691,
      " Lib": 6692,
      " Libr": 6693,
      " Libraries": 6694,
      " BB": 6695,
      " BBC": 6696,
      " News": 6697,
      "Wik": 6698,
      "Wikime": 6699,
      "Wikimedi": 6700,
      "Wikimedia": 6701,
      " Atl": 6702,
      " Atlas": 6703,
      "Ge": 6704,
      "Geographic": 6705,
      " Open": 6706,
      "்த": 6707,
      "்க": 6708,
      "ிய": 6709,
      " ப": 6710,
      "ம்": 6711,
      "ப்": 6712,
      "து": 6713,
      " இ": 6714,
      "్ర": 6715,
      " ம": 6716,
      " ప": 6717,
      "ன்": 6718,
      "ార": 6719,
      "ல்": 6720,
      "ాల": 6721,
      "ந்த": 6722,
      " స": 6723,
      " க": 6724,
      " క": 6725,
      "்ட": 6726,
      "లో": 6727,
      "க்க": 6728,
      "్య": 6729,
      " మ": 6730,
      "ப்ப": 6731,
      " వ": 6732,
      "ும்": 6733,
      "న్": 6734,
      "ది": 6735,
      "த்த": 6736,
      "ిం": 6737,
      " வ": 6738,
      "దే": 6739,
      "ள்": 6740,
      "లు": 6741,
      "దేశ": 6742,
      " அ": 6743,
      "స్": 6744,
      " த": 6745,
      "ర్": 6746,
      "ரு": 6747,
      "ని": 6748,
      "భార": 6749,
      "ற்": 6750,
      "భారత": 6751,
      "ட்ட": 6752,
      " ర": 6753,
      "ான": 6754,
      " ప్ర": 6755,
      " అ": 6756,
      "ின்": 6757,
      "ిక": 6758,
      "ைய": 6759,
      "ాలు": 6760,
      "న్న": 6761,
      "ில்": 6762,
      "గా": 6763,
      " ச": 6764,
      " ఉ": 6765,
      "ాయ": 6766,
      "ற்ற": 6767,
      "క్": 6768,
      " ந": 6769,
      "ాత": 6770,
      " భారత": 6771,
      "ாக": 6772,
      "దేశం": 6773,
      "కు": 6774,
      "ர்": 6775,
      "ను": 6776,
      "్ట": 6777,
      " உ": 6778,
      " జ": 6779,
      "ங்க": 6780,
      " చ": 6781,
      "్వ": 6782,
      "ந்திய": 6783,
      "ిన": 6784,
      "ండ": 6785,
      " ஆ": 6786,
      "ీయ": 6787,
      " ఇ": 6788,
      "ண்ட": 6789,
      "ించ": 6790,
      "ுக": 6791,
      "తి": 6792,
      "స్త": 6793,
      " இந்திய": 6794,
      "ాన": 6795,
      "ంది": 6796,
      "ிக": 6797,
      "్ల": 6798,
      "ంత": 6799,
      "ள்ள": 6800,
      "ద్": 6801,
      " மற்ற": 6802,
      " ఆ": 6803,
      "ంగ": 6804,
      " மற்றும்": 6805,
      "రి": 6806,
      "ிர": 6807,
      "ులు": 6808,
      " త": 6809,
      "ாவ": 6810,
      "ింది": 6811,
      "க்": 6812,
      "వి": 6813,
      " రా": 6814,
      " மு": 6815,
      " ద": 6816,
      " क": 6817,
      "ில": 6818,
      "రు": 6819,
      "ంట": 6820,
      "ானது": 6821,
      "ము": 6822,
      "க்கு": 6823,
      " బ": 6824,
      "்ச": 6825,
      "ాయి": 6826,
      " న": 6827,
      "ிற": 6828,
      "ంలో": 6829,
      " கா": 6830,
      "ుత": 6831,
      "டு": 6832,
      " భ": 6833,
      "ப்பட்ட": 6834,
      "ైన": 6835,
      " स": 6836,
      " గ": 6837,
      " ஒ": 6838,
      " సం": 6839,
      " எ": 6840,
      " ఎ": 6841,
      "டி": 6842,
      "ూడ": 6843,
      "క్ష": 6844,
      "த்": 6845,
      "ంగా": 6846,
      "ருந்த": 6847,
      " म": 6848,
      " ఉన్న": 6849,
      "ங்கள": 6850,
      " శ": 6851,
      "ారు": 6852,
      "ன்ற": 6853,
      "టి": 6854,
      " கு": 6855,
      "ధిక": 6856,
      " பெ": 6857,
      " వి": 6858,
      " ह": 6859,
      "కి": 6860,
      "ுள்ள": 6861,
      "ిత": 6862,
      " தொ": 6863,
      " సా": 6864,
      "్చ": 6865,
      "மை": 6866,
      "పు": 6867,
      "ார": 6868,
      "దేశంలో": 6869,
      "ार": 6870,
      "வை": 6871,
      "ష్ట": 6872,
      " కూడ": 6873,
      " கொ": 6874,
      " హ": 6875,
      "ுத": 6876,
      "ల్": 6877,
      " இந்தியாவ": 6878,
      " ఈ": 6879,
      "త్": 6880,
      "ர்க": 6881,
      "చ్చ": 6882,
      " प": 6883,
      "ுகள": 6884,
      "ంచ": 6885,
      "ப்பட": 6886,
      "స్థ": 6887,
      " దేశ": 6888,
      "லை": 6889,
      "ట్ట": 6890,
      "ற்க": 6891,
      " ప్రా": 6892,
      " ఒ": 6893,
      " உள்ள": 6894,
      "्र": 6895,
      " భా": 6896,
      " பொ": 6897,
      "ాన్": 6898,
      "ార్": 6899,
      "ுவ": 6900,
      " రాజ": 6901,
      " போ": 6902,
      " మొ": 6903,
      "ரச": 6904,
      "లి": 6905,
      "తర": 6906,
      "ண்": 6907,
      " के": 6908,
      "ాబ": 6909,
      "ுள்ளது": 6910,
      " ని": 6911,
      " கொண்ட": 6912,
      "ష్ట్ర": 6913,
      "యా": 6914,
      "ிக்க": 6915,
      "ల్ల": 6916,
      "ுக்கு": 6917,
      "దు": 6918,
      "్రీ": 6919,
      " இது": 6920,
      "ें": 6921,
      "ద్ధ": 6922,
      "ித்த": 6923,
      "్రి": 6924,
      "ால்": 6925,
      "ాతీయ": 6926,
      " రై": 6927,
      "ாட்ட": 6928,
      " స్": 6929,
      " அத": 6930,
      "మైన": 6931,
      "ாட": 6932,
      "నే": 6933,
      " भ": 6934,
      " పే": 6935,
      "ப்பு": 6936,
      "వా": 6937,
      " ஆக": 6938,
      "్యవ": 6939,
      "ఖ్య": 6940,
      " ஒரு": 6941,
      "డి": 6942,
      "ுட": 6943,
      "రా": 6944,
      " में": 6945,
      " சம": 6946,
      " ల": 6947,
      "నా": 6948,
      "ாத": 6949,
      " స్థ": 6950,
      " இந்தியா": 6951,
      " ఉంది": 6952,
      " ஆண்ட": 6953,
      "ండి": 6954,
      " అధిక": 6955,
      " செ": 6956,
      " है": 6957,
      "ింద": 6958,
      "ின": 6959,
      " ఉన్నాయి": 6960,
      "ச்": 6961,
      "తో": 6962,
      " లో": 6963,
      " பிர": 6964,
      "ర్వ": 6965,
      "ைக்": 6966,
      "పా": 6967,
      "ற்ப": 6968,
      "्य": 6969,
      " ఏ": 6970,
      " రాష్ట్ర": 6971,
      "ாக்க": 6972,
      "ంద": 6973,
      " தொட": 6974,
      " ఒక": 6975,
      "ிருந்த": 6976,
      "మా": 6977,
      " ము": 6978,
      "ந்து": 6979,
      " अ": 6980,
      "ాని": 6981,
      "கள": 6982,
      "ధ్య": 6983,
      "టు": 6984,
      "றை": 6985,
      " కా": 6986,
      " வி": 6987,
      " పార": 6988,
      "மாக": 6989,
      "ణా": 6990,
      "ारत": 6991,
      "డు": 6992,
      " இருந்த": 6993,
      "్రా": 6994,
      "ச்ச": 6995,
      "ిన్న": 6996,
      "ஆம்": 6997,
      " వచ్చ": 6998,
      "డ్": 6999,
      "டுத்த": 7000,
      "తం": 7001,
      " न": 7002,
      " கால": 7003,
      "ెండ": 7004,
      "மைய": 7005,
      "్యవస్థ": 7006,
      "్యం": 7007,
      " வே": 7008,
      " హింద": 7009,
      "ருவ": 7010,
      " పా": 7011,
      " ब": 7012,
      "ాల్": 7013,
      "ங்கள்": 7014,
      "భా": 7015,
      " பெர": 7016,
      "ుల": 7017,
      " அமை": 7018,
      "ట్": 7019,
      "్రమ": 7020,
      "த்தின்": 7021,
      "ంత్ర": 7022,
      " ज": 7023,
      " பக": 7024,
      "ధాన": 7025,
      "ிகள": 7026,
      "ానికి": 7027,
      "ంబ": 7028,
      "ிப்ப": 7029,
      " కూడా": 7030,
      "ால": 7031,
      " శా": 7032,
      "ారం": 7033,
      "र्": 7034,
      "ாள": 7035,
      " కో": 7036,
      " இத": 7037,
      "పంచ": 7038,
      " நில": 7039,
      " స్వ": 7040,
      " దేశం": 7041,
      "ல்ல": 7042,
      " దక్ష": 7043,
      " இந்தியாவின்": 7044,
      " व": 7045,
      " భారతదేశం": 7046,
      "ாய": 7047,
      " మత": 7048,
      " చె": 7049,
      " அரச": 7050,
      "గు": 7051,
      " இர": 7052,
      " ఎన్న": 7053,
      " வெ": 7054,
      "జాతీయ": 7055,
      " भारत": 7056,
      " ప్రపంచ": 7057,
      " அதிக": 7058,
      "ద్ద": 7059,
      "மானது": 7060,
      " ప్రాంత": 7061,
      "క్కు": 7062,
      "னர்": 7063,
      " దేశాల": 7064,
      " பொரு": 7065,
      "సి": 7066,
      " द": 7067,
      "న్ని": 7068,
      "ேர": 7069,
      "ుక": 7070,
      " உல": 7071,
      " దక్షి": 7072,
      "ிறது": 7073,
      "ున్న": 7074,
      " రాజ్య": 7075,
      "று": 7076,
      " చే": 7077,
      "வு": 7078,
      "ों": 7079,
      "త్వ": 7080,
      " ஆகிய": 7081,
      " మార్": 7082,
      "స్క": 7083,
      "ர்கள": 7084,
      " ప్రధాన": 7085,
      "மான": 7086,
      "ప్": 7087,
      " పేరు": 7088,
      " பகுத": 7089,
      "या": 7090,
      " భారతీయ": 7091,
      "க்கிய": 7092,
      "ప్ర": 7093,
      "சிய": 7094,
      " పార్ట": 7095,
      " పార్టీ": 7096,
      " பா": 7097,
      "దాయ": 7098,
      " மே": 7099,
      " మొద": 7100,
      "िक": 7101,
      "இல்": 7102,
      " ప్రజ": 7103,
      " కే": 7104,
      "ிட": 7105,
      " వ్యవస్థ": 7106,
      "ாகும்": 7107,
      "క్కువ": 7108,
      "ற்கு": 7109,
      " హిందూ": 7110,
      "్రం": 7111,
      " உருவ": 7112,
      " औ": 7113,
      "ర్య": 7114,
      " தெ": 7115,
      " కాల": 7116,
      " పరి": 7117,
      "ப்படுக": 7118,
      " మధ్య": 7119,
      " மிக": 7120,
      "ించింది": 7121,
      "ார்": 7122,
      " అయ": 7123,
      " और": 7124,
      " కు": 7125,
      "ைப்": 7126,
      " ఇతర": 7127,
      "ின்ற": 7128,
      " క్రీ": 7129,
      "ட்ச": 7130,
      "త్య": 7131,
      "్మ": 7132,
      "த்தில்": 7133,
      " భాష": 7134,
      " உலக": 7135,
      " र": 7136,
      " రైలు": 7137,
      "டைய": 7138,
      " మార్గ": 7139,
      "భారతీయ": 7140,
      "ும": 7141,
      "గి": 7142,
      " கோ": 7143,
      "ష్": 7144,
      "ர்கள்": 7145,
      " వచ్చింది": 7146,
      "्त": 7147,
      "రణ": 7148,
      "ியாக": 7149,
      "భారతదేశ": 7150,
      " மா": 7151,
      " దేశంలో": 7152,
      " ప్రభ": 7153,
      " வர": 7154,
      " ప్రభుత": 7155,
      " குற": 7156,
      " ప్రభుత్వ": 7157,
      "ान": 7158,
      " முத": 7159,
      " భారతదేశంలో": 7160,
      " సాం": 7161,
      " து": 7162,
      "తా": 7163,
      "டை": 7164,
      " అధికార": 7165,
      "தி": 7166,
      " సి": 7167,
      "ించిన": 7168,
      "வைய": 7169,
      " की": 7170,
      " సభ": 7171,
      " நாட": 7172,
      "భారతదేశం": 7173,
      " ஐ": 7174,
      " స్థాన": 7175,
      " అతి": 7176,
      "ழ்": 7177,
      "ెద్ద": 7178,
      "ன்ன": 7179,
      " ఉత్": 7180,
      " त": 7181,
      "விய": 7182,
      "ుకు": 7183,
      "లం": 7184,
      "ம்ப": 7185,
      " ద్వ": 7186,
      "ும்ப": 7187,
      " పు": 7188,
      "ాతి": 7189,
      " பர": 7190,
      " ను": 7191,
      "ுக்": 7192,
      " प्र": 7193,
      " య": 7194,
      " ஊ": 7195,
      " జరి": 7196,
      " ఆర్": 7197,
      " கூ": 7198,
      " భారతదేశ": 7199,
      "ிகள்": 7200,
      "ప్ప": 7201,
      "லா": 7202,
      "దా": 7203,
      " का": 7204,
      " ఉంట": 7205,
      " மொ": 7206,
      "రువ": 7207,
      "்கள": 7208,
      " అయిన": 7209,
      "த்தை": 7210,
      " రెండ": 7211,
      " పట్ట": 7212,
      " ஏ": 7213,
      "స్కృ": 7214,
      " से": 7215,
      " நீ": 7216,
      "క్క": 7217,
      "ன்ப": 7218,
      "ుంది": 7219,
      " இரு": 7220,
      "్రె": 7221,
      "మి": 7222,
      " செய": 7223,
      " జనా": 7224,
      "ाज": 7225,
      " நட": 7226,
      "ీర్": 7227,
      "த்து": 7228,
      " కేంద": 7229,
      "పాల": 7230,
      " அல்ல": 7231,
      " కలి": 7232,
      "டிய": 7233,
      " పాల": 7234,
      " கொண்டுள்ளது": 7235,
      "ीय": 7236,
      " ఎక్కువ": 7237,
      "గిన": 7238,
      " உள்ளது": 7239,
      " అనే": 7240,
      "ரிய": 7241,
      " వా": 7242,
      "ిమ": 7243,
      "ாட்டு": 7244,
      " దక్షిణ": 7245,
      "िया": 7246,
      "ாதார": 7247,
      " పాకి": 7248,
      "்கள்": 7249,
      "స్తాన్": 7250,
      "గ్": 7251,
      " பு": 7252,
      "గర": 7253,
      " மக்க": 7254,
      " బహ": 7255,
      " ग": 7256,
      " பார": 7257,
      "స్తుత": 7258,
      "గం": 7259,
      "சு": 7260,
      "ాబ్": 7261,
      "ண்ண": 7262,
      "ాలను": 7263,
      " என்ற": 7264,
      "ీన": 7265,
      " आ": 7266,
      "ుకో": 7267,
      "ணை": 7268,
      "కా": 7269,
      " அல்லது": 7270,
      " వంట": 7271,
      "ிழ": 7272,
      "ాలలో": 7273,
      "ீத": 7274,
      "బడ": 7275,
      "था": 7276,
      "టిక": 7277,
      "ியில்": 7278,
      "రో": 7279,
      "ையும்": 7280,
      "ారి": 7281,
      "ளாதார": 7282,
      "ందిన": 7283,
      "ता": 7284,
      "ுகள்": 7285,
      "లా": 7286,
      " ఏర్": 7287,
      " சமய": 7288,
      "ధి": 7289,
      "ாண்ட": 7290,
      " ఎన్నో": 7291,
      "றைய": 7292,
      "త్ర": 7293,
      "्ष": 7294,
      " ஆண்டு": 7295,
      " కాంగ": 7296,
      " కాంగ్రె": 7297,
      " வள": 7298,
      "సు": 7299,
      " அதிகர": 7300,
      "ప్రదాయ": 7301,
      "ான்": 7302,
      " సాధ": 7303,
      " उ": 7304,
      " இந்த": 7305,
      " సంగ": 7306,
      " క్రీడ": 7307,
      "ித": 7308,
      " పెద్ద": 7309,
      "ியது": 7310,
      " కేంద్ర": 7311,
      " படி": 7312,
      " ముఖ్య": 7313,
      "ाल": 7314,
      "ాలో": 7315,
      " ஓ": 7316,
      " వే": 7317,
      "ிரு": 7318,
      "లకు": 7319,
      "க்கப்பட்ட": 7320,
      "లను": 7321,
      " ఉత్తర": 7322,
      " பிற": 7323,
      "ना": 7324,
      " మహ": 7325,
      "ளவ": 7326,
      "ంగ్ల": 7327,
      " సరి": 7328,
      " போது": 7329,
      " సరిహ": 7330,
      " பொருளாதார": 7331,
      " గల": 7332,
      " ल": 7333,
      " உய": 7334,
      " ఇది": 7335,
      " సిం": 7336,
      "ிருந்து": 7337,
      "ిక్": 7338,
      " குறிப்ப": 7339,
      " కాలంలో": 7340,
      "ர்ச்ச": 7341,
      " ప్రస్తుత": 7342,
      " पर": 7343,
      "లలో": 7344,
      "ங்களில்": 7345,
      " కొ": 7346,
      " பல": 7347,
      "ించి": 7348,
      "வற்ற": 7349,
      " చిన్న": 7350,
      "డిప": 7351,
      "ுடன்": 7352,
      " इ": 7353,
      "దం": 7354,
      "ிட்ட": 7355,
      "ద్ధి": 7356,
      "வும்": 7357,
      "కొ": 7358,
      " பொது": 7359,
      "స్తారు": 7360,
      "ండు": 7361,
      "ின்றன": 7362,
      " श": 7363,
      " తరువ": 7364,
      " அமைப்ப": 7365,
      "మే": 7366,
      " பெரும்ப": 7367,
      " ఏర్ప": 7368,
      "வாக": 7369,
      "ాల్లో": 7370,
      " सं": 7371,
      "కాల": 7372,
      "இந்திய": 7373,
      " శాస్త": 7374,
      "ப்படுகிறது": 7375,
      "ిల్ల": 7376,
      " வந்த": 7377,
      "క్రమ": 7378,
      "ல்வ": 7379,
      " పర": 7380,
      " वि": 7381,
      "ౌక": 7382,
      " இரண்ட": 7383,
      " మాత": 7384,
      "லி": 7385,
      " కార": 7386,
      "ாண": 7387,
      "కీయ": 7388,
      "ுக்க": 7389,
      "పతి": 7390,
      " को": 7391,
      "ானவை": 7392,
      "త్యధిక": 7393,
      " జాతీయ": 7394,
      " இட": 7395,
      " ప్రతి": 7396,
      " இந்தியாவில்": 7397,
      "నాలు": 7398,
      " அதிகரித்த": 7399,
      "्व": 7400,
      " సిని": 7401,
      "்கு": 7402,
      " ట": 7403,
      " வழ": 7404,
      " రవా": 7405,
      "ைகள": 7406,
      " రవాణా": 7407,
      " సంగీ": 7408,
      "ியல்": 7409,
      " हैं": 7410,
      "ట్ల": 7411,
      "ப்பட்டது": 7412,
      "మీ": 7413,
      " கட்ட": 7414,
      "ంతో": 7415,
      "கள்": 7416,
      " సమా": 7417,
      " సామ": 7418,
      "ரி": 7419,
      " ए": 7420,
      " ఉప": 7421,
      "மையான": 7422,
      "ిత్ర": 7423,
      "ையில்": 7424,
      "ణి": 7425,
      "జ్య": 7426,
      "ைத்": 7427,
      " రహ": 7428,
      "त्र": 7429,
      "கு": 7430,
      " రహద": 7431,
      "ணிய": 7432,
      " సరిహద్": 7433,
      " సరిహద్దు": 7434,
      " தே": 7435,
      " సింధ": 7436,
      " குடிய": 7437,
      "न्": 7438,
      " బహు": 7439,
      " பெரிய": 7440,
      " వివి": 7441,
      " வட": 7442,
      " వివిధ": 7443,
      "సింది": 7444,
      " இல": 7445,
      " బ్రి": 7446,
      "டிவ": 7447,
      " ने": 7448,
      " ఇండి": 7449,
      " வா": 7450,
      " ఇండియా": 7451,
      "நில": 7452,
      "ంధ": 7453,
      "తంత్ర": 7454,
      "ம்பரிய": 7455,
      " ఆధ": 7456,
      " कर": 7457,
      "ஞ்ச": 7458,
      "ప్పటిక": 7459,
      " மூ": 7460,
      "యో": 7461,
      "రం": 7462,
      " பெற்ற": 7463,
      " రెండు": 7464,
      "சி": 7465,
      "िय": 7466,
      "డ్డ": 7467,
      " குறை": 7468,
      "ావ": 7469,
      "ரண": 7470,
      " పట్టణ": 7471,
      " பாரம்பரிய": 7472,
      " సంస్కృ": 7473,
      " వర్": 7474,
      "ित": 7475,
      " அற": 7476,
      "తిక": 7477,
      "ிருந்தது": 7478,
      " ప్రము": 7479,
      " உருவாக்க": 7480,
      " ప్రముఖ": 7481,
      " நூ": 7482,
      " మొదల": 7483,
      " सा": 7484,
      "ాత్ర": 7485,
      " முதல்": 7486,
      "ఢిల్ల": 7487,
      "ப்படும்": 7488,
      "ఢిల్లీ": 7489,
      " ஆகும்": 7490,
      "గలు": 7491,
      " என்று": 7492,
      "ాన్ని": 7493,
      "ड़": 7494,
      " தொக": 7495,
      " జన": 7496,
      " భారత్": 7497,
      "ீன": 7498,
      " రాజకీయ": 7499,
      "ர்ந்து": 7500,
      " అత్యధిక": 7501,
      "ने": 7502,
      " தன": 7503,
      "కాలు": 7504,
      "னை": 7505,
      "ల్ప": 7506,
      "ர்ந்த": 7507,
      "ెలు": 7508,
      " மொழ": 7509,
      " నె": 7510,
      " य": 7511,
      "్వే": 7512,
      "ிவ": 7513,
      " మూడ": 7514,
      "ாவின்": 7515,
      " దేశంలోని": 7516,
      " நிற": 7517,
      "ాబా": 7518,
      " விள": 7519,
      "क्ष": 7520,
      "ెంగ": 7521,
      " உலகின்": 7522,
      " నడిప": 7523,
      "ியான": 7524,
      "ారులు": 7525,
      "ண்ப": 7526,
      " మొదటి": 7527,
      "ీర్ణ": 7528,
      " இவ": 7529,
      " च": 7530,
      " ప్రజా": 7531,
      "ாம": 7532,
      "స్వా": 7533,
      " ஆய": 7534,
      "స్వామ": 7535,
      " ప్రాంతాలు": 7536,
      " முறை": 7537,
      " ఒకటి": 7538,
      "ाद": 7539,
      " நிறுவ": 7540,
      "ముద": 7541,
      "ிலிருந்து": 7542,
      " అనేక": 7543,
      " చైన": 7544,
      " உள்ளன": 7545,
      " నే": 7546,
      "ங்களை": 7547,
      "ेश": 7548,
      " భూ": 7549,
      " தலை": 7550,
      "సియా": 7551,
      "ీప": 7552,
      " எண்ண": 7553,
      " దా": 7554,
      "ாங்க": 7555,
      "ాలతో": 7556,
      "ास": 7557,
      " அடி": 7558,
      " శత": 7559,
      " மக்கள்": 7560,
      " శతాబ్": 7561,
      " శతాబ్దం": 7562,
      "ுள்ளன": 7563,
      " నుండి": 7564,
      "த்திற": 7565,
      "ుకోవ": 7566,
      "ति": 7567,
      " காரண": 7568,
      "టీ": 7569,
      " యు": 7570,
      "ாகக்": 7571,
      " గా": 7572,
      " ஆகியவை": 7573,
      " స్వాత": 7574,
      " நூற்ற": 7575,
      "्ट": 7576,
      " స్వాతంత్ర": 7577,
      " நூற்றாண்ட": 7578,
      " జరిగిన": 7579,
      " పో": 7580,
      " என": 7581,
      "టం": 7582,
      " தொழ": 7583,
      " అను": 7584,
      " राज": 7585,
      "்ப": 7586,
      " అభ": 7587,
      "்த்த": 7588,
      " అభి": 7589,
      "దర": 7590,
      "ர்வ": 7591,
      "స్య": 7592,
      " மிகப்": 7593,
      "ళ్ల": 7594,
      "िस": 7595,
      " கிழ": 7596,
      " మొత్": 7597,
      "ந்தது": 7598,
      " మొత్తం": 7599,
      " పేర్": 7600,
      " ஆண்டுகள": 7601,
      "గే": 7602,
      " வடிவ": 7603,
      "ाष": 7604,
      " పండు": 7605,
      "ளி": 7606,
      " ఎక్కువగా": 7607,
      " ஒன்ற": 7608,
      " ఉంటాయి": 7609,
      "నుక": 7610,
      " நக": 7611,
      " इस": 7612,
      " తరువాత": 7613,
      " வை": 7614,
      " పూ": 7615,
      " கூட்ட": 7616,
      "నులు": 7617,
      "ுடைய": 7618,
      "షు": 7619,
      " பய": 7620,
      " सम": 7621,
      " ప్రాచ": 7622,
      "వత్": 7623,
      "ரா": 7624,
      " సమ": 7625,
      " கோடி": 7626,
      " సార": 7627,
      " கட": 7628,
      " ఖ": 7629,
      " भारतीय": 7630,
      " தோ": 7631,
      "లతో": 7632,
      " ఐ": 7633,
      "ூக": 7634,
      "్యా": 7635,
      " பேர": 7636,
      " तथा": 7637,
      " సర్వ": 7638,
      " சே": 7639,
      " కూడిన": 7640,
      " இய": 7641,
      " తన": 7642,
      "ிக்": 7643,
      "మంత": 7644,
      "ंग": 7645,
      "வர": 7646,
      " నిర్వ": 7647,
      " నిర్వహ": 7648,
      " ஜ": 7649,
      " ఆర్ధిక": 7650,
      "தாக": 7651,
      "కారం": 7652,
      " एक": 7653,
      " இதன்": 7654,
      " రాష్ట్రపతి": 7655,
      " சி": 7656,
      " పద్ధ": 7657,
      "துக": 7658,
      "ాక": 7659,
      " தொடங்க": 7660,
      " अन": 7661,
      "చే": 7662,
      " சமூக": 7663,
      " చేయ": 7664,
      " కోర్": 7665,
      " சு": 7666,
      "ెబ": 7667,
      " அதன்": 7668,
      " हु": 7669,
      " కాంగ్రెసు": 7670,
      "ையானது": 7671,
      "భారతదేశంలో": 7672,
      " குறிப்பிட": 7673,
      " జనాభా": 7674,
      "பொ": 7675,
      " జాబ": 7676,
      " १": 7677,
      " இவை": 7678,
      " జాబిత": 7679,
      " பொருட": 7680,
      " ప్రస్తుతం": 7681,
      " పరిశ": 7682,
      "ப்புற": 7683,
      " जा": 7684,
      "ించే": 7685,
      " கீ": 7686,
      "ాలకు": 7687,
      "ாவது": 7688,
      " తమి": 7689,
      "ையின்": 7690,
      " తమిళ": 7691,
      " भी": 7692,
      "ருக": 7693,
      " సౌక": 7694,
      " இருந்தது": 7695,
      " మార్గాలు": 7696,
      " பகுதிகள": 7697,
      " రైల": 7698,
      " பேரரச": 7699,
      " हो": 7700,
      " రైల్వే": 7701,
      "ாப": 7702,
      " మన": 7703,
      " இக்க": 7704,
      " రహదారులు": 7705,
      " பண்ப": 7706,
      " బెంగ": 7707,
      "्या": 7708,
      " పై": 7709,
      " நடத்த": 7710,
      " పైగా": 7711,
      "ந்திர": 7712,
      " ప్రపంచంలో": 7713,
      " தொழில்": 7714,
      " వై": 7715,
      "न्द": 7716,
      "స్వామ్య": 7717,
      " அண": 7718,
      " రాష్ట్రాలు": 7719,
      " வளர்ச்ச": 7720,
      " కలిగి": 7721,
      " உண": 7722,
      "మె": 7723,
      "से": 7724,
      "రీ": 7725,
      "ின்றனர்": 7726,
      "నిక": 7727,
      " பெரும்பால": 7728,
      " దేశాలలో": 7729,
      " இருந்து": 7730,
      "ములో": 7731,
      "हा": 7732,
      "ిత్రక": 7733,
      "த்திற்கு": 7734,
      " దక్షిణాన": 7735,
      " ர": 7736,
      " పశ": 7737,
      " இந்து": 7738,
      " పశ్చ": 7739,
      " नि": 7740,
      " పశ్చిమ": 7741,
      "வையாக": 7742,
      "ాఖ": 7743,
      " இராண": 7744,
      " పాకిస్తాన్": 7745,
      " இராணுவ": 7746,
      "र्व": 7747,
      " చైనా": 7748,
      "న్మ": 7749,
      "ிலான": 7750,
      " ఆఫ": 7751,
      " பயன்ப": 7752,
      " ఆఫ్": 7753,
      " இடைய": 7754,
      "र्म": 7755,
      " ద్వీప": 7756,
      " இதில்": 7757,
      " నా": 7758,
      "ికత": 7759,
      "்வ": 7760,
      " సంఘ": 7761,
      "रा": 7762,
      "ற்பட்ட": 7763,
      " సామ్రా": 7764,
      " கல": 7765,
      "వర్": 7766,
      " రాజ్యాలు": 7767,
      " முன்ன": 7768,
      " బ్రిటి": 7769,
      "कार": 7770,
      "ற்று": 7771,
      "ంప": 7772,
      " ஆன": 7773,
      "నీ": 7774,
      "லாம்": 7775,
      "ుకోవడ": 7776,
      "िल": 7777,
      "ాయక": 7778,
      "ைச்": 7779,
      "ెట్": 7780,
      " அக": 7781,
      " ఆధార": 7782,
      " முக்கிய": 7783,
      " ఆర్థ": 7784,
      "स्": 7785,
      "ாட்ச": 7786,
      " ఆర్థిక": 7787,
      "గంగా": 7788,
      " அளவ": 7789,
      " అభివ": 7790,
      " சட்ட": 7791,
      "ते": 7792,
      " అభివృ": 7793,
      "ிச": 7794,
      " అభివృద్ధి": 7795,
      " மாநில": 7796,
      " చెంద": 7797,
      " அழ": 7798,
      "ుతున్న": 7799,
      " किया": 7800,
      "క్షరా": 7801,
      " தொடக்க": 7802,
      "క్షరాస్య": 7803,
      " ஓர்": 7804,
      "క్షరాస్యత": 7805,
      "வன": 7806,
      "धिक": 7807,
      " అవ": 7808,
      "்ய": 7809,
      "హార": 7810,
      "ப்பட்டன": 7811,
      " వంటి": 7812,
      "ళ్లను": 7813,
      " நடு": 7814,
      "ाम": 7815,
      "ట్లు": 7816,
      "த்தது": 7817,
      "కో": 7818,
      "ித்தான": 7819,
      "వచ్చ": 7820,
      "ंत्र": 7821,
      " வீத": 7822,
      "టిలో": 7823,
      " பயன்படுத்த": 7824,
      " భారతదేశానికి": 7825,
      " பத": 7826,
      "ప్పటికీ": 7827,
      " वर्": 7828,
      " మే": 7829,
      " பின்": 7830,
      " గో": 7831,
      "க்கும்": 7832,
      "ంటే": 7833,
      " போன்ற": 7834,
      " లే": 7835,
      "री": 7836,
      "யம": 7837,
      " దీ": 7838,
      " பி": 7839,
      " వచ్చిన": 7840,
      "రత": 7841,
      "த்திய": 7842,
      "के": 7843,
      " విశ": 7844,
      " கட்ச": 7845,
      " రూ": 7846,
      "ெடு": 7847,
      " వల": 7848,
      " என்ப": 7849,
      "ती": 7850,
      " పొ": 7851,
      "ாவில்": 7852,
      " గు": 7853,
      " வங்க": 7854,
      "వు": 7855,
      " तक": 7856,
      " ஆகியவற்ற": 7857,
      "ికి": 7858,
      " సంవత్": 7859,
      "வர்கள": 7860,
      " సంవత్స": 7861,
      " உடைய": 7862,
      "పూ": 7863,
      "ीन": 7864,
      " ஆத": 7865,
      " వార": 7866,
      "ிந்திய": 7867,
      " వారస": 7868,
      " ஆசிய": 7869,
      " వారసత్వ": 7870,
      "िण": 7871,
      " இற": 7872,
      "్యులు": 7873,
      " உயிர": 7874,
      " శాస్త్రం": 7875,
      " கிர": 7876,
      " సు": 7877,
      "िम": 7878,
      "న్నాయి": 7879,
      " அனை": 7880,
      " ఫ": 7881,
      "ித்": 7882,
      "మన": 7883,
      " ध": 7884,
      "தற்கு": 7885,
      " ఆక్రమ": 7886,
      "வான": 7887,
      "వరి": 7888,
      "ாசிய": 7889,
      " లక్ష": 7890,
      "ंध": 7891,
      " இந்தியப்": 7892,
      "డుకు": 7893,
      " விர": 7894,
      "మంత్రి": 7895,
      "லில்": 7896,
      "ంగం": 7897,
      " स्": 7898,
      " தீ": 7899,
      "ణంగా": 7900,
      "வீன": 7901,
      "ద్య": 7902,
      "ப்படுத்த": 7903,
      "వే": 7904,
      " राज्य": 7905,
      " மேற்கு": 7906,
      " ప్రకారం": 7907,
      "లే": 7908,
      " செய்ய": 7909,
      "్యాయ": 7910,
      " பாதுக": 7911,
      " देश": 7912,
      "మైనది": 7913,
      "ுகளை": 7914,
      "రాష్ట్ర": 7915,
      "ுகளின்": 7916,
      "తులు": 7917,
      "ृत": 7918,
      " ஆனால்": 7919,
      "ోర": 7920,
      " கண்ட": 7921,
      " కార్య": 7922,
      " பங்க": 7923,
      " లోక్": 7924,
      " साथ": 7925,
      " வக": 7926,
      " సంఖ్య": 7927,
      " மீ": 7928,
      " సంక": 7929,
      " ஆட்ச": 7930,
      "धान": 7931,
      " అని": 7932,
      "ாட்சி": 7933,
      "ంటారు": 7934,
      " பெய": 7935,
      "ూచ": 7936,
      " புவ": 7937,
      "का": 7938,
      " మా": 7939,
      "ைகள்": 7940,
      "డే": 7941,
      "ியின்": 7942,
      " ఘ": 7943,
      "ूप": 7944,
      " உற்ப": 7945,
      " వహ": 7946,
      " చరి": 7947,
      " வண": 7948,
      " చరిత్ర": 7949,
      " வணிக": 7950,
      "क्षिण": 7951,
      "మై": 7952,
      " மக்கள": 7953,
      "ల్లో": 7954,
      " அரசாங்க": 7955,
      " మాత్రం": 7956,
      " उत": 7957,
      " போட்ட": 7958,
      "ంచి": 7959,
      " அடிப்பட": 7960,
      " సంప్రదాయ": 7961,
      "த்தைக்": 7962,
      "ाषा": 7963,
      " పాకిస్థ": 7964,
      " வாழ்": 7965,
      " పాకిస్థాన్": 7966,
      " காண": 7967,
      " వాత": 7968,
      " மொத்த": 7969,
      " था": 7970,
      " వాతావ": 7971,
      " பரவ": 7972,
      " వాతావరణ": 7973,
      "ுக்குப்": 7974,
      " వాతావరణం": 7975,
      "ப்பின": 7976,
      "स्त": 7977,
      "మ్మ": 7978,
      " முக": 7979,
      "దన": 7980,
      " நிறுவன": 7981,
      " జాబితా": 7982,
      "ोग": 7983,
      " ஐஅ": 7984,
      " పాత్ర": 7985,
      "ுட்ப": 7986,
      " పరిశ్రమ": 7987,
      "ீக": 7988,
      "्तर": 7989,
      "మాలు": 7990,
      " ஆயுத": 7991,
      " మూడు": 7992,
      "ப்படுகின்றன": 7993,
      " నగర": 7994,
      "ங்களின்": 7995,
      " दक्षिण": 7996,
      "వె": 7997,
      " சிற": 7998,
      "ాబాద్": 7999,
      " பெரும்பாலான": 8000,
      " ఉన్నారు": 8001,
      " पू": 8002,
      " கீழ்": 8003,
      " కుటు": 8004,
      " கண": 8005,
      " కుటుంబ": 8006,
      " தொடர்ந்து": 8007,
      "िन्द": 8008,
      " భాషలు": 8009,
      " பிறகு": 8010,
      " అధికారిక": 8011,
      " குடியரச": 8012,
      " సౌకర్య": 8013,
      " வேறு": 8014,
      "ीं": 8015,
      " రకాల": 8016,
      " வேறுப": 8017,
      " దక్షిణా": 8018,
      "ுதிய": 8019,
      " సర్వీ": 8020,
      " अप": 8021,
      "ரோ": 8022,
      " పాక్": 8023,
      "ட்டு": 8024,
      " నడిపించ": 8025,
      " இக்கால": 8026,
      "्षे": 8027,
      "ிலும்": 8028,
      "స్తున్న": 8029,
      "ழு": 8030,
      " రో": 8031,
      " பிரித்தான": 8032,
      " సాంప్రదాయ": 8033,
      "हु": 8034,
      " பிரித்தானிய": 8035,
      " సంగీతం": 8036,
      " நேர": 8037,
      " చెందిన": 8038,
      " வேக": 8039,
      " సినిమా": 8040,
      "्रे": 8041,
      " அதிகரித்து": 8042,
      " బెంగాల": 8043,
      " நிலைய": 8044,
      " బెంగాలీ": 8045,
      "த்தக்க": 8046,
      " जन": 8047,
      " పత": 8048,
      "தாகும்": 8049,
      " క్య": 8050,
      " இடையில்": 8051,
      " వెబ": 8052,
      "ओं": 8053,
      "ிர்": 8054,
      " వెబ్": 8055,
      "மயம": 8056,
      " జనాభ": 8057,
      " தொலை": 8058,
      "ాతో": 8059,
      " गया": 8060,
      " முறைய": 8061,
      " స్థానంలో": 8062,
      "லிய": 8063,
      " విస్త": 8064,
      "స్థాన": 8065,
      " உள்": 8066,
      " जिस": 8067,
      " ప్రజాస్వామ్య": 8068,
      " அவை": 8069,
      " కేంద్రపాల": 8070,
      "ணி": 8071,
      " కేంద్రపాలిత": 8072,
      " தெற்க": 8073,
      " పాలన": 8074,
      " क्षे": 8075,
      " సమాఖ్య": 8076,
      " வங்காள": 8077,
      " సై": 8078,
      "ாய்": 8079,
      " ఒకటిగా": 8080,
      " ரீத": 8081,
      " क्षेत्र": 8082,
      " ముఖ్యమైన": 8083,
      "வது": 8084,
      "క్తి": 8085,
      " உற": 8086,
      "యాలో": 8087,
      " सर": 8088,
      "టర్": 8089,
      "ாற்ற": 8090,
      " సముద": 8091,
      " கொண்டிருந்தது": 8092,
      "తీ": 8093,
      " கூட": 8094,
      " ఉపఖ": 8095,
      " १९": 8096,
      " ஒப்ப": 8097,
      " ఉపఖండ": 8098,
      "ியானது": 8099,
      "ుకొ": 8100,
      " மாற்ற": 8101,
      "ారిత్రక": 8102,
      "वा": 8103,
      " వాణి": 8104,
      "ாண்": 8105,
      " వాణిజ్య": 8106,
      " ஆற்ற": 8107,
      " హిమ": 8108,
      " வருக": 8109,
      " హిమాల": 8110,
      " साम": 8111,
      " குழ": 8112,
      " హిమాలయ": 8113,
      "ாட்டின்": 8114,
      " మహా": 8115,
      " மூன்ற": 8116,
      "రే": 8117,
      "द्": 8118,
      " బంగ్ల": 8119,
      "பல": 8120,
      " బంగ్లా": 8121,
      " உள்ளட": 8122,
      " బంగ్లాదేశ": 8123,
      " கரு": 8124,
      "भा": 8125,
      " ఆఫ్ఘ": 8126,
      "தம": 8127,
      " పంచ": 8128,
      " அனைத்து": 8129,
      " శ్రీ": 8130,
      "వులు": 8131,
      " சோ": 8132,
      " बाद": 8133,
      " సింధు": 8134,
      " இவ்வ": 8135,
      " నాగర": 8136,
      "மு": 8137,
      " నాగరికత": 8138,
      " सरकार": 8139,
      " சந்த": 8140,
      " పుట్ట": 8141,
      " தேசிய": 8142,
      " జన్మ": 8143,
      " காங்க": 8144,
      " బహుళ": 8145,
      " यह": 8146,
      " జాతి": 8147,
      " காங்கிர": 8148,
      " వైవి": 8149,
      "நாட்டு": 8150,
      " వైవిధ్య": 8151,
      " தேர": 8152,
      "టే": 8153,
      "ढ़": 8154,
      "ாப்பு": 8155,
      "భాగం": 8156,
      " பொ": 8157,
      " ఒకే": 8158,
      "యింది": 8159,
      " விளைய": 8160,
      "भारत": 8161,
      " కంప": 8162,
      "ாடு": 8163,
      " కంపె": 8164,
      "ைக்க": 8165,
      " పరిపాల": 8166,
      "ளவு": 8167,
      " सब": 8168,
      " కింద": 8169,
      "வாகும்": 8170,
      "టె": 8171,
      " பெரு": 8172,
      "మ్": 8173,
      " सबसे": 8174,
      " கிழக்க": 8175,
      " గాంధ": 8176,
      " மன": 8177,
      " గాంధీ": 8178,
      "ற்போ": 8179,
      " స్వతంత్ర": 8180,
      " विश": 8181,
      " దేశంగా": 8182,
      "ந்": 8183,
      " వేగంగా": 8184,
      " வழி": 8185,
      "ినీ": 8186,
      "ுகிறது": 8187,
      "्च": 8188,
      " నాలు": 8189,
      " மொழிகள": 8190,
      " నాలుగు": 8191,
      "பு": 8192,
      "వచ్చు": 8193,
      " அரசியல்": 8194,
      " వీ": 8195,
      "ली": 8196,
      " பரவல": 8197,
      " వీటిలో": 8198,
      " முகல": 8199,
      " జంబ": 8200,
      " முகலாய": 8201,
      " జంబూ": 8202,
      "ंद": 8203,
      "ீட்ட": 8204,
      " ఇవ": 8205,
      "బడిన": 8206,
      " கலை": 8207,
      " ప్రదేశ": 8208,
      "ேற்ற": 8209,
      "ुख": 8210,
      " లేదా": 8211,
      " உருவானது": 8212,
      " రాజు": 8213,
      "ாளும": 8214,
      "మారు": 8215,
      "ாளுமன்ற": 8216,
      "क्त": 8217,
      " హిందూదేశం": 8218,
      "ஆக": 8219,
      "నది": 8220,
      " உட": 8221,
      "ర్ష": 8222,
      " २": 8223,
      "ுமே": 8224,
      "కులు": 8225,
      "ப்பட்டுள்ளது": 8226,
      "వల": 8227,
      " வளர்ச்சி": 8228,
      "లిచ": 8229,
      "ाज्य": 8230,
      " పొందిన": 8231,
      "ீர": 8232,
      " గుర్": 8233,
      "ர்த்த": 8234,
      " గుర్త": 8235,
      " வெள": 8236,
      " हिन्द": 8237,
      " ప్రాచీన": 8238,
      "த்தியில்": 8239,
      " మొట్ట": 8240,
      " வரை": 8241,
      " మొట్టమ": 8242,
      "ில்லை": 8243,
      " बहु": 8244,
      " మొట్టమొ": 8245,
      " பொதுவாக": 8246,
      " మొట్టమొద": 8247,
      " உள்நாட்டு": 8248,
      " మొట్టమొదటి": 8249,
      " தேர்த": 8250,
      "ां": 8251,
      " ఏర్పడ్డ": 8252,
      " முதன்": 8253,
      "రాలు": 8254,
      " సంస్కృతి": 8255,
      " திரு": 8256,
      " भाषा": 8257,
      " సాంస్కృ": 8258,
      " பூ": 8259,
      " సాంస్కృతిక": 8260,
      " இந்தியத்": 8261,
      " చేసింది": 8262,
      " தனி": 8263,
      " थ": 8264,
      "తుల": 8265,
      " பல்வ": 8266,
      "బడింది": 8267,
      "டைந்த": 8268,
      "ోళ": 8269,
      "ல்கள": 8270,
      "नी": 8271,
      "గువ": 8272,
      " பௌ": 8273,
      "స్వ": 8274,
      "ாப்த": 8275,
      " గణ": 8276,
      "ண்கள": 8277,
      "कर": 8278,
      " మొదలైన": 8279,
      " சேர்ந்த": 8280,
      " సహ": 8281,
      "ரும்": 8282,
      " ఢిల్లీ": 8283,
      " குறிப்பிடத்தக்க": 8284,
      "ाष्ट": 8285,
      "ెట్ట": 8286,
      " அணு": 8287,
      "ర్చ": 8288,
      " செல": 8289,
      " ఇంగ్ల": 8290,
      " சில": 8291,
      "ाष्ट्र": 8292,
      " వ్యా": 8293,
      "ஸ்": 8294,
      " వ్యాప": 8295,
      "ப்படு": 8296,
      "లంప": 8297,
      " நகர்": 8298,
      " कार": 8299,
      "ుతో": 8300,
      " ஈ": 8301,
      " తి": 8302,
      "த்திர": 8303,
      " స్వాతంత్ర్య": 8304,
      "ले": 8305,
      " எண்ணிக்க": 8306,
      " భాగం": 8307,
      "்க்க": 8308,
      "తాక": 8309,
      " காட்ட": 8310,
      "భిన్న": 8311,
      "ंग्रे": 8312,
      " வேள": 8313,
      " ప్రధానమంత్రి": 8314,
      "ாலும்": 8315,
      "సీ": 8316,
      " இரண்டு": 8317,
      " దేశానికి": 8318,
      "िका": 8319,
      "டித்த": 8320,
      " కారణంగా": 8321,
      " இணை": 8322,
      "ద్ధం": 8323,
      " கட்டு": 8324,
      " రాజ్యా": 8325,
      " प्रा": 8326,
      "ாகவும்": 8327,
      "జి": 8328,
      " புதிய": 8329,
      " న్యాయ": 8330,
      "ுகளில்": 8331,
      " నిర్వహణ": 8332,
      " पा": 8333,
      "ோர்": 8334,
      " ద్వార": 8335,
      " நுட்ப": 8336,
      " ద్వారా": 8337,
      " फ": 8338,
      " பே": 8339,
      "ుతుంది": 8340,
      " రాష్ట్రాల": 8341,
      " உள்ளிட்ட": 8342,
      " పద": 8343,
      " அட": 8344,
      "द्ध": 8345,
      " పద్ధతి": 8346,
      " வெற்ற": 8347,
      " సంకీర్ణ": 8348,
      " உறு": 8349,
      "బడ్డ": 8350,
      " உறுப்பின": 8351,
      "की": 8352,
      "ారిగా": 8353,
      "வையாகும்": 8354,
      " ఉంటుంది": 8355,
      "ிகளை": 8356,
      "िए": 8357,
      "భారతదేశపు": 8358,
      " துறைய": 8359,
      " వ్యవస్థలో": 8360,
      "லும்": 8361,
      " కోర్టు": 8362,
      " மேற்க": 8363,
      " दो": 8364,
      "టులు": 8365,
      "ுகளானவை": 8366,
      " సూచ": 8367,
      " மனித": 8368,
      " நீண்ட": 8369,
      " ఇవి": 8370,
      "ाण": 8371,
      " முன்": 8372,
      "దుగా": 8373,
      " தோன்ற": 8374,
      "ర్తి": 8375,
      " தற்போ": 8376,
      "క్షం": 8377,
      "ला": 8378,
      "த்தால்": 8379,
      " దాదా": 8380,
      " திர": 8381,
      " దాదాపు": 8382,
      " வடக்கு": 8383,
      "बंध": 8384,
      "ళ్": 8385,
      " நிலை": 8386,
      "ళ్ళ": 8387,
      " தொடங்கியது": 8388,
      "ుత్": 8389,
      " பௌத்த": 8390,
      " अधिक": 8391,
      "ోత": 8392,
      " சை": 8393,
      " ఎన్ని": 8394,
      "ர்ப": 8395,
      " ఎన్నిక": 8396,
      "ித்தது": 8397,
      "प्त": 8398,
      " కలిసి": 8399,
      " கடற்க": 8400,
      "డిన": 8401,
      " கடற்கர": 8402,
      "యం": 8403,
      " शास": 8404,
      "வெ": 8405,
      " పేర్కొ": 8406,
      " தாக்க": 8407,
      " నుంచి": 8408,
      " நகர": 8409,
      "ुर": 8410,
      " பஞ்ச": 8411,
      " మతాలు": 8412,
      " அறிய": 8413,
      " కుల": 8414,
      " முக்கியமான": 8415,
      " సంప్రదాయాలు": 8416,
      " स्थ": 8417,
      " பெரும்பான்": 8418,
      " కూడుకు": 8419,
      " நாடாளுமன்ற": 8420,
      " మై": 8421,
      "ையுடைய": 8422,
      "सा": 8423,
      "ష్ణ": 8424,
      " கல்": 8425,
      " ఉండ": 8426,
      "றி": 8427,
      " కాశ": 8428,
      "्प": 8429,
      "ாட்டில்": 8430,
      " కాశ్మ": 8431,
      " தன்": 8432,
      " ప్రజల": 8433,
      " நான": 8434,
      " धर्म": 8435,
      " ప్రభుత్వం": 8436,
      " பகுதிய": 8437,
      " శాస్త్ర": 8438,
      " குறிப்பாக": 8439,
      " శాస్త్రీయ": 8440,
      "ாச": 8441,
      "िन": 8442,
      " తక్కువ": 8443,
      "ியல": 8444,
      " పరిశ్రమలు": 8445,
      " வரலா": 8446,
      "रे": 8447,
      " సినిమాలు": 8448,
      "த்துவ": 8449,
      "ళి": 8450,
      " உள்ளடக்கிய": 8451,
      "த்தி": 8452,
      " రంగ": 8453,
      "र्थ": 8454,
      " பொருட்கள": 8455,
      " డ": 8456,
      " கொண்டு": 8457,
      " పట్టణాలు": 8458,
      " பெரும்": 8459,
      " కల్ప": 8460,
      " रूप": 8461,
      "ந்தைய": 8462,
      "టా": 8463,
      " பெற்றது": 8464,
      " మంది": 8465,
      " वर्ष": 8466,
      " வகு": 8467,
      " భిన్న": 8468,
      " இலக்கிய": 8469,
      " వర్గ": 8470,
      " உயர்": 8471,
      "ీక": 8472,
      " विश्व": 8473,
      " ஏற்பட்ட": 8474,
      " ముంబ": 8475,
      "ண்டும்": 8476,
      "వెనుక": 8477,
      " ஓவிய": 8478,
      "दी": 8479,
      "వెనుకటి": 8480,
      " இருந்தன": 8481,
      " కల": 8482,
      " ட": 8483,
      " राष्ट्र": 8484,
      " పురు": 8485,
      "ிம": 8486,
      " పురుష": 8487,
      " மத": 8488,
      "గణ": 8489,
      " கிராம": 8490,
      " घ": 8491,
      "లిం": 8492,
      "ுக்கும்": 8493,
      " முதன்மையான": 8494,
      " సంబ": 8495,
      "देश": 8496,
      " பாதுகாப்பு": 8497,
      " సంబంధ": 8498,
      " வென்ற": 8499,
      " కార్యక్రమ": 8500,
      "ில்லிய": 8501,
      "సా": 8502,
      " जो": 8503,
      "ில்லியன்": 8504,
      " జరు": 8505,
      " பொருட்கள்": 8506,
      " జరుపు": 8507,
      " கணக்க": 8508,
      "ियों": 8509,
      " జరుపుకు": 8510,
      " உணவ": 8511,
      " పండుగలు": 8512,
      " இதுவாகும்": 8513,
      "లీ": 8514,
      " पूर्व": 8515,
      " இதற்கு": 8516,
      " హిందీ": 8517,
      " தென்": 8518,
      " తెలు": 8519,
      "ள்க": 8520,
      "्म": 8521,
      " வேறுபட்ட": 8522,
      " తెలుగు": 8523,
      " இப்ப": 8524,
      " కన్న": 8525,
      " உருவாக": 8526,
      " नाम": 8527,
      " కన్నడ": 8528,
      " வாக்க": 8529,
      " తమిళం": 8530,
      " சாத": 8531,
      "ూరు": 8532,
      " बड़": 8533,
      " வில": 8534,
      "శాఖ": 8535,
      " தென்ன": 8536,
      " ప్రారం": 8537,
      " தென்னிந்திய": 8538,
      " चु": 8539,
      " தெற்கு": 8540,
      " ప్రారంభ": 8541,
      " முசு": 8542,
      "ోర్": 8543,
      " हुआ": 8544,
      " முசுலி": 8545,
      " ఇస్": 8546,
      "ணைய": 8547,
      " ఇస్లా": 8548,
      " விரிவ": 8549,
      " हुई": 8550,
      " ఇస్లామ": 8551,
      " இயக்க": 8552,
      " ఇస్లామాబాద్": 8553,
      " எதி": 8554,
      "जा": 8555,
      " முடி": 8556,
      " దక్షిణాసియా": 8557,
      " கல்விய": 8558,
      " సర్వీస": 8559,
      "ர்க்க": 8560,
      " సర్వీసులు": 8561,
      " अनु": 8562,
      " போத": 8563,
      "ాలనే": 8564,
      "ங்கு": 8565,
      " ప్రతిపా": 8566,
      " சொ": 8567,
      "वि": 8568,
      " ప్రతిపాదన": 8569,
      " பழ": 8570,
      " రైళ్లను": 8571,
      " கிழக்கு": 8572,
      "कि": 8573,
      "வர்": 8574,
      " శాఖ": 8575,
      "வர்கள்": 8576,
      "మతి": 8577,
      " வேளாண்": 8578,
      " स्व": 8579,
      "మేన": 8580,
      "ரின்": 8581,
      " నిర్": 8582,
      " கட்டுப்ப": 8583,
      "ोड़": 8584,
      " రోడ్": 8585,
      "வியல்": 8586,
      " కేవ": 8587,
      "இந்தியாவின்": 8588,
      "ல்ப": 8589,
      " కేవలం": 8590,
      "मान": 8591,
      " இவ்வா": 8592,
      "మాన": 8593,
      " தம": 8594,
      "జాలు": 8595,
      "सार": 8596,
      "ொரு": 8597,
      " చాల": 8598,
      " ஏற்ற": 8599,
      " చాలా": 8600,
      " ஏற்றும": 8601,
      " जाता": 8602,
      " పరంగా": 8603,
      "ூர்": 8604,
      " இருக்க": 8605,
      " భావి": 8606,
      "००": 8607,
      "ார்ந்த": 8608,
      " సాంప్రదాయిక": 8609,
      " காங்கிரசு": 8610,
      " సంగీత": 8611,
      "ाग": 8612,
      "களின்": 8613,
      " కథ": 8614,
      "ிகளில்": 8615,
      "ెల": 8616,
      "ैन": 8617,
      "ரிக்க": 8618,
      " పతకాలు": 8619,
      "ப்பின்": 8620,
      " టై": 8621,
      " பிரதம": 8622,
      " दिया": 8623,
      " ஐக்கிய": 8624,
      " సాధించ": 8625,
      " நடன": 8626,
      "ంటి": 8627,
      " शासन": 8628,
      " குடியரசு": 8629,
      " క్యాల": 8630,
      " பாக்க": 8631,
      " క్యాలెండ": 8632,
      " சீன": 8633,
      " प्रम": 8634,
      " క్యాలెండర్": 8635,
      " துணை": 8636,
      " மர": 8637,
      "దినాలు": 8638,
      " कु": 8639,
      " இரண்டாவது": 8640,
      "SB": 8641,
      " முன்னர்": 8642,
      "SBN": 8643,
      "சுக": 8644,
      " दे": 8645,
      " தற்போது": 8646,
      " వెబ్స": 8647,
      "ுக்குள்": 8648,
      " వెబ్సై": 8649,
      "में": 8650,
      "ந்ந": 8651,
      " వెబ్సైటు": 8652,
      " வேத": 8653,
      " కోట్ల": 8654,
      " அடிப்படைய": 8655,
      " मान": 8656,
      " జనాభాతో": 8657,
      " செய்த": 8658,
      "ాయుత": 8659,
      "ைகளில்": 8660,
      " పార్ల": 8661,
      "ारी": 8662,
      " கட்டட": 8663,
      " పార్లమె": 8664,
      " வைத்த": 8665,
      " పార్లమెంట": 8666,
      " సైనిక": 8667,
      "ாகப்": 8668,
      " उप": 8669,
      " సామర్": 8670,
      "நாய": 8671,
      " సామర్థ": 8672,
      "நாயக": 8673,
      " సామర్థ్యం": 8674,
      " उत्तर": 8675,
      " இன": 8676,
      " అణ": 8677,
      " நப": 8678,
      " ప్రాంతీయ": 8679,
      "றிய": 8680,
      "సియాలో": 8681,
      " ई": 8682,
      " వేల": 8683,
      " மைய": 8684,
      " కి": 8685,
      " உயிரின": 8686,
      " కిలో": 8687,
      "स्क": 8688,
      " காட": 8689,
      " కిలోమీ": 8690,
      " பெற": 8691,
      " కిలోమీటర్": 8692,
      " அரசியல": 8693,
      " కిలోమీటర్లకు": 8694,
      " रह": 8695,
      " సముద్ర": 8696,
      " அரசியலமை": 8697,
      " సముద్రతీ": 8698,
      " நவீன": 8699,
      " భాగా": 8700,
      "म्": 8701,
      " பகுதி": 8702,
      " భాగాన్ని": 8703,
      "ஞ்சிய": 8704,
      " కూడుకొ": 8705,
      " மெ": 8706,
      "ध्य": 8707,
      " కూడుకొని": 8708,
      "ரப்ப": 8709,
      " చారిత్రక": 8710,
      " ఉత్తరాన": 8711,
      "ாளர்கள்": 8712,
      " पार": 8713,
      " మహాస": 8714,
      " மக": 8715,
      " మహాసముద": 8716,
      " நீடித்த": 8717,
      " మహాసముద్రం": 8718,
      "பக": 8719,
      "ाली": 8720,
      " పశ్చిమాన": 8721,
      "ரால்": 8722,
      " తూ": 8723,
      " తూర్": 8724,
      " புது": 8725,
      " सि": 8726,
      " తూర్పు": 8727,
      "லம்": 8728,
      "ాతం": 8729,
      "ினர்": 8730,
      "లుగా": 8731,
      " बढ़": 8732,
      " மத்தியில்": 8733,
      " నేప": 8734,
      " பிரா": 8735,
      " నేపాల్": 8736,
      " பிராந்திய": 8737,
      " భూట": 8738,
      "ंद्र": 8739,
      " భూటాన్": 8740,
      "ர்களால்": 8741,
      "ుకుంట": 8742,
      "ேய": 8743,
      "లంక": 8744,
      "रिक": 8745,
      "திய": 8746,
      " ఇండ": 8747,
      " பாத": 8748,
      " ఇండో": 8749,
      " சார்ந்த": 8750,
      "దేశాలు": 8751,
      " यु": 8752,
      " தச": 8753,
      " పుట్టి": 8754,
      " బౌ": 8755,
      " தசாப்த": 8756,
      " బౌద్ధ": 8757,
      "ाने": 8758,
      "ுகளும்": 8759,
      " సిక్": 8760,
      "வி": 8761,
      "భాష": 8762,
      " இலட்ச": 8763,
      " ड": 8764,
      "ప్రా": 8765,
      " மலை": 8766,
      " ఏప": 8767,
      " ఏప్రి": 8768,
      " குறைவான": 8769,
      "नाव": 8770,
      " ఏప్రిల్": 8771,
      " மேற்பட்ட": 8772,
      " చైనాను": 8773,
      " ஆண்டின்": 8774,
      "ౌర్య": 8775,
      "ராச": 8776,
      "ोल": 8777,
      " సామ్రాజ్య": 8778,
      " நாட்டு": 8779,
      " పాలనలో": 8780,
      " கணக்கெடு": 8781,
      "పరి": 8782,
      " मह": 8783,
      " పలు": 8784,
      "ங்கில": 8785,
      " రాజ్యాలుగా": 8786,
      " என்பது": 8787,
      "ోయింది": 8788,
      "्री": 8789,
      " தெற்காசிய": 8790,
      " బ్రిటిష్": 8791,
      " சூ": 8792,
      " ఈస్": 8793,
      "கை": 8794,
      "ंड": 8795,
      " ఈస్ట్": 8796,
      " காரணமாக": 8797,
      " కంపెనీ": 8798,
      " ஆண்டில்": 8799,
      "ాధ": 8800,
      " வாக்கில்": 8801,
      " थी": 8802,
      " చేస": 8803,
      " அமைப்பு": 8804,
      " బ్రిటీ": 8805,
      "ிணை": 8806,
      " పరిపాలన": 8807,
      " समय": 8808,
      " அடிப்படையாகக்": 8809,
      " కిందకు": 8810,
      " தில்": 8811,
      "ింగ్": 8812,
      "்தான": 8813,
      " మహాత": 8814,
      "दान": 8815,
      " இணைய": 8816,
      " మహాత్": 8817,
      " మహాత్మా": 8818,
      " இந்தியாவை": 8819,
      " लिए": 8820,
      " నాయక": 8821,
      " குட": 8822,
      " నాయకత్వ": 8823,
      "னநாயக": 8824,
      " స్వాతంత్ర్యం": 8825,
      " பெயர": 8826,
      " प्रमुख": 8827,
      "సం": 8828,
      " நபர்": 8829,
      " అహ": 8830,
      "லிருந்து": 8831,
      " తర్వ": 8832,
      " बन": 8833,
      " வேகமாக": 8834,
      "భవ": 8835,
      "ாவிய": 8836,
      " సంస్క": 8837,
      " பால": 8838,
      " సంస్కరణ": 8839,
      " केंद्र": 8840,
      " நான்கு": 8841,
      " చెందుతున్న": 8842,
      " நாட்டின்": 8843,
      "కాహార": 8844,
      " கொண்டுள்ளன": 8845,
      "ष्": 8846,
      "పం": 8847,
      "ாம்": 8848,
      "ంటున్న": 8849,
      "ய்": 8850,
      " పేర్లు": 8851,
      " अन्य": 8852,
      " பிரபல": 8853,
      " చెప్": 8854,
      "தற்க": 8855,
      " చెప్పు": 8856,
      " చెప్పుకో": 8857,
      " எஞ்சிய": 8858,
      "ँच": 8859,
      " వేద": 8860,
      " சும": 8861,
      "ార్థ": 8862,
      " நகர்ப்புற": 8863,
      " ఉపయో": 8864,
      " छ": 8865,
      "ங்களானவை": 8866,
      " ఉపయోగి": 8867,
      "க்கி": 8868,
      " కృ": 8869,
      " அமைப்பானது": 8870,
      " राज्यों": 8871,
      " గోదా": 8872,
      " இருப்ப": 8873,
      "వరీ": 8874,
      " வேளாண்மை": 8875,
      "రేడు": 8876,
      "हीं": 8877,
      "ருக்க": 8878,
      "ండ్": 8879,
      "ங்களாக": 8880,
      " కనుక": 8881,
      "ிர்த்த": 8882,
      " దీని": 8883,
      "शिया": 8884,
      " காலத்திற்கு": 8885,
      "భరత": 8886,
      "ூர": 8887,
      "షం": 8888,
      "ीप": 8889,
      "ிக்கப்பட்ட": 8890,
      " మీ": 8891,
      " தங்கள": 8892,
      " మీద": 8893,
      " தங்களது": 8894,
      " మీదగా": 8895,
      "श्च": 8896,
      "తను": 8897,
      "ம்ம": 8898,
      " విశ్వ": 8899,
      "ண்கள்": 8900,
      " भू": 8901,
      "ామ": 8902,
      " சிற்ப": 8903,
      "నక": 8904,
      "ருக்கு": 8905,
      "తరువ": 8906,
      "வில்லை": 8907,
      "यु": 8908,
      " సింధూ": 8909,
      "பற்ற": 8910,
      " సింధూనది": 8911,
      " விளை": 8912,
      " పూర్వ": 8913,
      " मिल": 8914,
      "ப்படுவ": 8915,
      "ియ": 8916,
      " மீண்டும்": 8917,
      " రూపా": 8918,
      " ஐரோ": 8919,
      " बना": 8920,
      " రూపాంత": 8921,
      "ங்கும்": 8922,
      " చెంది": 8923,
      "வற்றின்": 8924,
      " వలన": 8925,
      " संघ": 8926,
      " துறை": 8927,
      "ముఖ్య": 8928,
      "ையை": 8929,
      " అవి": 8930,
      " வெப்ப": 8931,
      "जी": 8932,
      " ఇం": 8933,
      " இமயம": 8934,
      "ుగ": 8935,
      " శి": 8936,
      " தொடர்ச்ச": 8937,
      " हिन्दी": 8938,
      " మాన": 8939,
      " பிரிவ": 8940,
      " ఏర్పడ్డాయి": 8941,
      "ுடன": 8942,
      " క్రి": 8943,
      " द्व": 8944,
      "ணியானது": 8945,
      " స్థావ": 8946,
      " அம": 8947,
      " స్థావరాలు": 8948,
      "ப்பை": 8949,
      "ारा": 8950,
      " మె": 8951,
      " 2011ஆம்": 8952,
      "హర్": 8953,
      " மதிப்ப": 8954,
      "గర్": 8955,
      "राज्य": 8956,
      " சராச": 8957,
      " ప్రాంతాల్లో": 8958,
      " இடத்த": 8959,
      " విధ": 8960,
      " உள்ளிட்டவை": 8961,
      "ब्": 8962,
      " చెందాయి": 8963,
      "ண்களுக்கு": 8964,
      " సామ్రాజ": 8965,
      "மண": 8966,
      " సామ్రాజ్యం": 8967,
      "श्चिम": 8968,
      " போட்டிகள்": 8969,
      " విలు": 8970,
      "இந்தியா": 8971,
      " విలువ": 8972,
      "िस्त": 8973,
      " அதிகார": 8974,
      " వం": 8975,
      " இந்தியக்": 8976,
      " తరువాతి": 8977,
      "ல்லை": 8978,
      "िस्तान": 8979,
      "ణించ": 8980,
      " அமைந்த": 8981,
      " పల్ల": 8982,
      " அந்த": 8983,
      " పాలించ": 8984,
      " ख": 8985,
      " கொள்க": 8986,
      " పాలించారు": 8987,
      " ஆண்டுகளுக்கு": 8988,
      "జ్": 8989,
      "டுத்து": 8990,
      "सी": 8991,
      " కళ": 8992,
      "மே": 8993,
      " కళలు": 8994,
      " கவன": 8995,
      " సారస్వ": 8996,
      " करने": 8997,
      " சைன": 8998,
      " సారస్వతం": 8999,
      "ப்த": 9000,
      "గోళ": 9001,
      " கங்க": 9002,
      "द्य": 9003,
      " సాంక": 9004,
      "மையை": 9005,
      " సాంకే": 9006,
      " இரா": 9007,
      " సాంకేతిక": 9008,
      " முசுலிம்": 9009,
      "चीन": 9010,
      " சமவெ": 9011,
      " తత్వ": 9012,
      " தா": 9013,
      " మొదలైనవి": 9014,
      " रहा": 9015,
      " தில்லி": 9016,
      " సహస": 9017,
      " சுல": 9018,
      " సహస్ర": 9019,
      " சுல்தான": 9020,
      "टे": 9021,
      " సహస్రాబ్": 9022,
      " சுல்தானக": 9023,
      " సహస్రాబ్ది": 9024,
      " நூற்றாண்டில்": 9025,
      "కుల": 9026,
      "हर": 9027,
      "ளவில்": 9028,
      " మొగలు": 9029,
      " கட்டடக்": 9030,
      " అయినా": 9031,
      " கிழக்கிந்திய": 9032,
      "ोक": 9033,
      " ముఖ్యంగా": 9034,
      " குடும்ப": 9035,
      "లబ": 9036,
      "ியை": 9037,
      "రెండ": 9038,
      "தில்": 9039,
      " देशों": 9040,
      "్రాన్": 9041,
      "றாக": 9042,
      " ఐరో": 9043,
      " வரு": 9044,
      "िये": 9045,
      " ఐరోపా": 9046,
      " வருமான": 9047,
      " ఇక్క": 9048,
      "டியாக": 9049,
      " வரும்": 9050,
      "ితి": 9051,
      " दश": 9052,
      " பல்வே": 9053,
      " బ్రిటిషు": 9054,
      " பல்வேறு": 9055,
      " తిరు": 9056,
      " अम": 9057,
      " அடைய": 9058,
      " తిరుగు": 9059,
      " இச": 9060,
      " తిరుగుబ": 9061,
      " உலகள": 9062,
      " తిరుగుబా": 9063,
      " अंग्रे": 9064,
      " உலகளாவிய": 9065,
      " తిరుగుబాటు": 9066,
      " போதிலும்": 9067,
      "ంచిన": 9068,
      " एशिया": 9069,
      " ஆதர": 9070,
      " సమరం": 9071,
      " குறிக்க": 9072,
      " జనవరి": 9073,
      " பண்ட": 9074,
      " पाक": 9075,
      " 26న": 9076,
      "ிந்து": 9077,
      " గణతంత్ర": 9078,
      " நூற்றாண்டின்": 9079,
      " पाकिस्तान": 9080,
      " రాజ్యంగా": 9081,
      " துண": 9082,
      " జాత": 9083,
      " காலத்தில்": 9084,
      " జాతులు": 9085,
      " लग": 9086,
      "ர்களின்": 9087,
      " విభిన్న": 9088,
      " சுமார்": 9089,
      "ర్షణ": 9090,
      " விவ": 9091,
      " संस्क": 9092,
      " காலத்தின்": 9093,
      " చవి": 9094,
      "தை": 9095,
      " లౌక": 9096,
      " हुए": 9097,
      " மேல்": 9098,
      " లౌకిక": 9099,
      "ீட": 9100,
      " లక్షణ": 9101,
      "த்தைச்": 9102,
      " मै": 9103,
      " కాపా": 9104,
      " முன்னேற்ற": 9105,
      " కాపాడుకు": 9106,
      " நெ": 9107,
      " కాపాడుకుంట": 9108,
      "काल": 9109,
      " சார": 9110,
      " కాపాడుకుంటూ": 9111,
      "வே": 9112,
      " అప్ప": 9113,
      "ோக": 9114,
      "्यव": 9115,
      " మాత్రమ": 9116,
      " புர": 9117,
      " మాత్రమే": 9118,
      " அந்ந": 9119,
      " स्वत": 9120,
      "ౌర": 9121,
      " எத": 9122,
      "వాదం": 9123,
      "ல்கள்": 9124,
      " సభ్య": 9125,
      " अनुसार": 9126,
      " பட்ட": 9127,
      " పరీ": 9128,
      " வலி": 9129,
      " పరీక్ష": 9130,
      " நடை": 9131,
      " या": 9132,
      " నిర్వహించింది": 9133,
      " புற": 9134,
      " தொகை": 9135,
      " మరో": 9136,
      " पह": 9137,
      "ந்தி": 9138,
      " రాజ్యాంగం": 9139,
      " அதிகரித்தது": 9140,
      " అధికారం": 9141,
      " கி": 9142,
      " कई": 9143,
      " లె": 9144,
      " தள": 9145,
      "వ్యవస్థ": 9146,
      " தாங்க": 9147,
      "మల": 9148,
      " जी": 9149,
      " வேலை": 9150,
      "వుతుంది": 9151,
      " பங்கள": 9152,
      " పదవి": 9153,
      " निर्म": 9154,
      " சா": 9155,
      " ఎల": 9156,
      " ஒன்றிய": 9157,
      " ఎలక్": 9158,
      " செயல்ப": 9159,
      " विक": 9160,
      " ఎలక్ట": 9161,
      " நாடுகள": 9162,
      " ఎలక్టోర": 9163,
      "ீப": 9164,
      " ఎలక్టోరల్": 9165,
      " होता": 9166,
      " தடு": 9167,
      " కాలే": 9168,
      " சது": 9169,
      " సంవత్సర": 9170,
      " கிராமப்புற": 9171,
      "ीच": 9172,
      "మిత": 9173,
      " தலைமை": 9174,
      " ఎన్నుకో": 9175,
      " ஆண்டுகளில்": 9176,
      " नहीं": 9177,
      " தேர்ந்த": 9178,
      " ఎన్నుకోబడ": 9179,
[...]
